#include "streams/biosignals/biosignal_stream.h"

const unsigned char absence_dr_pr[] = {
    0x1c, 0x00, 0x00, 0x00, 0x54, 0x46, 0x4c, 0x33, 0x14, 0x00, 0x20, 0x00,
    0x1c, 0x00, 0x18, 0x00, 0x14, 0x00, 0x10, 0x00, 0x0c, 0x00, 0x00, 0x00,
    0x08, 0x00, 0x04, 0x00, 0x14, 0x00, 0x00, 0x00, 0x1c, 0x00, 0x00, 0x00,
    0x80, 0x00, 0x00, 0x00, 0xb0, 0x00, 0x00, 0x00, 0x08, 0x0e, 0x00, 0x00,
    0x18, 0x0e, 0x00, 0x00, 0x60, 0x14, 0x00, 0x00, 0x03, 0x00, 0x00, 0x00,
    0x01, 0x00, 0x00, 0x00, 0x04, 0x00, 0x00, 0x00, 0x86, 0xf0, 0xff, 0xff,
    0x0c, 0x00, 0x00, 0x00, 0x1c, 0x00, 0x00, 0x00, 0x38, 0x00, 0x00, 0x00,
    0x0f, 0x00, 0x00, 0x00, 0x73, 0x65, 0x72, 0x76, 0x69, 0x6e, 0x67, 0x5f,
    0x64, 0x65, 0x66, 0x61, 0x75, 0x6c, 0x74, 0x00, 0x01, 0x00, 0x00, 0x00,
    0x04, 0x00, 0x00, 0x00, 0xc4, 0xff, 0xff, 0xff, 0x10, 0x00, 0x00, 0x00,
    0x04, 0x00, 0x00, 0x00, 0x06, 0x00, 0x00, 0x00, 0x6f, 0x75, 0x74, 0x70,
    0x75, 0x74, 0x00, 0x00, 0x01, 0x00, 0x00, 0x00, 0x04, 0x00, 0x00, 0x00,
    0x86, 0xf2, 0xff, 0xff, 0x04, 0x00, 0x00, 0x00, 0x05, 0x00, 0x00, 0x00,
    0x69, 0x6e, 0x70, 0x75, 0x74, 0x00, 0x00, 0x00, 0x01, 0x00, 0x00, 0x00,
    0x0c, 0x00, 0x00, 0x00, 0x08, 0x00, 0x0c, 0x00, 0x08, 0x00, 0x04, 0x00,
    0x08, 0x00, 0x00, 0x00, 0x12, 0x00, 0x00, 0x00, 0x04, 0x00, 0x00, 0x00,
    0x13, 0x00, 0x00, 0x00, 0x6d, 0x69, 0x6e, 0x5f, 0x72, 0x75, 0x6e, 0x74,
    0x69, 0x6d, 0x65, 0x5f, 0x76, 0x65, 0x72, 0x73, 0x69, 0x6f, 0x6e, 0x00,
    0x13, 0x00, 0x00, 0x00, 0x54, 0x0d, 0x00, 0x00, 0x4c, 0x0d, 0x00, 0x00,
    0x2c, 0x0d, 0x00, 0x00, 0x0c, 0x0d, 0x00, 0x00, 0xf4, 0x0c, 0x00, 0x00,
    0xc4, 0x0c, 0x00, 0x00, 0xb4, 0x0b, 0x00, 0x00, 0x9c, 0x0b, 0x00, 0x00,
    0x8c, 0x09, 0x00, 0x00, 0x7c, 0x00, 0x00, 0x00, 0x5c, 0x00, 0x00, 0x00,
    0x54, 0x00, 0x00, 0x00, 0x4c, 0x00, 0x00, 0x00, 0x44, 0x00, 0x00, 0x00,
    0x3c, 0x00, 0x00, 0x00, 0x34, 0x00, 0x00, 0x00, 0x2c, 0x00, 0x00, 0x00,
    0x24, 0x00, 0x00, 0x00, 0x04, 0x00, 0x00, 0x00, 0x1e, 0xf3, 0xff, 0xff,
    0x04, 0x00, 0x00, 0x00, 0x10, 0x00, 0x00, 0x00, 0x31, 0x2e, 0x36, 0x2e,
    0x30, 0x00, 0x00, 0x00, 0x00, 0x00, 0x00, 0x00, 0x00, 0x00, 0x00, 0x00,
    0xe8, 0xec, 0xff, 0xff, 0xec, 0xec, 0xff, 0xff, 0xf0, 0xec, 0xff, 0xff,
    0xf4, 0xec, 0xff, 0xff, 0xf8, 0xec, 0xff, 0xff, 0xfc, 0xec, 0xff, 0xff,
    0x00, 0xed, 0xff, 0xff, 0x56, 0xf3, 0xff, 0xff, 0x04, 0x00, 0x00, 0x00,
    0x10, 0x00, 0x00, 0x00, 0x01, 0x00, 0x00, 0x00, 0x0c, 0x00, 0x00, 0x00,
    0x18, 0x00, 0x00, 0x00, 0x01, 0x00, 0x00, 0x00, 0x72, 0xf3, 0xff, 0xff,
    0x04, 0x00, 0x00, 0x00, 0x00, 0x09, 0x00, 0x00, 0x65, 0xc7, 0x1a, 0xbc,
    0xe3, 0xba, 0x85, 0xbc, 0xb4, 0x59, 0x22, 0xbc, 0x65, 0x2c, 0x46, 0x3a,
    0x65, 0xfd, 0x06, 0xbb, 0x43, 0x8a, 0x92, 0xbb, 0x9b, 0x99, 0x2a, 0x3a,
    0x52, 0xc7, 0xaa, 0xbb, 0x51, 0xcb, 0xfe, 0xbb, 0x0b, 0x61, 0x11, 0xbc,
    0xd5, 0x07, 0x44, 0xbc, 0x53, 0x07, 0x0d, 0xbc, 0x02, 0x98, 0xa8, 0xba,
    0x6e, 0x86, 0x22, 0xbb, 0x01, 0x9c, 0xab, 0xbb, 0xc6, 0xf0, 0xda, 0x39,
    0xf3, 0xbd, 0x7d, 0x39, 0x9b, 0xb2, 0x49, 0xbb, 0xb7, 0xe3, 0x23, 0x3b,
    0x32, 0xd8, 0xd1, 0x3b, 0xdd, 0xe2, 0x55, 0x3c, 0x16, 0xc1, 0x17, 0xbb,
    0x81, 0x59, 0x00, 0x3c, 0x6f, 0xc4, 0x8e, 0x3b, 0x2d, 0x42, 0x60, 0xba,
    0x64, 0x5e, 0x9c, 0x3c, 0xfd, 0x5e, 0x72, 0x3b, 0x06, 0x26, 0x5b, 0x3b,
    0x03, 0xa3, 0x11, 0x3c, 0x3e, 0x44, 0x2f, 0x3c, 0x03, 0x99, 0x3e, 0xbb,
    0xe5, 0x26, 0x00, 0x3c, 0x1b, 0x97, 0xb1, 0x3b, 0x18, 0xd2, 0x78, 0xba,
    0x47, 0x9d, 0x94, 0x3c, 0x73, 0x54, 0x9d, 0x3b, 0xc0, 0x77, 0x06, 0x3d,
    0x5c, 0xb6, 0x88, 0xbd, 0xea, 0xa9, 0x0d, 0x3d, 0x93, 0x20, 0x29, 0xbd,
    0x5a, 0xb3, 0x62, 0x3d, 0x92, 0x63, 0xe3, 0xbc, 0xe1, 0x04, 0xda, 0xbc,
    0x15, 0x80, 0x25, 0xbc, 0x29, 0xe3, 0x47, 0x3c, 0x88, 0x80, 0x15, 0xbc,
    0xfe, 0x1c, 0x50, 0xbc, 0x93, 0x15, 0xfb, 0xbb, 0xd7, 0x79, 0xb0, 0xba,
    0xf9, 0x14, 0x31, 0xbb, 0x84, 0x7b, 0xae, 0xbb, 0xcd, 0x4c, 0x61, 0x39,
    0xd6, 0x70, 0xad, 0x39, 0x8e, 0xdf, 0x41, 0xbb, 0xfa, 0xc2, 0x39, 0x3d,
    0x1a, 0x4f, 0xd9, 0xbd, 0xd8, 0xf6, 0x48, 0x3d, 0x04, 0xc4, 0x1a, 0xbd,
    0x43, 0x65, 0x84, 0x3d, 0xcc, 0xb3, 0x29, 0xbd, 0x1b, 0xa4, 0x96, 0xbc,
    0xee, 0x1c, 0xb4, 0x3c, 0x0d, 0x27, 0xc1, 0xbc, 0xda, 0x41, 0x2e, 0xbc,
    0x6e, 0xee, 0x6b, 0xbc, 0x67, 0x56, 0x25, 0xbc, 0x1b, 0x0d, 0x3e, 0x3a,
    0x3e, 0xdf, 0x05, 0xbb, 0xc8, 0xae, 0x8f, 0xbb, 0xe0, 0x94, 0xf6, 0x39,
    0xc2, 0x98, 0xa3, 0xbb, 0x00, 0xd2, 0xf5, 0xbb, 0x1b, 0x4b, 0xca, 0xbc,
    0xd3, 0xdc, 0x8a, 0x3c, 0x56, 0x2a, 0x1f, 0x3c, 0xa6, 0x27, 0x48, 0x3d,
    0x9d, 0x3b, 0x2f, 0xbd, 0x23, 0xd9, 0x87, 0xbc, 0xb6, 0xb2, 0x00, 0xbd,
    0x95, 0x1d, 0xa2, 0x3b, 0xf8, 0x5e, 0x82, 0x3b, 0x95, 0x92, 0x83, 0x3c,
    0xca, 0x25, 0x85, 0xb9, 0xbc, 0x48, 0xf7, 0xba, 0x80, 0xcd, 0x57, 0xbd,
    0xa0, 0x5c, 0x55, 0xbb, 0xbb, 0x48, 0x89, 0x3c, 0x2a, 0x9d, 0x1d, 0x3c,
    0xb8, 0x79, 0xc8, 0xba, 0xb9, 0xff, 0x56, 0xbc, 0xf2, 0x79, 0xf1, 0xba,
    0xa9, 0x31, 0xc7, 0xbb, 0x15, 0xbb, 0xcd, 0xbb, 0x5b, 0xd4, 0xba, 0x3a,
    0xc1, 0xae, 0x40, 0x3c, 0x85, 0x77, 0x55, 0x3c, 0x92, 0x25, 0x9d, 0xbc,
    0xf5, 0x75, 0x38, 0xbc, 0x14, 0xb0, 0x09, 0xbc, 0x62, 0x06, 0x8a, 0x3b,
    0xff, 0x52, 0x0f, 0x3c, 0xb7, 0x63, 0x0d, 0x3c, 0xc2, 0xf4, 0x4c, 0xbb,
    0x0e, 0xa6, 0xc4, 0x3b, 0xe5, 0xa3, 0x77, 0x3b, 0x3d, 0x3d, 0xca, 0x39,
    0x19, 0x6a, 0x9c, 0x3c, 0x3c, 0x4f, 0x86, 0x3b, 0xe1, 0x23, 0xc3, 0xbb,
    0xd2, 0xef, 0x66, 0x3c, 0x7f, 0x36, 0x0c, 0x3a, 0xb1, 0x40, 0x0a, 0x3b,
    0xd6, 0x8a, 0xaa, 0x3d, 0x47, 0x65, 0xaa, 0xbd, 0xaa, 0x7a, 0x60, 0xbb,
    0x96, 0x63, 0x06, 0x3e, 0x51, 0x61, 0x08, 0xbe, 0xba, 0x17, 0x69, 0x3c,
    0x26, 0x50, 0x4c, 0x3c, 0xd9, 0x3b, 0x1b, 0x3b, 0x02, 0x74, 0x26, 0xbc,
    0xdf, 0x4e, 0x86, 0x3c, 0x90, 0x3a, 0xf0, 0xbc, 0xe7, 0x0a, 0xd1, 0x3b,
    0x8e, 0xc1, 0x75, 0x3d, 0x1e, 0x94, 0x21, 0xbd, 0xd4, 0x01, 0x38, 0xbc,
    0xfe, 0xd2, 0x65, 0xbd, 0x8c, 0xed, 0x49, 0x3d, 0x36, 0xab, 0xf0, 0x3c,
    0xa3, 0x85, 0xa3, 0x3c, 0x2f, 0xc2, 0x69, 0xbd, 0x00, 0xbe, 0x35, 0x3d,
    0x12, 0x05, 0xc7, 0x3c, 0x4f, 0x42, 0x90, 0xbd, 0x17, 0x31, 0xa1, 0x3c,
    0xa2, 0xf1, 0x66, 0xbb, 0x15, 0xb2, 0x72, 0xbb, 0x6e, 0x0a, 0x71, 0xbd,
    0xeb, 0x95, 0x87, 0xbb, 0xb3, 0x3b, 0x54, 0x3c, 0xc7, 0x92, 0x67, 0xbb,
    0x40, 0x31, 0x97, 0xbb, 0x42, 0x86, 0x0e, 0x3b, 0x0d, 0xbf, 0x19, 0xbb,
    0xb7, 0xb0, 0xc5, 0xbb, 0x8c, 0xff, 0x79, 0xbb, 0x92, 0x06, 0x3b, 0x3b,
    0xb0, 0xfd, 0xf0, 0x3b, 0xf5, 0xd4, 0x47, 0x3c, 0x8a, 0x33, 0xd1, 0xbc,
    0xc3, 0x8e, 0x88, 0xbc, 0x1f, 0xef, 0x1e, 0xbb, 0x72, 0x24, 0x7e, 0x3b,
    0x83, 0x68, 0xd4, 0x3b, 0x49, 0xf9, 0x38, 0x3c, 0x64, 0xfe, 0x1e, 0xbb,
    0x52, 0x9e, 0x09, 0x3c, 0x49, 0xf9, 0x16, 0x3b, 0x93, 0xec, 0x9f, 0xba,
    0x20, 0x5e, 0xa1, 0x3c, 0xaa, 0xb6, 0x59, 0x3b, 0x4b, 0xea, 0x26, 0xbc,
    0x8a, 0xed, 0x71, 0xbc, 0x3c, 0xcd, 0x22, 0xbc, 0x94, 0xdf, 0x9c, 0x39,
    0x90, 0x80, 0x04, 0xbb, 0x14, 0xb0, 0x87, 0xbb, 0xca, 0x40, 0xc8, 0x39,
    0x80, 0x15, 0xa1, 0xbb, 0x91, 0xf9, 0xf9, 0xbb, 0xc7, 0xb4, 0x0f, 0xbc,
    0x3d, 0x32, 0x57, 0xbc, 0x56, 0xa0, 0x02, 0xbc, 0x5c, 0x7b, 0xb8, 0xba,
    0xdf, 0x09, 0x2b, 0xbb, 0xaa, 0x67, 0xb1, 0xbb, 0x3f, 0xb0, 0x1b, 0x3a,
    0x8a, 0xfe, 0xc9, 0x39, 0xa2, 0x2a, 0x47, 0xbb, 0xae, 0x98, 0x77, 0x3b,
    0x76, 0x5e, 0xa4, 0x3b, 0x64, 0xed, 0x39, 0x3c, 0xdb, 0x11, 0x32, 0xbb,
    0x49, 0x17, 0xe9, 0x3b, 0x02, 0xae, 0xa8, 0x3b, 0x20, 0xec, 0x44, 0xba,
    0xaf, 0x08, 0x92, 0x3c, 0xc3, 0xea, 0xce, 0x3b, 0xc8, 0x45, 0x28, 0x3d,
    0x2d, 0x17, 0xd2, 0xbd, 0xa4, 0x57, 0x31, 0x3d, 0x01, 0x20, 0xe3, 0xbc,
    0xdf, 0xa4, 0x3b, 0x3d, 0xab, 0x1f, 0x0b, 0xbd, 0x28, 0xd1, 0x37, 0xbc,
    0x7c, 0xb3, 0x0e, 0x3d, 0x75, 0x85, 0xff, 0xbc, 0x82, 0x70, 0x76, 0x3b,
    0xcc, 0xde, 0x86, 0x3b, 0x02, 0xff, 0x48, 0x3c, 0xdb, 0x7f, 0x37, 0xbb,
    0xbc, 0xe6, 0x0b, 0x3c, 0x53, 0x6d, 0x4e, 0x3b, 0xe0, 0x37, 0x13, 0xb8,
    0xb6, 0x4e, 0xa0, 0x3c, 0xd2, 0x54, 0x84, 0x3b, 0xc6, 0xce, 0x3f, 0x3c,
    0x6f, 0xc8, 0xa0, 0x3b, 0xff, 0x5f, 0x10, 0x3c, 0x1f, 0xd0, 0x2c, 0x3a,
    0x1e, 0x94, 0xc4, 0x3b, 0xcb, 0x0c, 0x90, 0x3b, 0x37, 0xe3, 0xc2, 0xb8,
    0xa0, 0x43, 0x2a, 0x3c, 0x24, 0x6a, 0xec, 0x3a, 0xf9, 0x65, 0x51, 0x3b,
    0x8b, 0x9c, 0xf8, 0x3b, 0x7e, 0x54, 0x07, 0x3c, 0x73, 0x5b, 0x21, 0xbb,
    0x5e, 0xed, 0xf1, 0x3b, 0x9c, 0x9e, 0x8d, 0x3b, 0x4a, 0x40, 0xc4, 0xb7,
    0x64, 0x17, 0x9d, 0x3c, 0xc9, 0x79, 0x97, 0x3b, 0x95, 0xca, 0x18, 0xbc,
    0x21, 0xc9, 0x7f, 0xbc, 0x43, 0xa3, 0x1d, 0xbc, 0x88, 0x76, 0x1d, 0x3a,
    0x8a, 0xd6, 0x03, 0xbb, 0x29, 0x0e, 0x87, 0xbb, 0x74, 0x55, 0x17, 0x3a,
    0x8f, 0x89, 0xa6, 0xbb, 0xbe, 0x40, 0xf3, 0xbb, 0x4e, 0x32, 0xfd, 0xbb,
    0xbf, 0xc9, 0x86, 0x3d, 0x5c, 0x39, 0xaa, 0xbd, 0x92, 0x38, 0x62, 0xbc,
    0x82, 0xf6, 0x3e, 0xbd, 0x7e, 0x47, 0x4a, 0x3d, 0x25, 0x89, 0x51, 0x3c,
    0xcb, 0x18, 0x4c, 0xbd, 0x62, 0x8e, 0x52, 0x3c, 0xef, 0x65, 0x95, 0x3b,
    0x61, 0x1d, 0x9a, 0x3b, 0x21, 0x79, 0x4f, 0x3c, 0x23, 0x86, 0x3c, 0xbb,
    0x2e, 0x78, 0x08, 0x3c, 0x3f, 0x08, 0x16, 0x3b, 0xe9, 0x28, 0x82, 0xba,
    0xfd, 0x64, 0xb9, 0x3c, 0x69, 0x79, 0x29, 0x3b, 0x26, 0xf2, 0x27, 0x3c,
    0xf4, 0x83, 0x7c, 0x3b, 0xb9, 0x15, 0xd8, 0xbb, 0xab, 0xe3, 0x1e, 0x3d,
    0x93, 0xa9, 0xaf, 0xbd, 0x8e, 0x8d, 0x35, 0x3d, 0x14, 0xb8, 0x81, 0x3d,
    0x11, 0x94, 0x13, 0xbe, 0x10, 0xd9, 0x90, 0x3d, 0x9f, 0x4b, 0x1b, 0x3c,
    0x20, 0x9d, 0x2c, 0x3c, 0xcb, 0x18, 0x00, 0x3c, 0x91, 0xb5, 0x98, 0xb9,
    0xf6, 0xda, 0xc2, 0x3b, 0xc3, 0x89, 0x16, 0x3b, 0x68, 0xa8, 0x13, 0xba,
    0xb0, 0x31, 0x39, 0x3c, 0x49, 0xe0, 0xd6, 0x38, 0xfb, 0x8e, 0x1d, 0xbc,
    0x22, 0x7d, 0x84, 0xbc, 0xce, 0x42, 0x14, 0xbc, 0x8c, 0x12, 0xb2, 0x39,
    0x07, 0x2d, 0xff, 0xba, 0x62, 0x3e, 0x8f, 0xbb, 0x9d, 0xa9, 0x0d, 0x3a,
    0x88, 0x82, 0xa5, 0xbb, 0xb1, 0x0a, 0xf6, 0xbb, 0x19, 0x01, 0x0e, 0x3b,
    0x2b, 0xc7, 0xef, 0x3a, 0x20, 0xee, 0x79, 0x3c, 0xfe, 0x6d, 0x1c, 0xbb,
    0x56, 0x88, 0x1d, 0x3c, 0xd8, 0x65, 0x3d, 0x3b, 0x38, 0x71, 0x68, 0xba,
    0xea, 0xc4, 0xa1, 0x3c, 0xdb, 0xed, 0x8d, 0x3a, 0x66, 0x35, 0xb5, 0xb8,
    0x12, 0x6f, 0xeb, 0x3b, 0x8b, 0x2b, 0x31, 0x3c, 0x47, 0x9b, 0xb3, 0xba,
    0x67, 0x18, 0x1a, 0x3c, 0x95, 0x6e, 0x97, 0x3b, 0x6b, 0xc3, 0x86, 0xba,
    0xe2, 0x03, 0x96, 0x3c, 0xe2, 0xf5, 0xb3, 0x3a, 0x6c, 0x8c, 0x58, 0x3c,
    0x54, 0xb4, 0x7b, 0xbc, 0x3d, 0xc2, 0x53, 0x38, 0x78, 0x28, 0xc4, 0xbc,
    0xa0, 0xac, 0xae, 0xbc, 0xbc, 0x6d, 0x1d, 0x3d, 0xd1, 0x0f, 0xf3, 0x3b,
    0x3f, 0xe4, 0xa0, 0x3c, 0x98, 0x60, 0x48, 0xbd, 0x2c, 0xd8, 0xa8, 0xbc,
    0x8b, 0x18, 0x56, 0x3c, 0x12, 0xf7, 0x41, 0x3c, 0x0b, 0xfc, 0x32, 0x3d,
    0x4a, 0xc2, 0x14, 0xbd, 0x29, 0x74, 0xa4, 0xbc, 0x42, 0xa7, 0x0a, 0xbd,
    0x7d, 0x66, 0x87, 0x3b, 0x7a, 0xcb, 0x52, 0x3c, 0xc9, 0xa9, 0xfd, 0xbb,
    0x3b, 0xa5, 0x17, 0xbc, 0x07, 0x9f, 0xed, 0x3c, 0x98, 0xd3, 0xd4, 0xba,
    0xc8, 0x77, 0x56, 0x3c, 0xee, 0x7a, 0x49, 0xbd, 0xa6, 0x70, 0xa5, 0xbc,
    0xb1, 0x2e, 0x1b, 0xbd, 0xdc, 0x71, 0xe2, 0x3c, 0x00, 0xfa, 0x79, 0x3b,
    0x88, 0xf3, 0x22, 0x3b, 0x17, 0x6d, 0x4f, 0x3c, 0x1c, 0xee, 0x39, 0xbb,
    0x2c, 0x14, 0x13, 0x3c, 0xef, 0x41, 0x2a, 0x3b, 0x91, 0x18, 0xa0, 0xba,
    0x4c, 0x43, 0xb6, 0x3c, 0x22, 0x80, 0x06, 0x3b, 0x55, 0x88, 0x10, 0xbc,
    0xdb, 0xce, 0xb2, 0x3c, 0x8d, 0x99, 0xfa, 0x3a, 0x3b, 0xb4, 0x89, 0x3c,
    0x6c, 0x56, 0x6f, 0xbd, 0x60, 0x58, 0x6b, 0x39, 0x50, 0xdb, 0x5f, 0xbb,
    0x86, 0xc0, 0x16, 0xbb, 0x37, 0xad, 0xff, 0xba, 0xca, 0x3f, 0x20, 0x3d,
    0x1b, 0xcc, 0xed, 0xbd, 0x2f, 0x44, 0x46, 0x3d, 0xff, 0x10, 0xe4, 0xbc,
    0xa8, 0x01, 0x44, 0x3d, 0xaa, 0x34, 0x0a, 0xbd, 0xe6, 0xef, 0x37, 0xbc,
    0x78, 0x9e, 0x21, 0x3d, 0xfd, 0xf3, 0x16, 0xbd, 0xe5, 0x1c, 0xf7, 0x3b,
    0x61, 0xe6, 0x26, 0x3b, 0x48, 0x0c, 0x51, 0x3c, 0xf0, 0xab, 0x41, 0xbb,
    0x3e, 0x1a, 0x18, 0x3c, 0x74, 0xe1, 0x95, 0x3b, 0xdf, 0x5d, 0x0d, 0xbb,
    0x97, 0x8c, 0x8c, 0x3c, 0x29, 0xb3, 0x81, 0x3b, 0x16, 0x23, 0x93, 0x3b,
    0x8f, 0x97, 0xdf, 0xb9, 0xa0, 0xe6, 0x13, 0x3c, 0x20, 0x66, 0x97, 0xb7,
    0x2d, 0x77, 0x8d, 0x3d, 0xb1, 0x1f, 0x8d, 0xbd, 0x59, 0xf2, 0x03, 0x3b,
    0xaa, 0x93, 0xf3, 0x3d, 0x70, 0x62, 0xf4, 0xbd, 0xd3, 0x9d, 0x82, 0x3b,
    0x40, 0x13, 0x19, 0x3c, 0x7a, 0x5f, 0x12, 0x3c, 0x4e, 0x93, 0x03, 0xbb,
    0x78, 0x57, 0xf3, 0x3b, 0xa3, 0xc9, 0x8b, 0x3b, 0x39, 0xd4, 0xa6, 0xba,
    0x5e, 0x9d, 0x90, 0x3c, 0x55, 0x94, 0xb2, 0x3b, 0xad, 0xbf, 0xe6, 0x3b,
    0x58, 0x4f, 0x15, 0xbc, 0xb5, 0x79, 0x11, 0x3c, 0x39, 0xf5, 0x11, 0x3c,
    0xce, 0x5a, 0xa2, 0xbd, 0x88, 0xe3, 0x80, 0x3d, 0x25, 0xd2, 0xfd, 0x3c,
    0x8f, 0xab, 0x1e, 0xbe, 0x95, 0x46, 0x04, 0x3e, 0x8b, 0x88, 0xce, 0x3a,
    0xa3, 0x68, 0xd4, 0x3b, 0x1b, 0x27, 0x44, 0x3c, 0xe8, 0x7f, 0x26, 0xbb,
    0x72, 0x2c, 0x01, 0x3c, 0xbf, 0xdc, 0x56, 0x3a, 0xa0, 0xdc, 0x2d, 0xba,
    0x76, 0x98, 0xb2, 0x3c, 0x19, 0x88, 0x8c, 0x3a, 0x51, 0x38, 0x1a, 0xbb,
    0xb9, 0xf5, 0xc5, 0xbb, 0xbc, 0xd1, 0xa8, 0xbb, 0x18, 0x8b, 0x41, 0x3b,
    0xe9, 0xf4, 0x3a, 0x3c, 0xda, 0x5b, 0x2e, 0x3c, 0x51, 0x40, 0x8d, 0xbc,
    0x4d, 0xe3, 0x1f, 0xbc, 0xa1, 0xaa, 0x16, 0xbc, 0x44, 0x9f, 0x1a, 0xbc,
    0xc5, 0xbc, 0xb8, 0x3c, 0x80, 0xd5, 0x8b, 0x3a, 0x5f, 0xff, 0x96, 0x3c,
    0x62, 0xc3, 0x73, 0xbd, 0x4c, 0x1b, 0x5c, 0x39, 0x4e, 0x78, 0x0f, 0xba,
    0x52, 0x5b, 0x96, 0xba, 0xde, 0xf8, 0x34, 0xbb, 0xb9, 0x24, 0x4a, 0xbc,
    0x87, 0xe2, 0xa6, 0x3d, 0x62, 0xb6, 0xcc, 0xbd, 0xa9, 0x88, 0x29, 0xbb,
    0x00, 0x19, 0x65, 0xbd, 0x0a, 0xf0, 0x29, 0x3d, 0x04, 0xf9, 0x65, 0x3c,
    0xf0, 0x64, 0x54, 0xbd, 0x22, 0x49, 0x02, 0x3d, 0xa8, 0x20, 0x65, 0x3b,
    0xa0, 0xe5, 0xe6, 0x3b, 0x64, 0xb8, 0x3d, 0x3c, 0xb0, 0x7e, 0x90, 0xbb,
    0xcb, 0x9c, 0x2e, 0x3c, 0xe8, 0x4c, 0x73, 0x3b, 0x79, 0xfa, 0x1e, 0xbb,
    0xec, 0x43, 0xb6, 0x3c, 0x2e, 0xbc, 0x43, 0x3b, 0xf6, 0xd5, 0xa0, 0x3b,
    0xea, 0xca, 0x41, 0x3b, 0xc7, 0xdd, 0x56, 0x3c, 0x76, 0x2c, 0x50, 0xbb,
    0x34, 0x28, 0xfb, 0x3b, 0xbb, 0x7d, 0x4d, 0x3b, 0x9c, 0xce, 0xe9, 0xb8,
    0x9c, 0x9b, 0x96, 0x3c, 0x3f, 0xae, 0x97, 0x3b, 0xc0, 0x79, 0x09, 0x3c,
    0x22, 0xa0, 0x8e, 0x3b, 0x92, 0x79, 0x84, 0x3b, 0x85, 0x1c, 0x6e, 0xbb,
    0x00, 0x8e, 0x59, 0xbd, 0x24, 0xe1, 0x39, 0x3d, 0x7a, 0x16, 0x29, 0x3b,
    0xc8, 0x05, 0x80, 0xbd, 0x5d, 0x6c, 0xba, 0x3d, 0xa6, 0x02, 0x9f, 0x3b,
    0x25, 0x2c, 0x1e, 0x3c, 0xc4, 0xa4, 0x1d, 0x3c, 0xd0, 0x1b, 0x22, 0xbb,
    0x82, 0x0d, 0x02, 0x3c, 0x1a, 0x93, 0x22, 0x3b, 0x28, 0x89, 0xa7, 0xba,
    0x2a, 0xe9, 0xa1, 0x3c, 0x70, 0xf4, 0x45, 0x3b, 0x1a, 0x54, 0x70, 0x3b,
    0x8f, 0xf9, 0x83, 0x3a, 0x1a, 0xbf, 0x84, 0x3c, 0x85, 0x41, 0x0e, 0xbb,
    0xb7, 0xfa, 0x0b, 0x3c, 0x13, 0x34, 0x66, 0x3b, 0x2f, 0xff, 0x04, 0xbb,
    0xad, 0xb5, 0xa2, 0x3c, 0x5a, 0x8b, 0x86, 0x3b, 0x5c, 0x99, 0xc0, 0x3a,
    0xec, 0xa0, 0xa4, 0x3b, 0x2d, 0x57, 0x63, 0x3c, 0x66, 0x18, 0x09, 0xbb,
    0x67, 0xca, 0x18, 0x3c, 0xea, 0x1d, 0x43, 0x3b, 0x4b, 0x53, 0xc2, 0xba,
    0x7c, 0xeb, 0xb2, 0x3c, 0x7b, 0x22, 0x25, 0x3b, 0x76, 0xbf, 0x0f, 0xbc,
    0x3e, 0x10, 0x71, 0xbc, 0x68, 0x80, 0x18, 0xbc, 0x12, 0x97, 0x0a, 0x3a,
    0xd7, 0xe4, 0xe7, 0xba, 0x3a, 0x1e, 0x82, 0xbb, 0xb9, 0x13, 0xf6, 0x39,
    0xc4, 0xa0, 0x97, 0xbb, 0xe8, 0x54, 0xdf, 0xbb, 0xd8, 0xfd, 0x56, 0xbb,
    0x67, 0x86, 0xd8, 0xbb, 0x5b, 0xa6, 0xb0, 0xbb, 0x9d, 0x17, 0x8f, 0x3b,
    0x3d, 0x32, 0x61, 0x3c, 0xcb, 0xc8, 0x2f, 0x3c, 0x01, 0x10, 0xb1, 0xbc,
    0x6b, 0x94, 0x14, 0xbc, 0xad, 0x21, 0x26, 0xbc, 0x84, 0x7d, 0x0f, 0xbc,
    0x7a, 0x5a, 0x62, 0xbc, 0x32, 0xb2, 0x10, 0xbc, 0xf2, 0x7b, 0x2f, 0x3a,
    0x2b, 0x33, 0xea, 0xba, 0x8a, 0x8b, 0x80, 0xbb, 0xf7, 0x4c, 0xcb, 0x39,
    0xfc, 0xc4, 0x94, 0xbb, 0x24, 0xc9, 0xdb, 0xbb, 0xa0, 0x2f, 0x07, 0xbd,
    0x29, 0x13, 0x3a, 0x3d, 0x89, 0x8f, 0x97, 0xbc, 0xd3, 0x8e, 0x2a, 0x3d,
    0xf2, 0x49, 0x1b, 0xbd, 0x6d, 0xae, 0x19, 0xbd, 0x5b, 0xe5, 0x95, 0x3d,
    0xf5, 0x82, 0xe9, 0xbc, 0x6c, 0xbf, 0x30, 0xbd, 0x9c, 0xff, 0x13, 0xbc,
    0x89, 0x81, 0x5b, 0xbc, 0xcb, 0x31, 0x0d, 0xbc, 0x71, 0xa6, 0xc2, 0xba,
    0xba, 0xfc, 0x38, 0xbb, 0x25, 0x99, 0xbc, 0xbb, 0xd4, 0xc8, 0x16, 0x3a,
    0x69, 0xd2, 0x2c, 0x3a, 0x6c, 0x42, 0x49, 0xbb, 0x0b, 0x77, 0xab, 0xbc,
    0xff, 0x8b, 0x48, 0x3c, 0x35, 0xab, 0x36, 0x3c, 0xe7, 0x9f, 0x36, 0x3d,
    0xb1, 0x0c, 0x0c, 0xbd, 0x42, 0xf6, 0xae, 0xbc, 0x25, 0x6c, 0x04, 0xbd,
    0x47, 0x87, 0xd7, 0x3b, 0x2e, 0x14, 0x40, 0x3c, 0x4b, 0xa4, 0x13, 0x3c,
    0xb0, 0xd2, 0x2f, 0x3c, 0x92, 0x78, 0xf0, 0x3b, 0xf7, 0xd2, 0x23, 0x3a,
    0x8a, 0xfe, 0x9c, 0x3b, 0xbc, 0x82, 0x64, 0x3b, 0x5a, 0x01, 0x9b, 0x39,
    0x18, 0x98, 0x16, 0x3c, 0x8d, 0x41, 0xed, 0x3a, 0xa7, 0xc6, 0x2f, 0xbc,
    0xdb, 0x28, 0x50, 0xbc, 0xa5, 0xce, 0x0a, 0xbc, 0xb0, 0xec, 0x0d, 0x3a,
    0x70, 0x95, 0x00, 0xbb, 0xeb, 0x73, 0x83, 0xbb, 0xfc, 0x91, 0xd9, 0x39,
    0x0a, 0x7d, 0x96, 0xbb, 0x8f, 0xbd, 0xe5, 0xbb, 0x0f, 0x00, 0xd3, 0xbb,
    0xc2, 0xad, 0xc3, 0x3c, 0x08, 0x48, 0x43, 0x3b, 0x1e, 0x4b, 0x3e, 0x3c,
    0x0b, 0xbe, 0x96, 0xbd, 0x2a, 0x48, 0x95, 0x3b, 0x3d, 0x04, 0x88, 0xbb,
    0x71, 0xf4, 0x49, 0xbc, 0x26, 0xc7, 0x23, 0xbb, 0x42, 0x2b, 0xcc, 0xb9,
    0xeb, 0x9b, 0xab, 0xbb, 0x8a, 0xb6, 0x83, 0xb9, 0x92, 0x1c, 0xd0, 0xb9,
    0x06, 0xc2, 0x48, 0xbb, 0x30, 0x43, 0x9f, 0x3b, 0x11, 0xe9, 0xde, 0xbc,
    0x61, 0x78, 0xc9, 0xbc, 0x81, 0x96, 0x51, 0x3c, 0x91, 0xea, 0x84, 0xba,
    0x70, 0xe5, 0x9b, 0xba, 0x6e, 0xb8, 0x1c, 0xbb, 0x19, 0x71, 0x76, 0x3b,
    0x6c, 0x7a, 0x97, 0xbb, 0x6e, 0xd6, 0x9b, 0x3b, 0x28, 0xce, 0x19, 0xbc,
    0x4a, 0xa0, 0x9c, 0xbc, 0x44, 0x33, 0x4a, 0xbc, 0x7e, 0xfc, 0xff, 0xff,
    0x04, 0x00, 0x00, 0x00, 0x00, 0x02, 0x00, 0x00, 0xbf, 0x38, 0xde, 0x3e,
    0xac, 0x76, 0xbb, 0x3e, 0x39, 0xf4, 0xb7, 0xbe, 0xfc, 0x58, 0xa3, 0xbe,
    0x6b, 0x6a, 0x82, 0x3f, 0xe0, 0xe7, 0x69, 0x3e, 0x44, 0x6f, 0xb5, 0x3f,
    0x17, 0xe1, 0xac, 0x3e, 0x64, 0x77, 0xae, 0x3f, 0x29, 0x34, 0x00, 0x40,
    0x12, 0xae, 0xbb, 0x3f, 0x73, 0x23, 0xd4, 0xbe, 0x50, 0x2d, 0x89, 0xbf,
    0x48, 0x3f, 0x6d, 0xbf, 0x90, 0xa1, 0xbd, 0x3f, 0x94, 0xf5, 0x72, 0x40,
    0xaa, 0x70, 0x17, 0x40, 0xbd, 0x15, 0xe9, 0xbe, 0x2d, 0x2b, 0x72, 0x3e,
    0x50, 0x48, 0x8d, 0x3e, 0xe2, 0x41, 0xb6, 0xbe, 0x6a, 0x56, 0x08, 0x40,
    0x82, 0x65, 0xc0, 0xbe, 0x53, 0xf1, 0x49, 0xbe, 0x22, 0x28, 0xcc, 0xbe,
    0xe0, 0x81, 0x95, 0x3e, 0xa7, 0xae, 0x32, 0x40, 0xd2, 0xd3, 0xd8, 0xbe,
    0x91, 0x41, 0x12, 0xc0, 0x92, 0xa1, 0xac, 0xbe, 0xc0, 0xb6, 0x86, 0x3e,
    0xeb, 0xb9, 0xc1, 0xbe, 0xb3, 0xcd, 0x8f, 0xbe, 0x98, 0x13, 0xa7, 0x3f,
    0xa5, 0xdf, 0x8e, 0x3f, 0x46, 0x3a, 0x82, 0x40, 0x43, 0x3d, 0xb5, 0xbe,
    0x04, 0x12, 0x26, 0x40, 0xf8, 0x49, 0xfc, 0x3f, 0x70, 0xe4, 0x9a, 0xbe,
    0xbd, 0x59, 0xda, 0xbf, 0x3d, 0xbc, 0x9a, 0xbe, 0x8c, 0xbc, 0xe2, 0xbf,
    0xf3, 0x5d, 0xd5, 0xbe, 0x93, 0x0b, 0xb1, 0x3f, 0x8c, 0x70, 0x06, 0x40,
    0x51, 0xe8, 0x1e, 0x40, 0xfb, 0x05, 0xb8, 0xbe, 0x37, 0xd7, 0xbc, 0xbe,
    0x57, 0x45, 0xcc, 0xbf, 0x0a, 0xfb, 0xa2, 0xbe, 0x64, 0xf5, 0xaa, 0xbe,
    0x5a, 0x55, 0x87, 0xbe, 0x0e, 0xba, 0xc1, 0x3e, 0x46, 0x65, 0xb1, 0x3f,
    0xda, 0x30, 0xbe, 0x3e, 0x54, 0xc0, 0x3e, 0x40, 0x47, 0x7f, 0xb3, 0x3e,
    0xdb, 0x39, 0x32, 0x3f, 0x9e, 0xf4, 0xa5, 0xbe, 0xb1, 0x21, 0x95, 0x3e,
    0xe1, 0xbc, 0xb3, 0x40, 0x6f, 0xf2, 0x96, 0x40, 0xcc, 0xbc, 0xb5, 0x40,
    0x3b, 0x33, 0x72, 0xbe, 0xc9, 0x0b, 0x6f, 0xbe, 0xec, 0x94, 0x95, 0x3e,
    0xbe, 0xd5, 0xa6, 0x3e, 0xa5, 0xf7, 0x89, 0xbf, 0x27, 0x04, 0xc1, 0xbe,
    0x54, 0x97, 0xa9, 0xbf, 0x71, 0x40, 0x94, 0xbe, 0x4e, 0x17, 0xbb, 0xbf,
    0xc8, 0x1e, 0x03, 0xc0, 0x02, 0xcc, 0xb0, 0xbf, 0xc3, 0x19, 0xb9, 0x3e,
    0x14, 0xac, 0x92, 0x3f, 0xbf, 0xe6, 0x5d, 0x3f, 0x2e, 0x9a, 0xb5, 0xbf,
    0x08, 0xf3, 0x64, 0xc0, 0x4b, 0x2b, 0x16, 0xc0, 0x9b, 0x68, 0xab, 0x3e,
    0x48, 0x2b, 0xe8, 0xbe, 0xf3, 0x81, 0xaf, 0xbe, 0x45, 0xbb, 0xc7, 0x3e,
    0x09, 0xa4, 0xfe, 0xbf, 0x18, 0x21, 0xcb, 0x3e, 0xec, 0x48, 0xcc, 0x3e,
    0x3c, 0x53, 0xc0, 0x3e, 0x0f, 0x81, 0xc0, 0xbe, 0x5e, 0x81, 0x34, 0xc0,
    0x49, 0x9e, 0xbc, 0x3e, 0x85, 0xad, 0x16, 0x40, 0x5e, 0xdf, 0x7b, 0x3e,
    0x31, 0xd2, 0xbf, 0xbe, 0xb0, 0xe0, 0xa7, 0x3e, 0x08, 0x49, 0xa5, 0x3e,
    0x99, 0x02, 0x89, 0xbf, 0xa8, 0xed, 0x76, 0xbf, 0x97, 0x24, 0x87, 0xc0,
    0x5d, 0xed, 0xaa, 0x3e, 0xf7, 0xbe, 0x25, 0xc0, 0x5c, 0x76, 0x01, 0xc0,
    0x71, 0x92, 0x8f, 0x3e, 0x30, 0x72, 0xd6, 0x3f, 0xd7, 0x5c, 0xf1, 0x3e,
    0xac, 0x67, 0xcb, 0x3f, 0xb2, 0xa0, 0xd3, 0x3e, 0xab, 0xa2, 0xb1, 0xbf,
    0x79, 0x36, 0x11, 0xc0, 0xb4, 0x4b, 0x20, 0xc0, 0x7e, 0xed, 0xb3, 0x3e,
    0x88, 0xbc, 0xd0, 0x3e, 0x17, 0xcd, 0xce, 0x3f, 0xe5, 0x81, 0xbf, 0x3e,
    0xfd, 0x17, 0xa1, 0x3e, 0x62, 0x68, 0xdc, 0x3e, 0x4d, 0x0a, 0xbf, 0xbe,
    0x7d, 0x35, 0x92, 0xbf, 0xc5, 0xb9, 0xbe, 0xbe, 0xf8, 0xa9, 0x45, 0xc0,
    0x72, 0xa6, 0x34, 0xbe, 0xc3, 0xff, 0x2a, 0xbf, 0x25, 0x32, 0x82, 0x3e,
    0x23, 0xb7, 0xc3, 0xbe, 0xf0, 0x41, 0xba, 0xc0, 0x21, 0xad, 0x97, 0xc0,
    0x94, 0x51, 0xb5, 0xc0, 0x8a, 0xfe, 0xff, 0xff, 0x04, 0x00, 0x00, 0x00,
    0x08, 0x00, 0x00, 0x00, 0xce, 0xb1, 0x02, 0xbf, 0xb4, 0x1f, 0xcc, 0x3e,
    0x9e, 0xfe, 0xff, 0xff, 0x04, 0x00, 0x00, 0x00, 0x00, 0x01, 0x00, 0x00,
    0xf0, 0x98, 0xce, 0x3f, 0x70, 0x6a, 0xa9, 0x3f, 0x5c, 0x75, 0xe2, 0xbf,
    0x38, 0xfb, 0xee, 0xbf, 0x50, 0xa1, 0x5c, 0x3e, 0x92, 0x8b, 0xab, 0x3f,
    0x10, 0x9b, 0x4a, 0x3e, 0x7f, 0xdf, 0xc8, 0x3f, 0x60, 0xa2, 0xd2, 0xbd,
    0xb4, 0x19, 0xb5, 0xbe, 0x44, 0x80, 0xc2, 0x3e, 0x08, 0xf5, 0xec, 0xbf,
    0x4c, 0x6f, 0x6f, 0xbf, 0xc7, 0xa2, 0xda, 0xbf, 0x44, 0xca, 0x2d, 0x3e,
    0x11, 0x00, 0x62, 0xbf, 0x5c, 0xf0, 0x4c, 0x3e, 0xfe, 0xf4, 0xeb, 0xbf,
    0x29, 0xbf, 0xcb, 0x3f, 0xa1, 0xe9, 0xa9, 0x3f, 0x1c, 0xcc, 0xf1, 0xbf,
    0x00, 0xfa, 0x38, 0x3c, 0x82, 0x10, 0xeb, 0xbf, 0x13, 0xd4, 0x59, 0xbf,
    0x2a, 0xfd, 0xe9, 0xbf, 0xed, 0x85, 0xc8, 0x3f, 0x80, 0xb1, 0x6d, 0x3e,
    0x4f, 0xa2, 0xf9, 0xbf, 0xa3, 0xdd, 0x9c, 0xbf, 0x95, 0x8e, 0x56, 0xbf,
    0xca, 0xa7, 0xc9, 0x3f, 0x4e, 0x02, 0xd0, 0xbf, 0x67, 0x96, 0xb3, 0xbf,
    0x00, 0x7a, 0x8c, 0x3a, 0xe8, 0x25, 0xec, 0xbd, 0xe0, 0x69, 0x2e, 0xbe,
    0xb5, 0x4a, 0xdf, 0xbf, 0xb4, 0x28, 0xc0, 0xbe, 0xe0, 0x1e, 0x01, 0x3e,
    0xbd, 0xef, 0xcc, 0xbf, 0x77, 0xce, 0xeb, 0xbf, 0x75, 0x22, 0xf2, 0xbf,
    0x10, 0xda, 0xc9, 0xbf, 0x26, 0x41, 0xe0, 0xbf, 0xf9, 0xb6, 0xbe, 0x3e,
    0xda, 0x43, 0xd4, 0xbe, 0x80, 0xbf, 0x9c, 0x3d, 0xe0, 0xdf, 0xee, 0xbf,
    0x4e, 0x3f, 0xe3, 0xbf, 0xa2, 0x84, 0x1f, 0xc0, 0x95, 0xd0, 0xe9, 0xbf,
    0x44, 0x54, 0xde, 0xbf, 0x89, 0x26, 0xe7, 0xbf, 0xf8, 0x01, 0xb9, 0x3f,
    0xd0, 0x91, 0xd0, 0x3e, 0x24, 0x0e, 0xb5, 0x3f, 0xb0, 0xd9, 0x5d, 0xbe,
    0x5d, 0x1a, 0xb2, 0x3f, 0xa0, 0x76, 0xd4, 0xbd, 0x72, 0x24, 0x56, 0xbf,
    0xd3, 0xe9, 0xba, 0x3f, 0xd0, 0xe9, 0x10, 0xbf, 0xe8, 0x27, 0x5f, 0x3e,
    0xa0, 0xd1, 0x5c, 0x3e, 0xaa, 0xff, 0xff, 0xff, 0x04, 0x00, 0x00, 0x00,
    0x20, 0x00, 0x00, 0x00, 0x00, 0x00, 0x00, 0x00, 0x00, 0x00, 0x00, 0x00,
    0x00, 0x00, 0x00, 0x00, 0x00, 0x00, 0x00, 0x00, 0x01, 0x00, 0x00, 0x00,
    0x01, 0x00, 0x00, 0x00, 0x01, 0x00, 0x00, 0x00, 0x01, 0x00, 0x00, 0x00,
    0xd6, 0xff, 0xff, 0xff, 0x04, 0x00, 0x00, 0x00, 0x08, 0x00, 0x00, 0x00,
    0xff, 0xff, 0xff, 0xff, 0x40, 0x00, 0x00, 0x00, 0xea, 0xff, 0xff, 0xff,
    0x04, 0x00, 0x00, 0x00, 0x08, 0x00, 0x00, 0x00, 0x02, 0x00, 0x00, 0x00,
    0x03, 0x00, 0x00, 0x00, 0x00, 0x00, 0x06, 0x00, 0x08, 0x00, 0x04, 0x00,
    0x06, 0x00, 0x00, 0x00, 0x04, 0x00, 0x00, 0x00, 0x10, 0x00, 0x00, 0x00,
    0x00, 0x00, 0x00, 0x00, 0x03, 0x00, 0x00, 0x00, 0x01, 0x00, 0x00, 0x00,
    0x02, 0x00, 0x00, 0x00, 0xd0, 0xf9, 0xff, 0xff, 0xd4, 0xf9, 0xff, 0xff,
    0x0f, 0x00, 0x00, 0x00, 0x4d, 0x4c, 0x49, 0x52, 0x20, 0x43, 0x6f, 0x6e,
    0x76, 0x65, 0x72, 0x74, 0x65, 0x64, 0x2e, 0x00, 0x01, 0x00, 0x00, 0x00,
    0x14, 0x00, 0x00, 0x00, 0x00, 0x00, 0x0e, 0x00, 0x18, 0x00, 0x14, 0x00,
    0x10, 0x00, 0x0c, 0x00, 0x08, 0x00, 0x04, 0x00, 0x0e, 0x00, 0x00, 0x00,
    0x14, 0x00, 0x00, 0x00, 0x1c, 0x00, 0x00, 0x00, 0xbc, 0x01, 0x00, 0x00,
    0xc0, 0x01, 0x00, 0x00, 0xc4, 0x01, 0x00, 0x00, 0x04, 0x00, 0x00, 0x00,
    0x6d, 0x61, 0x69, 0x6e, 0x00, 0x00, 0x00, 0x00, 0x07, 0x00, 0x00, 0x00,
    0x74, 0x01, 0x00, 0x00, 0x3c, 0x01, 0x00, 0x00, 0xdc, 0x00, 0x00, 0x00,
    0xa4, 0x00, 0x00, 0x00, 0x64, 0x00, 0x00, 0x00, 0x3c, 0x00, 0x00, 0x00,
    0x04, 0x00, 0x00, 0x00, 0x46, 0xff, 0xff, 0xff, 0x14, 0x00, 0x00, 0x00,
    0x00, 0x00, 0x00, 0x08, 0x10, 0x00, 0x00, 0x00, 0x14, 0x00, 0x00, 0x00,
    0x05, 0x00, 0x00, 0x00, 0x60, 0xfa, 0xff, 0xff, 0x01, 0x00, 0x00, 0x00,
    0x10, 0x00, 0x00, 0x00, 0x03, 0x00, 0x00, 0x00, 0x0f, 0x00, 0x00, 0x00,
    0x07, 0x00, 0x00, 0x00, 0x06, 0x00, 0x00, 0x00, 0x1a, 0xff, 0xff, 0xff,
    0x0c, 0x00, 0x00, 0x00, 0x10, 0x00, 0x00, 0x00, 0x01, 0x00, 0x00, 0x00,
    0x01, 0x00, 0x00, 0x00, 0x0f, 0x00, 0x00, 0x00, 0x02, 0x00, 0x00, 0x00,
    0x0e, 0x00, 0x00, 0x00, 0x03, 0x00, 0x00, 0x00, 0x9e, 0xff, 0xff, 0xff,
    0x1c, 0x00, 0x00, 0x00, 0x00, 0x00, 0x00, 0x1b, 0x1c, 0x00, 0x00, 0x00,
    0x20, 0x00, 0x00, 0x00, 0x04, 0x00, 0x00, 0x00, 0x00, 0x00, 0x06, 0x00,
    0x08, 0x00, 0x07, 0x00, 0x06, 0x00, 0x00, 0x00, 0x00, 0x00, 0x00, 0x01,
    0x01, 0x00, 0x00, 0x00, 0x0e, 0x00, 0x00, 0x00, 0x02, 0x00, 0x00, 0x00,
    0x0d, 0x00, 0x00, 0x00, 0x02, 0x00, 0x00, 0x00, 0x7a, 0xff, 0xff, 0xff,
    0x0c, 0x00, 0x00, 0x00, 0x10, 0x00, 0x00, 0x00, 0x03, 0x00, 0x00, 0x00,
    0x01, 0x00, 0x00, 0x00, 0x0d, 0x00, 0x00, 0x00, 0x02, 0x00, 0x00, 0x00,
    0x0c, 0x00, 0x00, 0x00, 0x01, 0x00, 0x00, 0x00, 0x00, 0x00, 0x0e, 0x00,
    0x18, 0x00, 0x14, 0x00, 0x10, 0x00, 0x0c, 0x00, 0x0b, 0x00, 0x04, 0x00,
    0x0e, 0x00, 0x00, 0x00, 0x20, 0x00, 0x00, 0x00, 0x00, 0x00, 0x00, 0x01,
    0x2c, 0x00, 0x00, 0x00, 0x30, 0x00, 0x00, 0x00, 0x02, 0x00, 0x00, 0x00,
    0x0c, 0x00, 0x14, 0x00, 0x13, 0x00, 0x0c, 0x00, 0x08, 0x00, 0x07, 0x00,
    0x0c, 0x00, 0x00, 0x00, 0x00, 0x00, 0x00, 0x01, 0x02, 0x00, 0x00, 0x00,
    0x02, 0x00, 0x00, 0x00, 0x00, 0x00, 0x00, 0x01, 0x01, 0x00, 0x00, 0x00,
    0x0c, 0x00, 0x00, 0x00, 0x03, 0x00, 0x00, 0x00, 0x0b, 0x00, 0x00, 0x00,
    0x08, 0x00, 0x00, 0x00, 0x05, 0x00, 0x00, 0x00, 0x00, 0x00, 0x0a, 0x00,
    0x10, 0x00, 0x0c, 0x00, 0x08, 0x00, 0x04, 0x00, 0x0a, 0x00, 0x00, 0x00,
    0x0c, 0x00, 0x00, 0x00, 0x10, 0x00, 0x00, 0x00, 0x01, 0x00, 0x00, 0x00,
    0x01, 0x00, 0x00, 0x00, 0x0b, 0x00, 0x00, 0x00, 0x02, 0x00, 0x00, 0x00,
    0x0a, 0x00, 0x00, 0x00, 0x09, 0x00, 0x00, 0x00, 0x00, 0x00, 0x0e, 0x00,
    0x14, 0x00, 0x00, 0x00, 0x10, 0x00, 0x0c, 0x00, 0x0b, 0x00, 0x04, 0x00,
    0x0e, 0x00, 0x00, 0x00, 0x10, 0x00, 0x00, 0x00, 0x00, 0x00, 0x00, 0x16,
    0x0c, 0x00, 0x00, 0x00, 0x10, 0x00, 0x00, 0x00, 0xb4, 0xfb, 0xff, 0xff,
    0x01, 0x00, 0x00, 0x00, 0x0a, 0x00, 0x00, 0x00, 0x02, 0x00, 0x00, 0x00,
    0x00, 0x00, 0x00, 0x00, 0x04, 0x00, 0x00, 0x00, 0x01, 0x00, 0x00, 0x00,
    0x10, 0x00, 0x00, 0x00, 0x01, 0x00, 0x00, 0x00, 0x00, 0x00, 0x00, 0x00,
    0x11, 0x00, 0x00, 0x00, 0x0c, 0x04, 0x00, 0x00, 0xbc, 0x03, 0x00, 0x00,
    0x78, 0x03, 0x00, 0x00, 0x3c, 0x03, 0x00, 0x00, 0x04, 0x03, 0x00, 0x00,
    0xd4, 0x02, 0x00, 0x00, 0xa4, 0x02, 0x00, 0x00, 0x70, 0x02, 0x00, 0x00,
    0x30, 0x02, 0x00, 0x00, 0xf8, 0x01, 0x00, 0x00, 0xc0, 0x01, 0x00, 0x00,
    0x7c, 0x01, 0x00, 0x00, 0x18, 0x01, 0x00, 0x00, 0xd8, 0x00, 0x00, 0x00,
    0x9c, 0x00, 0x00, 0x00, 0x44, 0x00, 0x00, 0x00, 0x04, 0x00, 0x00, 0x00,
    0x46, 0xfc, 0xff, 0xff, 0x10, 0x00, 0x00, 0x00, 0x10, 0x00, 0x00, 0x00,
    0x11, 0x00, 0x00, 0x00, 0x20, 0x00, 0x00, 0x00, 0x38, 0xfc, 0xff, 0xff,
    0x11, 0x00, 0x00, 0x00, 0x50, 0x61, 0x72, 0x74, 0x69, 0x74, 0x69, 0x6f,
    0x6e, 0x65, 0x64, 0x43, 0x61, 0x6c, 0x6c, 0x3a, 0x30, 0x00, 0x00, 0x00,
    0x02, 0x00, 0x00, 0x00, 0x01, 0x00, 0x00, 0x00, 0x02, 0x00, 0x00, 0x00,
    0x82, 0xfc, 0xff, 0xff, 0x10, 0x00, 0x00, 0x00, 0x10, 0x00, 0x00, 0x00,
    0x10, 0x00, 0x00, 0x00, 0x38, 0x00, 0x00, 0x00, 0x74, 0xfc, 0xff, 0xff,
    0x28, 0x00, 0x00, 0x00, 0x66, 0x6c, 0x61, 0x74, 0x74, 0x65, 0x6e, 0x2f,
    0x52, 0x65, 0x73, 0x68, 0x61, 0x70, 0x65, 0x3b, 0x6f, 0x6e, 0x6e, 0x78,
    0x5f, 0x74, 0x66, 0x5f, 0x70, 0x72, 0x65, 0x66, 0x69, 0x78, 0x5f, 0x52,
    0x65, 0x73, 0x68, 0x61, 0x70, 0x65, 0x5f, 0x33, 0x00, 0x00, 0x00, 0x00,
    0x02, 0x00, 0x00, 0x00, 0x01, 0x00, 0x00, 0x00, 0x40, 0x00, 0x00, 0x00,
    0xd6, 0xfc, 0xff, 0xff, 0x10, 0x00, 0x00, 0x00, 0x10, 0x00, 0x00, 0x00,
    0x0f, 0x00, 0x00, 0x00, 0x14, 0x00, 0x00, 0x00, 0xc8, 0xfc, 0xff, 0xff,
    0x04, 0x00, 0x00, 0x00, 0x4d, 0x65, 0x61, 0x6e, 0x00, 0x00, 0x00, 0x00,
    0x04, 0x00, 0x00, 0x00, 0x01, 0x00, 0x00, 0x00, 0x40, 0x00, 0x00, 0x00,
    0x01, 0x00, 0x00, 0x00, 0x01, 0x00, 0x00, 0x00, 0x0e, 0xfd, 0xff, 0xff,
    0x10, 0x00, 0x00, 0x00, 0x10, 0x00, 0x00, 0x00, 0x0e, 0x00, 0x00, 0x00,
    0x18, 0x00, 0x00, 0x00, 0x00, 0xfd, 0xff, 0xff, 0x0b, 0x00, 0x00, 0x00,
    0x74, 0x72, 0x61, 0x6e, 0x73, 0x70, 0x6f, 0x73, 0x65, 0x5f, 0x32, 0x00,
    0x04, 0x00, 0x00, 0x00, 0x01, 0x00, 0x00, 0x00, 0x40, 0x00, 0x00, 0x00,
    0x05, 0x00, 0x00, 0x00, 0x0b, 0x00, 0x00, 0x00, 0x4a, 0xfd, 0xff, 0xff,
    0x10, 0x00, 0x00, 0x00, 0x10, 0x00, 0x00, 0x00, 0x0d, 0x00, 0x00, 0x00,
    0x3c, 0x00, 0x00, 0x00, 0x3c, 0xfd, 0xff, 0xff, 0x2d, 0x00, 0x00, 0x00,
    0x6f, 0x6e, 0x6e, 0x78, 0x5f, 0x74, 0x66, 0x5f, 0x70, 0x72, 0x65, 0x66,
    0x69, 0x78, 0x5f, 0x52, 0x65, 0x6c, 0x75, 0x5f, 0x31, 0x3b, 0x41, 0x64,
    0x64, 0x3b, 0x63, 0x6f, 0x6e, 0x76, 0x6f, 0x6c, 0x75, 0x74, 0x69, 0x6f,
    0x6e, 0x3b, 0x43, 0x6f, 0x6e, 0x73, 0x74, 0x5f, 0x31, 0x00, 0x00, 0x00,
    0x04, 0x00, 0x00, 0x00, 0x01, 0x00, 0x00, 0x00, 0x05, 0x00, 0x00, 0x00,
    0x0b, 0x00, 0x00, 0x00, 0x40, 0x00, 0x00, 0x00, 0xaa, 0xfd, 0xff, 0xff,
    0x10, 0x00, 0x00, 0x00, 0x10, 0x00, 0x00, 0x00, 0x0c, 0x00, 0x00, 0x00,
    0x1c, 0x00, 0x00, 0x00, 0x9c, 0xfd, 0xff, 0xff, 0x0c, 0x00, 0x00, 0x00,
    0x74, 0x72, 0x61, 0x6e, 0x73, 0x70, 0x6f, 0x73, 0x65, 0x5f, 0x31, 0x31,
    0x00, 0x00, 0x00, 0x00, 0x04, 0x00, 0x00, 0x00, 0x01, 0x00, 0x00, 0x00,
    0x0c, 0x00, 0x00, 0x00, 0x18, 0x00, 0x00, 0x00, 0x01, 0x00, 0x00, 0x00,
    0xea, 0xfd, 0xff, 0xff, 0x10, 0x00, 0x00, 0x00, 0x10, 0x00, 0x00, 0x00,
    0x0b, 0x00, 0x00, 0x00, 0x10, 0x00, 0x00, 0x00, 0xdc, 0xfd, 0xff, 0xff,
    0x03, 0x00, 0x00, 0x00, 0x50, 0x61, 0x64, 0x00, 0x04, 0x00, 0x00, 0x00,
    0x01, 0x00, 0x00, 0x00, 0x01, 0x00, 0x00, 0x00, 0x0c, 0x00, 0x00, 0x00,
    0x18, 0x00, 0x00, 0x00, 0x6a, 0xfe, 0xff, 0xff, 0x14, 0x00, 0x00, 0x00,
    0x14, 0x00, 0x00, 0x00, 0x0a, 0x00, 0x00, 0x00, 0x00, 0x00, 0x00, 0x02,
    0x18, 0x00, 0x00, 0x00, 0x14, 0xfe, 0xff, 0xff, 0x0b, 0x00, 0x00, 0x00,
    0x74, 0x72, 0x61, 0x6e, 0x73, 0x70, 0x6f, 0x73, 0x65, 0x5f, 0x31, 0x00,
    0x01, 0x00, 0x00, 0x00, 0x04, 0x00, 0x00, 0x00, 0x52, 0xfe, 0xff, 0xff,
    0x10, 0x00, 0x00, 0x00, 0x10, 0x00, 0x00, 0x00, 0x09, 0x00, 0x00, 0x00,
    0x18, 0x00, 0x00, 0x00, 0x44, 0xfe, 0xff, 0xff, 0x0b, 0x00, 0x00, 0x00,
    0x63, 0x6f, 0x6e, 0x76, 0x6f, 0x6c, 0x75, 0x74, 0x69, 0x6f, 0x6e, 0x00,
    0x04, 0x00, 0x00, 0x00, 0x40, 0x00, 0x00, 0x00, 0x03, 0x00, 0x00, 0x00,
    0x03, 0x00, 0x00, 0x00, 0x01, 0x00, 0x00, 0x00, 0x8e, 0xfe, 0xff, 0xff,
    0x10, 0x00, 0x00, 0x00, 0x10, 0x00, 0x00, 0x00, 0x08, 0x00, 0x00, 0x00,
    0x14, 0x00, 0x00, 0x00, 0x80, 0xfe, 0xff, 0xff, 0x06, 0x00, 0x00, 0x00,
    0x4d, 0x61, 0x74, 0x4d, 0x75, 0x6c, 0x00, 0x00, 0x02, 0x00, 0x00, 0x00,
    0x02, 0x00, 0x00, 0x00, 0x40, 0x00, 0x00, 0x00, 0xbe, 0xfe, 0xff, 0xff,
    0x10, 0x00, 0x00, 0x00, 0x10, 0x00, 0x00, 0x00, 0x07, 0x00, 0x00, 0x00,
    0x14, 0x00, 0x00, 0x00, 0xb0, 0xfe, 0xff, 0xff, 0x07, 0x00, 0x00, 0x00,
    0x43, 0x6f, 0x6e, 0x73, 0x74, 0x5f, 0x34, 0x00, 0x01, 0x00, 0x00, 0x00,
    0x02, 0x00, 0x00, 0x00, 0xea, 0xfe, 0xff, 0xff, 0x10, 0x00, 0x00, 0x00,
    0x10, 0x00, 0x00, 0x00, 0x06, 0x00, 0x00, 0x00, 0x14, 0x00, 0x00, 0x00,
    0xdc, 0xfe, 0xff, 0xff, 0x07, 0x00, 0x00, 0x00, 0x43, 0x6f, 0x6e, 0x73,
    0x74, 0x5f, 0x31, 0x00, 0x01, 0x00, 0x00, 0x00, 0x40, 0x00, 0x00, 0x00,
    0x62, 0xff, 0xff, 0xff, 0x14, 0x00, 0x00, 0x00, 0x14, 0x00, 0x00, 0x00,
    0x05, 0x00, 0x00, 0x00, 0x00, 0x00, 0x00, 0x02, 0x14, 0x00, 0x00, 0x00,
    0x0c, 0xff, 0xff, 0xff, 0x05, 0x00, 0x00, 0x00, 0x43, 0x6f, 0x6e, 0x73,
    0x74, 0x00, 0x00, 0x00, 0x02, 0x00, 0x00, 0x00, 0x04, 0x00, 0x00, 0x00,
    0x02, 0x00, 0x00, 0x00, 0x96, 0xff, 0xff, 0xff, 0x14, 0x00, 0x00, 0x00,
    0x14, 0x00, 0x00, 0x00, 0x04, 0x00, 0x00, 0x00, 0x00, 0x00, 0x00, 0x02,
    0x1c, 0x00, 0x00, 0x00, 0x40, 0xff, 0xff, 0xff, 0x0d, 0x00, 0x00, 0x00,
    0x66, 0x6c, 0x61, 0x74, 0x74, 0x65, 0x6e, 0x2f, 0x43, 0x6f, 0x6e, 0x73,
    0x74, 0x00, 0x00, 0x00, 0x01, 0x00, 0x00, 0x00, 0x02, 0x00, 0x00, 0x00,
    0xce, 0xff, 0xff, 0xff, 0x14, 0x00, 0x00, 0x00, 0x14, 0x00, 0x00, 0x00,
    0x03, 0x00, 0x00, 0x00, 0x00, 0x00, 0x00, 0x02, 0x14, 0x00, 0x00, 0x00,
    0x78, 0xff, 0xff, 0xff, 0x07, 0x00, 0x00, 0x00, 0x73, 0x70, 0x6c, 0x69,
    0x74, 0x5f, 0x31, 0x00, 0x01, 0x00, 0x00, 0x00, 0x02, 0x00, 0x00, 0x00,
    0x00, 0x00, 0x0e, 0x00, 0x18, 0x00, 0x14, 0x00, 0x13, 0x00, 0x0c, 0x00,
    0x08, 0x00, 0x04, 0x00, 0x0e, 0x00, 0x00, 0x00, 0x14, 0x00, 0x00, 0x00,
    0x14, 0x00, 0x00, 0x00, 0x02, 0x00, 0x00, 0x00, 0x00, 0x00, 0x00, 0x02,
    0x20, 0x00, 0x00, 0x00, 0xb8, 0xff, 0xff, 0xff, 0x10, 0x00, 0x00, 0x00,
    0x74, 0x72, 0x61, 0x6e, 0x73, 0x70, 0x6f, 0x73, 0x65, 0x5f, 0x32, 0x2f,
    0x70, 0x65, 0x72, 0x6d, 0x00, 0x00, 0x00, 0x00, 0x01, 0x00, 0x00, 0x00,
    0x04, 0x00, 0x00, 0x00, 0x00, 0x00, 0x0e, 0x00, 0x14, 0x00, 0x10, 0x00,
    0x00, 0x00, 0x0c, 0x00, 0x08, 0x00, 0x04, 0x00, 0x0e, 0x00, 0x00, 0x00,
    0x14, 0x00, 0x00, 0x00, 0x14, 0x00, 0x00, 0x00, 0x01, 0x00, 0x00, 0x00,
    0x28, 0x00, 0x00, 0x00, 0x04, 0x00, 0x04, 0x00, 0x04, 0x00, 0x00, 0x00,
    0x17, 0x00, 0x00, 0x00, 0x73, 0x65, 0x72, 0x76, 0x69, 0x6e, 0x67, 0x5f,
    0x64, 0x65, 0x66, 0x61, 0x75, 0x6c, 0x74, 0x5f, 0x69, 0x6e, 0x70, 0x75,
    0x74, 0x3a, 0x30, 0x00, 0x04, 0x00, 0x00, 0x00, 0x01, 0x00, 0x00, 0x00,
    0x01, 0x00, 0x00, 0x00, 0x0a, 0x00, 0x00, 0x00, 0x16, 0x00, 0x00, 0x00,
    0x06, 0x00, 0x00, 0x00, 0x74, 0x00, 0x00, 0x00, 0x58, 0x00, 0x00, 0x00,
    0x44, 0x00, 0x00, 0x00, 0x28, 0x00, 0x00, 0x00, 0x18, 0x00, 0x00, 0x00,
    0x04, 0x00, 0x00, 0x00, 0xd8, 0xff, 0xff, 0xff, 0x09, 0x00, 0x00, 0x00,
    0x09, 0x00, 0x00, 0x00, 0x00, 0x00, 0x00, 0x09, 0xc0, 0xff, 0xff, 0xff,
    0x28, 0x00, 0x00, 0x00, 0x00, 0x00, 0x00, 0x28, 0xcc, 0xff, 0xff, 0xff,
    0x27, 0x00, 0x00, 0x00, 0x00, 0x00, 0x00, 0x27, 0x0c, 0x00, 0x10, 0x00,
    0x0f, 0x00, 0x00, 0x00, 0x08, 0x00, 0x04, 0x00, 0x0c, 0x00, 0x00, 0x00,
    0x03, 0x00, 0x00, 0x00, 0x05, 0x00, 0x00, 0x00, 0x00, 0x00, 0x00, 0x03,
    0xf4, 0xff, 0xff, 0xff, 0x16, 0x00, 0x00, 0x00, 0x00, 0x00, 0x00, 0x16,
    0x0c, 0x00, 0x0c, 0x00, 0x0b, 0x00, 0x00, 0x00, 0x00, 0x00, 0x04, 0x00,
    0x0c, 0x00, 0x00, 0x00, 0x22, 0x00, 0x00, 0x00, 0x00, 0x00, 0x00, 0x22
};

const unsigned int absence_dr_pr_len = 5400;
