#include "streams/biosignals/biosignal_stream.h"

const unsigned char absence_int8_pr[] = {
    0x1c, 0x00, 0x00, 0x00, 0x54, 0x46, 0x4c, 0x33, 0x14, 0x00, 0x20, 0x00,
    0x1c, 0x00, 0x18, 0x00, 0x14, 0x00, 0x10, 0x00, 0x0c, 0x00, 0x00, 0x00,
    0x08, 0x00, 0x04, 0x00, 0x14, 0x00, 0x00, 0x00, 0x1c, 0x00, 0x00, 0x00,
    0x80, 0x00, 0x00, 0x00, 0xb0, 0x00, 0x00, 0x00, 0xc8, 0x05, 0x00, 0x00,
    0xd8, 0x05, 0x00, 0x00, 0x9c, 0x13, 0x00, 0x00, 0x03, 0x00, 0x00, 0x00,
    0x01, 0x00, 0x00, 0x00, 0x04, 0x00, 0x00, 0x00, 0xc6, 0xf8, 0xff, 0xff,
    0x0c, 0x00, 0x00, 0x00, 0x1c, 0x00, 0x00, 0x00, 0x38, 0x00, 0x00, 0x00,
    0x0f, 0x00, 0x00, 0x00, 0x73, 0x65, 0x72, 0x76, 0x69, 0x6e, 0x67, 0x5f,
    0x64, 0x65, 0x66, 0x61, 0x75, 0x6c, 0x74, 0x00, 0x01, 0x00, 0x00, 0x00,
    0x04, 0x00, 0x00, 0x00, 0xc4, 0xff, 0xff, 0xff, 0x10, 0x00, 0x00, 0x00,
    0x04, 0x00, 0x00, 0x00, 0x06, 0x00, 0x00, 0x00, 0x6f, 0x75, 0x74, 0x70,
    0x75, 0x74, 0x00, 0x00, 0x01, 0x00, 0x00, 0x00, 0x04, 0x00, 0x00, 0x00,
    0xd6, 0xfa, 0xff, 0xff, 0x04, 0x00, 0x00, 0x00, 0x05, 0x00, 0x00, 0x00,
    0x69, 0x6e, 0x70, 0x75, 0x74, 0x00, 0x00, 0x00, 0x01, 0x00, 0x00, 0x00,
    0x0c, 0x00, 0x00, 0x00, 0x08, 0x00, 0x0c, 0x00, 0x08, 0x00, 0x04, 0x00,
    0x08, 0x00, 0x00, 0x00, 0x12, 0x00, 0x00, 0x00, 0x04, 0x00, 0x00, 0x00,
    0x13, 0x00, 0x00, 0x00, 0x6d, 0x69, 0x6e, 0x5f, 0x72, 0x75, 0x6e, 0x74,
    0x69, 0x6d, 0x65, 0x5f, 0x76, 0x65, 0x72, 0x73, 0x69, 0x6f, 0x6e, 0x00,
    0x13, 0x00, 0x00, 0x00, 0x14, 0x05, 0x00, 0x00, 0x0c, 0x05, 0x00, 0x00,
    0xdc, 0x04, 0x00, 0x00, 0xb4, 0x04, 0x00, 0x00, 0x94, 0x04, 0x00, 0x00,
    0x7c, 0x04, 0x00, 0x00, 0x64, 0x04, 0x00, 0x00, 0x14, 0x02, 0x00, 0x00,
    0x04, 0x01, 0x00, 0x00, 0x74, 0x00, 0x00, 0x00, 0x5c, 0x00, 0x00, 0x00,
    0x54, 0x00, 0x00, 0x00, 0x4c, 0x00, 0x00, 0x00, 0x44, 0x00, 0x00, 0x00,
    0x3c, 0x00, 0x00, 0x00, 0x34, 0x00, 0x00, 0x00, 0x2c, 0x00, 0x00, 0x00,
    0x24, 0x00, 0x00, 0x00, 0x04, 0x00, 0x00, 0x00, 0x6e, 0xfb, 0xff, 0xff,
    0x04, 0x00, 0x00, 0x00, 0x10, 0x00, 0x00, 0x00, 0x31, 0x2e, 0x31, 0x34,
    0x2e, 0x30, 0x00, 0x00, 0x00, 0x00, 0x00, 0x00, 0x00, 0x00, 0x00, 0x00,
    0x18, 0xee, 0xff, 0xff, 0x1c, 0xee, 0xff, 0xff, 0x20, 0xee, 0xff, 0xff,
    0x24, 0xee, 0xff, 0xff, 0x28, 0xee, 0xff, 0xff, 0x2c, 0xee, 0xff, 0xff,
    0x30, 0xee, 0xff, 0xff, 0xa6, 0xfb, 0xff, 0xff, 0x04, 0x00, 0x00, 0x00,
    0x08, 0x00, 0x00, 0x00, 0xcd, 0xfe, 0xff, 0xff, 0xf0, 0x00, 0x00, 0x00,
    0xba, 0xfb, 0xff, 0xff, 0x04, 0x00, 0x00, 0x00, 0x80, 0x00, 0x00, 0x00,
    0x09, 0x08, 0xf8, 0xf9, 0x16, 0x05, 0x1f, 0x07, 0x1e, 0x2c, 0x20, 0xf7,
    0xe9, 0xec, 0x20, 0x53, 0x34, 0xf6, 0x05, 0x06, 0xf8, 0x2e, 0xf8, 0xfc,
    0xf7, 0x06, 0x3d, 0xf7, 0xce, 0xf9, 0x06, 0xf8, 0xfa, 0x1c, 0x18, 0x59,
    0xf8, 0x39, 0x2b, 0xf9, 0xdb, 0xf9, 0xd9, 0xf7, 0x1e, 0x2e, 0x36, 0xf8,
    0xf8, 0xdd, 0xf9, 0xf9, 0xfa, 0x08, 0x1e, 0x08, 0x41, 0x08, 0x0f, 0xf9,
    0x06, 0x7b, 0x67, 0x7c, 0xfb, 0xfb, 0x06, 0x07, 0xe8, 0xf8, 0xe3, 0xfa,
    0xe0, 0xd3, 0xe2, 0x08, 0x19, 0x13, 0xe1, 0xb2, 0xcd, 0x07, 0xf6, 0xf9,
    0x09, 0xd5, 0x09, 0x09, 0x08, 0xf8, 0xc2, 0x08, 0x33, 0x05, 0xf8, 0x07,
    0x07, 0xe9, 0xeb, 0xa4, 0x07, 0xc7, 0xd4, 0x06, 0x25, 0x0a, 0x23, 0x09,
    0xe2, 0xce, 0xc9, 0x08, 0x09, 0x23, 0x08, 0x07, 0x09, 0xf8, 0xe7, 0xf8,
    0xbd, 0xfc, 0xf1, 0x06, 0xf8, 0x81, 0x99, 0x84, 0x46, 0xfc, 0xff, 0xff,
    0x04, 0x00, 0x00, 0x00, 0x00, 0x01, 0x00, 0x00, 0x9f, 0x09, 0x00, 0x00,
    0xc3, 0x0a, 0x00, 0x00, 0xfb, 0xf6, 0xff, 0xff, 0xfd, 0xf5, 0xff, 0xff,
    0x50, 0x00, 0x00, 0x00, 0x44, 0x0a, 0x00, 0x00, 0x2e, 0x00, 0x00, 0x00,
    0x9a, 0x0a, 0x00, 0x00, 0xcc, 0xff, 0xff, 0xff, 0x59, 0xff, 0xff, 0xff,
    0xed, 0x01, 0x00, 0x00, 0x91, 0xf6, 0xff, 0xff, 0x51, 0xff, 0xff, 0xff,
    0x3b, 0xfd, 0xff, 0xff, 0x3c, 0x00, 0x00, 0x00, 0x8a, 0xfe, 0xff, 0xff,
    0xc3, 0x00, 0x00, 0x00, 0xe5, 0xf6, 0xff, 0xff, 0x7d, 0x0a, 0x00, 0x00,
    0xd5, 0x09, 0x00, 0x00, 0xb1, 0xf5, 0xff, 0xff, 0x03, 0x00, 0x00, 0x00,
    0xdf, 0xf6, 0xff, 0xff, 0xee, 0xf8, 0xff, 0xff, 0xba, 0xf6, 0xff, 0xff,
    0xc3, 0x09, 0x00, 0x00, 0x46, 0x00, 0x00, 0x00, 0x9e, 0xf7, 0xff, 0xff,
    0x2c, 0xff, 0xff, 0xff, 0xc9, 0xf8, 0xff, 0xff, 0x7a, 0x09, 0x00, 0x00,
    0xfe, 0xf7, 0xff, 0xff, 0x8c, 0xf8, 0xff, 0xff, 0x01, 0x00, 0x00, 0x00,
    0xbe, 0xff, 0xff, 0xff, 0xaa, 0xff, 0xff, 0xff, 0x5f, 0xf8, 0xff, 0xff,
    0x60, 0xff, 0xff, 0xff, 0x1b, 0x00, 0x00, 0x00, 0xec, 0xf6, 0xff, 0xff,
    0x7f, 0xfe, 0xff, 0xff, 0x93, 0xf5, 0xff, 0xff, 0x03, 0xff, 0xff, 0xff,
    0x2e, 0xf8, 0xff, 0xff, 0x1a, 0x02, 0x00, 0x00, 0x52, 0xff, 0xff, 0xff,
    0x13, 0x00, 0x00, 0x00, 0xd7, 0xf7, 0xff, 0xff, 0x9b, 0xf6, 0xff, 0xff,
    0x56, 0xfd, 0xff, 0xff, 0x02, 0xf7, 0xff, 0xff, 0x7e, 0xf7, 0xff, 0xff,
    0xf5, 0xf7, 0xff, 0xff, 0x8f, 0x09, 0x00, 0x00, 0xd5, 0x01, 0x00, 0x00,
    0xf6, 0x09, 0x00, 0x00, 0xb6, 0xff, 0xff, 0xff, 0x1b, 0x0a, 0x00, 0x00,
    0xc6, 0xff, 0xff, 0xff, 0x6b, 0xf8, 0xff, 0xff, 0x2f, 0x0b, 0x00, 0x00,
    0x40, 0xff, 0xff, 0xff, 0xc7, 0x00, 0x00, 0x00, 0x19, 0x01, 0x00, 0x00,
    0x52, 0xfd, 0xff, 0xff, 0x04, 0x00, 0x00, 0x00, 0x40, 0x02, 0x00, 0x00,
    0xb7, 0x81, 0xb3, 0x06, 0xf0, 0xdd, 0x05, 0xd7, 0xc4, 0xa2, 0x81, 0xa5,
    0xf2, 0xe6, 0xc8, 0x04, 0x03, 0xdf, 0x11, 0x2b, 0x57, 0xf1, 0x34, 0x1d,
    0xfa, 0x7f, 0x19, 0x17, 0x3e, 0x4b, 0xec, 0x37, 0x26, 0xf9, 0x7f, 0x22,
    0x3e, 0x81, 0x42, 0xb1, 0x69, 0xcb, 0xcd, 0xed, 0x17, 0xa5, 0x81, 0xb3,
    0xf3, 0xe5, 0xcb, 0x02, 0x03, 0xe2, 0x36, 0x81, 0x3b, 0xd3, 0x4d, 0xce,
    0xea, 0x1a, 0xe4, 0xa2, 0x81, 0xa7, 0x06, 0xee, 0xd9, 0x04, 0xd4, 0xbe,
    0xc0, 0x2c, 0x19, 0x7f, 0x91, 0xd5, 0xae, 0x0d, 0x0a, 0x27, 0xff, 0xfb,
    0x81, 0xf8, 0x28, 0x17, 0xfc, 0xe0, 0xf4, 0xd8, 0xd6, 0x09, 0x4e, 0x56,
    0x81, 0xb5, 0xc8, 0x1c, 0x3a, 0x39, 0xeb, 0x28, 0x19, 0x03, 0x7f, 0x1b,
    0xfa, 0x0d, 0x01, 0x02, 0x4f, 0xb1, 0xfd, 0x7d, 0x81, 0x1e, 0x1a, 0x05,
    0xea, 0x23, 0xc2, 0x0e, 0x7f, 0xad, 0xec, 0x9b, 0x59, 0x35, 0x24, 0x99,
    0x50, 0x2c, 0x81, 0x2a, 0xf8, 0xf8, 0x81, 0xf7, 0x1c, 0xf8, 0xf6, 0x05,
    0xf4, 0xe2, 0xed, 0x0e, 0x25, 0x3d, 0x81, 0xad, 0xf4, 0x19, 0x2a, 0x49,
    0xf0, 0x36, 0x0f, 0xf8, 0x7f, 0x15, 0xa8, 0x81, 0xab, 0x03, 0xef, 0xdc,
    0x03, 0xd6, 0xbe, 0xab, 0x81, 0xb3, 0xf2, 0xe7, 0xcc, 0x06, 0x04, 0xe3,
    0x1b, 0x24, 0x51, 0xed, 0x33, 0x25, 0xfb, 0x7f, 0x2d, 0x33, 0x81, 0x36,
    0xde, 0x39, 0xd6, 0xf2, 0x2b, 0xd9, 0x18, 0x1b, 0x50, 0xee, 0x37, 0x14,
    0x00, 0x7f, 0x1a, 0x7f, 0x35, 0x60, 0x07, 0x41, 0x30, 0xff, 0x71, 0x14,
    0x15, 0x32, 0x37, 0xf0, 0x31, 0x1d, 0x00, 0x7f, 0x1f, 0xb4, 0x81, 0xb2,
    0x05, 0xf0, 0xde, 0x05, 0xd7, 0xc4, 0xf4, 0x65, 0x81, 0xeb, 0xb9, 0x4b,
    0x14, 0xb4, 0x14, 0x1a, 0x1a, 0x47, 0xf0, 0x2f, 0x0d, 0xfa, 0x7f, 0x0f,
    0x09, 0x03, 0xfa, 0x22, 0xb4, 0x27, 0x38, 0x81, 0x3e, 0x6a, 0x76, 0x58,
    0xfd, 0x43, 0x1a, 0xfa, 0x7f, 0x01, 0xb4, 0x81, 0xb9, 0x03, 0xf1, 0xde,
    0x04, 0xd8, 0xc5, 0x0e, 0x0c, 0x62, 0xf1, 0x3e, 0x13, 0xfa, 0x7f, 0x07,
    0xff, 0x32, 0x4b, 0xf6, 0x41, 0x20, 0xf9, 0x7f, 0x0a, 0x22, 0xd8, 0x00,
    0xc2, 0xc9, 0x64, 0x13, 0x33, 0x81, 0xc4, 0x26, 0x22, 0x7f, 0x96, 0xc6,
    0x9e, 0x0c, 0x25, 0xec, 0xe8, 0x4b, 0xfc, 0x22, 0x81, 0xcc, 0x9e, 0x47,
    0x16, 0x0e, 0x48, 0xf0, 0x33, 0x0f, 0xf9, 0x7f, 0x0c, 0xed, 0x2f, 0x04,
    0x25, 0x81, 0x00, 0xf9, 0xfb, 0xfc, 0x2b, 0x81, 0x35, 0xe2, 0x34, 0xdb,
    0xf4, 0x2b, 0xd8, 0x38, 0x13, 0x5e, 0xea, 0x45, 0x22, 0xf0, 0x7f, 0x1d,
    0x05, 0x00, 0x0a, 0x00, 0x4a, 0xb7, 0x02, 0x7f, 0x81, 0x1d, 0x43, 0x40,
    0xf2, 0x35, 0x1f, 0xf7, 0x7f, 0x27, 0x06, 0xf9, 0x07, 0x07, 0xbf, 0x34,
    0x19, 0x81, 0x6a, 0x09, 0x26, 0x46, 0xf1, 0x2e, 0x05, 0xfc, 0x7f, 0x06,
    0xef, 0xd4, 0xda, 0x16, 0x54, 0x4e, 0x81, 0xb8, 0xbc, 0xec, 0x30, 0x02,
    0x27, 0x81, 0x00, 0xff, 0xfe, 0xfa, 0xf0, 0x68, 0x81, 0xfd, 0xb9, 0x35,
    0x12, 0xbe, 0x28, 0x14, 0x28, 0x42, 0xe7, 0x3d, 0x15, 0xf2, 0x7f, 0x11,
    0x22, 0x14, 0x5b, 0xea, 0x35, 0x16, 0xff, 0x7f, 0x20, 0x0c, 0x06, 0x06,
    0xfb, 0xb6, 0x3f, 0x04, 0xa9, 0x7f, 0x1f, 0x3e, 0x3e, 0xf0, 0x33, 0x10,
    0xf8, 0x7f, 0x13, 0x17, 0x06, 0x68, 0xf2, 0x37, 0x16, 0xf3, 0x7f, 0x1a,
    0x09, 0x1d, 0x51, 0xf4, 0x36, 0x11, 0xf7, 0x7f, 0x0f, 0xb4, 0x81, 0xb0,
    0x05, 0xf1, 0xde, 0x04, 0xd8, 0xc5, 0xed, 0xd9, 0xe0, 0x1a, 0x51, 0x3f,
    0x81, 0xcb, 0xc4, 0xaf, 0x81, 0xaf, 0x06, 0xf0, 0xdc, 0x04, 0xd6, 0xc2,
    0xc7, 0x4f, 0xe0, 0x48, 0xbe, 0xbf, 0x7f, 0xcf, 0xb5, 0xaa, 0x81, 0xae,
    0xf2, 0xe5, 0xc9, 0x05, 0x06, 0xe3, 0xc4, 0x23, 0x20, 0x7f, 0x9f, 0xc3,
    0xa4, 0x13, 0x21, 0x6b, 0x7f, 0x57, 0x07, 0x39, 0x29, 0x03, 0x6d, 0x15,
    0x95, 0x81, 0xab, 0x05, 0xec, 0xd8, 0x04, 0xd2, 0xba, 0xf5, 0x29, 0x05,
    0x14, 0x81, 0x08, 0xf9, 0xeb, 0xfc, 0xfe, 0xe8, 0xff, 0xfe, 0xf2, 0x17,
    0x81, 0x8d, 0x3c, 0xf9, 0xf8, 0xf0, 0x19, 0xe1, 0x20, 0xc2, 0x81, 0xae,
    0x9e, 0xff, 0xff, 0xff, 0x04, 0x00, 0x00, 0x00, 0x08, 0x00, 0x00, 0x00,
    0xff, 0xff, 0xff, 0xff, 0x40, 0x00, 0x00, 0x00, 0xb2, 0xff, 0xff, 0xff,
    0x04, 0x00, 0x00, 0x00, 0x08, 0x00, 0x00, 0x00, 0x02, 0x00, 0x00, 0x00,
    0x03, 0x00, 0x00, 0x00, 0xc6, 0xff, 0xff, 0xff, 0x04, 0x00, 0x00, 0x00,
    0x10, 0x00, 0x00, 0x00, 0x00, 0x00, 0x00, 0x00, 0x03, 0x00, 0x00, 0x00,
    0x01, 0x00, 0x00, 0x00, 0x02, 0x00, 0x00, 0x00, 0xe2, 0xff, 0xff, 0xff,
    0x04, 0x00, 0x00, 0x00, 0x10, 0x00, 0x00, 0x00, 0x01, 0x00, 0x00, 0x00,
    0x0c, 0x00, 0x00, 0x00, 0x18, 0x00, 0x00, 0x00, 0x01, 0x00, 0x00, 0x00,
    0x00, 0x00, 0x06, 0x00, 0x08, 0x00, 0x04, 0x00, 0x06, 0x00, 0x00, 0x00,
    0x04, 0x00, 0x00, 0x00, 0x20, 0x00, 0x00, 0x00, 0x00, 0x00, 0x00, 0x00,
    0x00, 0x00, 0x00, 0x00, 0x00, 0x00, 0x00, 0x00, 0x00, 0x00, 0x00, 0x00,
    0x01, 0x00, 0x00, 0x00, 0x01, 0x00, 0x00, 0x00, 0x01, 0x00, 0x00, 0x00,
    0x01, 0x00, 0x00, 0x00, 0xc0, 0xf2, 0xff, 0xff, 0xc4, 0xf2, 0xff, 0xff,
    0x0f, 0x00, 0x00, 0x00, 0x4d, 0x4c, 0x49, 0x52, 0x20, 0x43, 0x6f, 0x6e,
    0x76, 0x65, 0x72, 0x74, 0x65, 0x64, 0x2e, 0x00, 0x01, 0x00, 0x00, 0x00,
    0x14, 0x00, 0x00, 0x00, 0x00, 0x00, 0x0e, 0x00, 0x18, 0x00, 0x14, 0x00,
    0x10, 0x00, 0x0c, 0x00, 0x08, 0x00, 0x04, 0x00, 0x0e, 0x00, 0x00, 0x00,
    0x14, 0x00, 0x00, 0x00, 0x1c, 0x00, 0x00, 0x00, 0xbc, 0x01, 0x00, 0x00,
    0xc0, 0x01, 0x00, 0x00, 0xc4, 0x01, 0x00, 0x00, 0x04, 0x00, 0x00, 0x00,
    0x6d, 0x61, 0x69, 0x6e, 0x00, 0x00, 0x00, 0x00, 0x07, 0x00, 0x00, 0x00,
    0x74, 0x01, 0x00, 0x00, 0x3c, 0x01, 0x00, 0x00, 0xdc, 0x00, 0x00, 0x00,
    0xa4, 0x00, 0x00, 0x00, 0x64, 0x00, 0x00, 0x00, 0x3c, 0x00, 0x00, 0x00,
    0x04, 0x00, 0x00, 0x00, 0x46, 0xff, 0xff, 0xff, 0x14, 0x00, 0x00, 0x00,
    0x00, 0x00, 0x00, 0x08, 0x10, 0x00, 0x00, 0x00, 0x14, 0x00, 0x00, 0x00,
    0x05, 0x00, 0x00, 0x00, 0x50, 0xf3, 0xff, 0xff, 0x01, 0x00, 0x00, 0x00,
    0x10, 0x00, 0x00, 0x00, 0x03, 0x00, 0x00, 0x00, 0x0f, 0x00, 0x00, 0x00,
    0x08, 0x00, 0x00, 0x00, 0x09, 0x00, 0x00, 0x00, 0x1a, 0xff, 0xff, 0xff,
    0x0c, 0x00, 0x00, 0x00, 0x10, 0x00, 0x00, 0x00, 0x01, 0x00, 0x00, 0x00,
    0x01, 0x00, 0x00, 0x00, 0x0f, 0x00, 0x00, 0x00, 0x02, 0x00, 0x00, 0x00,
    0x0e, 0x00, 0x00, 0x00, 0x05, 0x00, 0x00, 0x00, 0x9e, 0xff, 0xff, 0xff,
    0x1c, 0x00, 0x00, 0x00, 0x00, 0x00, 0x00, 0x1b, 0x1c, 0x00, 0x00, 0x00,
    0x20, 0x00, 0x00, 0x00, 0x04, 0x00, 0x00, 0x00, 0x00, 0x00, 0x06, 0x00,
    0x08, 0x00, 0x07, 0x00, 0x06, 0x00, 0x00, 0x00, 0x00, 0x00, 0x00, 0x01,
    0x01, 0x00, 0x00, 0x00, 0x0e, 0x00, 0x00, 0x00, 0x02, 0x00, 0x00, 0x00,
    0x0d, 0x00, 0x00, 0x00, 0x04, 0x00, 0x00, 0x00, 0x7a, 0xff, 0xff, 0xff,
    0x0c, 0x00, 0x00, 0x00, 0x10, 0x00, 0x00, 0x00, 0x03, 0x00, 0x00, 0x00,
    0x01, 0x00, 0x00, 0x00, 0x0d, 0x00, 0x00, 0x00, 0x02, 0x00, 0x00, 0x00,
    0x0c, 0x00, 0x00, 0x00, 0x03, 0x00, 0x00, 0x00, 0x00, 0x00, 0x0e, 0x00,
    0x18, 0x00, 0x14, 0x00, 0x10, 0x00, 0x0c, 0x00, 0x0b, 0x00, 0x04, 0x00,
    0x0e, 0x00, 0x00, 0x00, 0x20, 0x00, 0x00, 0x00, 0x00, 0x00, 0x00, 0x01,
    0x2c, 0x00, 0x00, 0x00, 0x30, 0x00, 0x00, 0x00, 0x02, 0x00, 0x00, 0x00,
    0x0c, 0x00, 0x14, 0x00, 0x13, 0x00, 0x0c, 0x00, 0x08, 0x00, 0x07, 0x00,
    0x0c, 0x00, 0x00, 0x00, 0x00, 0x00, 0x00, 0x01, 0x02, 0x00, 0x00, 0x00,
    0x02, 0x00, 0x00, 0x00, 0x00, 0x00, 0x00, 0x01, 0x01, 0x00, 0x00, 0x00,
    0x0c, 0x00, 0x00, 0x00, 0x03, 0x00, 0x00, 0x00, 0x0b, 0x00, 0x00, 0x00,
    0x06, 0x00, 0x00, 0x00, 0x07, 0x00, 0x00, 0x00, 0x00, 0x00, 0x0a, 0x00,
    0x10, 0x00, 0x0c, 0x00, 0x08, 0x00, 0x04, 0x00, 0x0a, 0x00, 0x00, 0x00,
    0x0c, 0x00, 0x00, 0x00, 0x10, 0x00, 0x00, 0x00, 0x01, 0x00, 0x00, 0x00,
    0x01, 0x00, 0x00, 0x00, 0x0b, 0x00, 0x00, 0x00, 0x02, 0x00, 0x00, 0x00,
    0x0a, 0x00, 0x00, 0x00, 0x02, 0x00, 0x00, 0x00, 0x00, 0x00, 0x0e, 0x00,
    0x14, 0x00, 0x00, 0x00, 0x10, 0x00, 0x0c, 0x00, 0x0b, 0x00, 0x04, 0x00,
    0x0e, 0x00, 0x00, 0x00, 0x10, 0x00, 0x00, 0x00, 0x00, 0x00, 0x00, 0x16,
    0x0c, 0x00, 0x00, 0x00, 0x10, 0x00, 0x00, 0x00, 0xa4, 0xf4, 0xff, 0xff,
    0x01, 0x00, 0x00, 0x00, 0x0a, 0x00, 0x00, 0x00, 0x02, 0x00, 0x00, 0x00,
    0x00, 0x00, 0x00, 0x00, 0x01, 0x00, 0x00, 0x00, 0x01, 0x00, 0x00, 0x00,
    0x10, 0x00, 0x00, 0x00, 0x01, 0x00, 0x00, 0x00, 0x00, 0x00, 0x00, 0x00,
    0x11, 0x00, 0x00, 0x00, 0x60, 0x0b, 0x00, 0x00, 0x14, 0x0b, 0x00, 0x00,
    0xdc, 0x0a, 0x00, 0x00, 0x9c, 0x0a, 0x00, 0x00, 0x68, 0x0a, 0x00, 0x00,
    0x2c, 0x0a, 0x00, 0x00, 0xd4, 0x06, 0x00, 0x00, 0x90, 0x03, 0x00, 0x00,
    0x3c, 0x03, 0x00, 0x00, 0xe8, 0x02, 0x00, 0x00, 0x8c, 0x02, 0x00, 0x00,
    0x28, 0x02, 0x00, 0x00, 0xa4, 0x01, 0x00, 0x00, 0x40, 0x01, 0x00, 0x00,
    0xe4, 0x00, 0x00, 0x00, 0x68, 0x00, 0x00, 0x00, 0x04, 0x00, 0x00, 0x00,
    0xf2, 0xf4, 0xff, 0xff, 0x14, 0x00, 0x00, 0x00, 0x34, 0x00, 0x00, 0x00,
    0x11, 0x00, 0x00, 0x00, 0x00, 0x00, 0x00, 0x09, 0x40, 0x00, 0x00, 0x00,
    0xe4, 0xf4, 0xff, 0xff, 0x08, 0x00, 0x00, 0x00, 0x14, 0x00, 0x00, 0x00,
    0x01, 0x00, 0x00, 0x00, 0x00, 0x00, 0x00, 0x00, 0x00, 0x00, 0x00, 0x00,
    0x00, 0x00, 0x00, 0x00, 0x01, 0x00, 0x00, 0x00, 0x3e, 0x45, 0xd1, 0x3f,
    0x11, 0x00, 0x00, 0x00, 0x50, 0x61, 0x72, 0x74, 0x69, 0x74, 0x69, 0x6f,
    0x6e, 0x65, 0x64, 0x43, 0x61, 0x6c, 0x6c, 0x3a, 0x30, 0x00, 0x00, 0x00,
    0x02, 0x00, 0x00, 0x00, 0x01, 0x00, 0x00, 0x00, 0x02, 0x00, 0x00, 0x00,
    0x52, 0xf5, 0xff, 0xff, 0x14, 0x00, 0x00, 0x00, 0x34, 0x00, 0x00, 0x00,
    0x10, 0x00, 0x00, 0x00, 0x00, 0x00, 0x00, 0x09, 0x58, 0x00, 0x00, 0x00,
    0x44, 0xf5, 0xff, 0xff, 0x08, 0x00, 0x00, 0x00, 0x14, 0x00, 0x00, 0x00,
    0x01, 0x00, 0x00, 0x00, 0x80, 0xff, 0xff, 0xff, 0xff, 0xff, 0xff, 0xff,
    0x00, 0x00, 0x00, 0x00, 0x01, 0x00, 0x00, 0x00, 0xee, 0x80, 0x14, 0x3d,
    0x28, 0x00, 0x00, 0x00, 0x66, 0x6c, 0x61, 0x74, 0x74, 0x65, 0x6e, 0x2f,
    0x52, 0x65, 0x73, 0x68, 0x61, 0x70, 0x65, 0x3b, 0x6f, 0x6e, 0x6e, 0x78,
    0x5f, 0x74, 0x66, 0x5f, 0x70, 0x72, 0x65, 0x66, 0x69, 0x78, 0x5f, 0x52,
    0x65, 0x73, 0x68, 0x61, 0x70, 0x65, 0x5f, 0x33, 0x00, 0x00, 0x00, 0x00,
    0x02, 0x00, 0x00, 0x00, 0x01, 0x00, 0x00, 0x00, 0x40, 0x00, 0x00, 0x00,
    0xca, 0xf5, 0xff, 0xff, 0x14, 0x00, 0x00, 0x00, 0x30, 0x00, 0x00, 0x00,
    0x0f, 0x00, 0x00, 0x00, 0x00, 0x00, 0x00, 0x09, 0x30, 0x00, 0x00, 0x00,
    0xbc, 0xf5, 0xff, 0xff, 0x08, 0x00, 0x00, 0x00, 0x10, 0x00, 0x00, 0x00,
    0x01, 0x00, 0x00, 0x00, 0x80, 0xff, 0xff, 0xff, 0xff, 0xff, 0xff, 0xff,
    0x01, 0x00, 0x00, 0x00, 0xee, 0x80, 0x14, 0x3d, 0x04, 0x00, 0x00, 0x00,
    0x4d, 0x65, 0x61, 0x6e, 0x00, 0x00, 0x00, 0x00, 0x04, 0x00, 0x00, 0x00,
    0x01, 0x00, 0x00, 0x00, 0x40, 0x00, 0x00, 0x00, 0x01, 0x00, 0x00, 0x00,
    0x01, 0x00, 0x00, 0x00, 0x22, 0xf6, 0xff, 0xff, 0x14, 0x00, 0x00, 0x00,
    0x34, 0x00, 0x00, 0x00, 0x0e, 0x00, 0x00, 0x00, 0x00, 0x00, 0x00, 0x09,
    0x38, 0x00, 0x00, 0x00, 0x14, 0xf6, 0xff, 0xff, 0x08, 0x00, 0x00, 0x00,
    0x14, 0x00, 0x00, 0x00, 0x01, 0x00, 0x00, 0x00, 0x80, 0xff, 0xff, 0xff,
    0xff, 0xff, 0xff, 0xff, 0x00, 0x00, 0x00, 0x00, 0x01, 0x00, 0x00, 0x00,
    0xa6, 0x75, 0x71, 0x3e, 0x0b, 0x00, 0x00, 0x00, 0x74, 0x72, 0x61, 0x6e,
    0x73, 0x70, 0x6f, 0x73, 0x65, 0x5f, 0x32, 0x00, 0x04, 0x00, 0x00, 0x00,
    0x01, 0x00, 0x00, 0x00, 0x40, 0x00, 0x00, 0x00, 0x05, 0x00, 0x00, 0x00,
    0x0b, 0x00, 0x00, 0x00, 0x82, 0xf6, 0xff, 0xff, 0x14, 0x00, 0x00, 0x00,
    0x30, 0x00, 0x00, 0x00, 0x0d, 0x00, 0x00, 0x00, 0x00, 0x00, 0x00, 0x09,
    0x58, 0x00, 0x00, 0x00, 0x74, 0xf6, 0xff, 0xff, 0x08, 0x00, 0x00, 0x00,
    0x10, 0x00, 0x00, 0x00, 0x01, 0x00, 0x00, 0x00, 0x80, 0xff, 0xff, 0xff,
    0xff, 0xff, 0xff, 0xff, 0x01, 0x00, 0x00, 0x00, 0xa6, 0x75, 0x71, 0x3e,
    0x2d, 0x00, 0x00, 0x00, 0x6f, 0x6e, 0x6e, 0x78, 0x5f, 0x74, 0x66, 0x5f,
    0x70, 0x72, 0x65, 0x66, 0x69, 0x78, 0x5f, 0x52, 0x65, 0x6c, 0x75, 0x5f,
    0x31, 0x3b, 0x41, 0x64, 0x64, 0x3b, 0x63, 0x6f, 0x6e, 0x76, 0x6f, 0x6c,
    0x75, 0x74, 0x69, 0x6f, 0x6e, 0x3b, 0x43, 0x6f, 0x6e, 0x73, 0x74, 0x5f,
    0x31, 0x00, 0x00, 0x00, 0x04, 0x00, 0x00, 0x00, 0x01, 0x00, 0x00, 0x00,
    0x05, 0x00, 0x00, 0x00, 0x0b, 0x00, 0x00, 0x00, 0x40, 0x00, 0x00, 0x00,
    0x02, 0xf7, 0xff, 0xff, 0x14, 0x00, 0x00, 0x00, 0x30, 0x00, 0x00, 0x00,
    0x0c, 0x00, 0x00, 0x00, 0x00, 0x00, 0x00, 0x09, 0x38, 0x00, 0x00, 0x00,
    0xf4, 0xf6, 0xff, 0xff, 0x08, 0x00, 0x00, 0x00, 0x10, 0x00, 0x00, 0x00,
    0x01, 0x00, 0x00, 0x00, 0x1d, 0x00, 0x00, 0x00, 0x00, 0x00, 0x00, 0x00,
    0x01, 0x00, 0x00, 0x00, 0x2b, 0x2b, 0xa3, 0x40, 0x0c, 0x00, 0x00, 0x00,
    0x74, 0x72, 0x61, 0x6e, 0x73, 0x70, 0x6f, 0x73, 0x65, 0x5f, 0x31, 0x31,
    0x00, 0x00, 0x00, 0x00, 0x04, 0x00, 0x00, 0x00, 0x01, 0x00, 0x00, 0x00,
    0x0c, 0x00, 0x00, 0x00, 0x18, 0x00, 0x00, 0x00, 0x01, 0x00, 0x00, 0x00,
    0x62, 0xf7, 0xff, 0xff, 0x14, 0x00, 0x00, 0x00, 0x34, 0x00, 0x00, 0x00,
    0x0b, 0x00, 0x00, 0x00, 0x00, 0x00, 0x00, 0x09, 0x30, 0x00, 0x00, 0x00,
    0x54, 0xf7, 0xff, 0xff, 0x08, 0x00, 0x00, 0x00, 0x14, 0x00, 0x00, 0x00,
    0x01, 0x00, 0x00, 0x00, 0x1d, 0x00, 0x00, 0x00, 0x00, 0x00, 0x00, 0x00,
    0x00, 0x00, 0x00, 0x00, 0x01, 0x00, 0x00, 0x00, 0x2b, 0x2b, 0xa3, 0x40,
    0x03, 0x00, 0x00, 0x00, 0x50, 0x61, 0x64, 0x00, 0x04, 0x00, 0x00, 0x00,
    0x01, 0x00, 0x00, 0x00, 0x01, 0x00, 0x00, 0x00, 0x0c, 0x00, 0x00, 0x00,
    0x18, 0x00, 0x00, 0x00, 0xba, 0xf7, 0xff, 0xff, 0x14, 0x00, 0x00, 0x00,
    0x34, 0x00, 0x00, 0x00, 0x0a, 0x00, 0x00, 0x00, 0x00, 0x00, 0x00, 0x02,
    0x34, 0x00, 0x00, 0x00, 0xac, 0xf7, 0xff, 0xff, 0x08, 0x00, 0x00, 0x00,
    0x14, 0x00, 0x00, 0x00, 0x01, 0x00, 0x00, 0x00, 0x00, 0x00, 0x00, 0x00,
    0x00, 0x00, 0x00, 0x00, 0x00, 0x00, 0x00, 0x00, 0x01, 0x00, 0x00, 0x00,
    0x71, 0xcb, 0xd9, 0x3a, 0x07, 0x00, 0x00, 0x00, 0x43, 0x6f, 0x6e, 0x73,
    0x74, 0x5f, 0x34, 0x00, 0x01, 0x00, 0x00, 0x00, 0x02, 0x00, 0x00, 0x00,
    0x0a, 0xf8, 0xff, 0xff, 0x14, 0x00, 0x00, 0x00, 0x30, 0x00, 0x00, 0x00,
    0x09, 0x00, 0x00, 0x00, 0x00, 0x00, 0x00, 0x09, 0x30, 0x00, 0x00, 0x00,
    0xfc, 0xf7, 0xff, 0xff, 0x08, 0x00, 0x00, 0x00, 0x10, 0x00, 0x00, 0x00,
    0x01, 0x00, 0x00, 0x00, 0x00, 0x00, 0x00, 0x00, 0x00, 0x00, 0x00, 0x00,
    0x01, 0x00, 0x00, 0x00, 0x63, 0xb9, 0x3b, 0x3d, 0x06, 0x00, 0x00, 0x00,
    0x4d, 0x61, 0x74, 0x4d, 0x75, 0x6c, 0x00, 0x00, 0x02, 0x00, 0x00, 0x00,
    0x02, 0x00, 0x00, 0x00, 0x40, 0x00, 0x00, 0x00, 0x5a, 0xf8, 0xff, 0xff,
    0x14, 0x00, 0x00, 0x00, 0x24, 0x03, 0x00, 0x00, 0x08, 0x00, 0x00, 0x00,
    0x00, 0x00, 0x00, 0x02, 0x24, 0x03, 0x00, 0x00, 0x4c, 0xf8, 0xff, 0xff,
    0x08, 0x00, 0x00, 0x00, 0x08, 0x02, 0x00, 0x00, 0x40, 0x00, 0x00, 0x00,
    0x00, 0x00, 0x00, 0x00, 0x00, 0x00, 0x00, 0x00, 0x00, 0x00, 0x00, 0x00,
    0x00, 0x00, 0x00, 0x00, 0x00, 0x00, 0x00, 0x00, 0x00, 0x00, 0x00, 0x00,
    0x00, 0x00, 0x00, 0x00, 0x00, 0x00, 0x00, 0x00, 0x00, 0x00, 0x00, 0x00,
    0x00, 0x00, 0x00, 0x00, 0x00, 0x00, 0x00, 0x00, 0x00, 0x00, 0x00, 0x00,
    0x00, 0x00, 0x00, 0x00, 0x00, 0x00, 0x00, 0x00, 0x00, 0x00, 0x00, 0x00,
    0x00, 0x00, 0x00, 0x00, 0x00, 0x00, 0x00, 0x00, 0x00, 0x00, 0x00, 0x00,
    0x00, 0x00, 0x00, 0x00, 0x00, 0x00, 0x00, 0x00, 0x00, 0x00, 0x00, 0x00,
    0x00, 0x00, 0x00, 0x00, 0x00, 0x00, 0x00, 0x00, 0x00, 0x00, 0x00, 0x00,
    0x00, 0x00, 0x00, 0x00, 0x00, 0x00, 0x00, 0x00, 0x00, 0x00, 0x00, 0x00,
    0x00, 0x00, 0x00, 0x00, 0x00, 0x00, 0x00, 0x00, 0x00, 0x00, 0x00, 0x00,
    0x00, 0x00, 0x00, 0x00, 0x00, 0x00, 0x00, 0x00, 0x00, 0x00, 0x00, 0x00,
    0x00, 0x00, 0x00, 0x00, 0x00, 0x00, 0x00, 0x00, 0x00, 0x00, 0x00, 0x00,
    0x00, 0x00, 0x00, 0x00, 0x00, 0x00, 0x00, 0x00, 0x00, 0x00, 0x00, 0x00,
    0x00, 0x00, 0x00, 0x00, 0x00, 0x00, 0x00, 0x00, 0x00, 0x00, 0x00, 0x00,
    0x00, 0x00, 0x00, 0x00, 0x00, 0x00, 0x00, 0x00, 0x00, 0x00, 0x00, 0x00,
    0x00, 0x00, 0x00, 0x00, 0x00, 0x00, 0x00, 0x00, 0x00, 0x00, 0x00, 0x00,
    0x00, 0x00, 0x00, 0x00, 0x00, 0x00, 0x00, 0x00, 0x00, 0x00, 0x00, 0x00,
    0x00, 0x00, 0x00, 0x00, 0x00, 0x00, 0x00, 0x00, 0x00, 0x00, 0x00, 0x00,
    0x00, 0x00, 0x00, 0x00, 0x00, 0x00, 0x00, 0x00, 0x00, 0x00, 0x00, 0x00,
    0x00, 0x00, 0x00, 0x00, 0x00, 0x00, 0x00, 0x00, 0x00, 0x00, 0x00, 0x00,
    0x00, 0x00, 0x00, 0x00, 0x00, 0x00, 0x00, 0x00, 0x00, 0x00, 0x00, 0x00,
    0x00, 0x00, 0x00, 0x00, 0x00, 0x00, 0x00, 0x00, 0x00, 0x00, 0x00, 0x00,
    0x00, 0x00, 0x00, 0x00, 0x00, 0x00, 0x00, 0x00, 0x00, 0x00, 0x00, 0x00,
    0x00, 0x00, 0x00, 0x00, 0x00, 0x00, 0x00, 0x00, 0x00, 0x00, 0x00, 0x00,
    0x00, 0x00, 0x00, 0x00, 0x00, 0x00, 0x00, 0x00, 0x00, 0x00, 0x00, 0x00,
    0x00, 0x00, 0x00, 0x00, 0x00, 0x00, 0x00, 0x00, 0x00, 0x00, 0x00, 0x00,
    0x00, 0x00, 0x00, 0x00, 0x00, 0x00, 0x00, 0x00, 0x00, 0x00, 0x00, 0x00,
    0x00, 0x00, 0x00, 0x00, 0x00, 0x00, 0x00, 0x00, 0x00, 0x00, 0x00, 0x00,
    0x00, 0x00, 0x00, 0x00, 0x00, 0x00, 0x00, 0x00, 0x00, 0x00, 0x00, 0x00,
    0x00, 0x00, 0x00, 0x00, 0x00, 0x00, 0x00, 0x00, 0x00, 0x00, 0x00, 0x00,
    0x00, 0x00, 0x00, 0x00, 0x00, 0x00, 0x00, 0x00, 0x00, 0x00, 0x00, 0x00,
    0x00, 0x00, 0x00, 0x00, 0x00, 0x00, 0x00, 0x00, 0x00, 0x00, 0x00, 0x00,
    0x00, 0x00, 0x00, 0x00, 0x00, 0x00, 0x00, 0x00, 0x00, 0x00, 0x00, 0x00,
    0x00, 0x00, 0x00, 0x00, 0x00, 0x00, 0x00, 0x00, 0x00, 0x00, 0x00, 0x00,
    0x00, 0x00, 0x00, 0x00, 0x00, 0x00, 0x00, 0x00, 0x00, 0x00, 0x00, 0x00,
    0x00, 0x00, 0x00, 0x00, 0x00, 0x00, 0x00, 0x00, 0x00, 0x00, 0x00, 0x00,
    0x00, 0x00, 0x00, 0x00, 0x00, 0x00, 0x00, 0x00, 0x00, 0x00, 0x00, 0x00,
    0x00, 0x00, 0x00, 0x00, 0x00, 0x00, 0x00, 0x00, 0x00, 0x00, 0x00, 0x00,
    0x00, 0x00, 0x00, 0x00, 0x00, 0x00, 0x00, 0x00, 0x00, 0x00, 0x00, 0x00,
    0x00, 0x00, 0x00, 0x00, 0x00, 0x00, 0x00, 0x00, 0x00, 0x00, 0x00, 0x00,
    0x00, 0x00, 0x00, 0x00, 0x00, 0x00, 0x00, 0x00, 0x00, 0x00, 0x00, 0x00,
    0x00, 0x00, 0x00, 0x00, 0x00, 0x00, 0x00, 0x00, 0x00, 0x00, 0x00, 0x00,
    0x00, 0x00, 0x00, 0x00, 0x00, 0x00, 0x00, 0x00, 0x40, 0x00, 0x00, 0x00,
    0xb8, 0xd0, 0x2b, 0x3a, 0xcd, 0xdb, 0xfb, 0x39, 0xbd, 0xe6, 0x48, 0x3a,
    0x48, 0xf0, 0x3e, 0x3a, 0xa0, 0xa5, 0x2f, 0x3b, 0xef, 0xb0, 0x05, 0x3a,
    0x35, 0x99, 0x8b, 0x3b, 0xb8, 0x8f, 0x17, 0x3a, 0x27, 0x94, 0x00, 0x3b,
    0x7f, 0xa1, 0x0a, 0x3b, 0xa5, 0xe6, 0x49, 0x3a, 0xc8, 0xf5, 0x48, 0x3a,
    0x5c, 0x38, 0xaf, 0x3b, 0x6d, 0xdf, 0x1d, 0x3b, 0xc7, 0x57, 0x39, 0x3b,
    0xf9, 0xd7, 0x1a, 0x3b, 0xdf, 0x63, 0x86, 0x3a, 0xef, 0x52, 0x4f, 0x3a,
    0xde, 0x69, 0x1b, 0x3a, 0xc2, 0x3d, 0x0a, 0x3a, 0x8e, 0x9f, 0x3b, 0x3a,
    0x1b, 0xf6, 0x86, 0x3b, 0x39, 0xf6, 0x4d, 0x3a, 0xde, 0x6e, 0xf6, 0x39,
    0x6d, 0xd4, 0x49, 0x3a, 0xd3, 0x50, 0x24, 0x3a, 0xdb, 0xb3, 0x5a, 0x3b,
    0x83, 0x31, 0x6e, 0x3a, 0x8a, 0x9b, 0xbd, 0x3b, 0x9a, 0xef, 0xed, 0x39,
    0x78, 0x38, 0x2a, 0x3a, 0xfe, 0xd6, 0x4f, 0x3a, 0x04, 0xbd, 0x40, 0x3a,
    0xbc, 0xb8, 0x00, 0x3b, 0x3e, 0xf5, 0xe5, 0x3a, 0x1b, 0x6e, 0x01, 0x3b,
    0x81, 0x2b, 0x6a, 0x3a, 0xe2, 0xbf, 0x19, 0x3b, 0x94, 0xc2, 0x98, 0x3b,
    0x96, 0x93, 0x34, 0x3a, 0xdf, 0xfd, 0x9c, 0x3b, 0xc5, 0xcc, 0x39, 0x3a,
    0xb3, 0xdb, 0xcb, 0x3b, 0x4c, 0x75, 0x65, 0x3a, 0x7f, 0x7a, 0x35, 0x3a,
    0xb1, 0x97, 0x1c, 0x3b, 0xa9, 0x81, 0x83, 0x3b, 0x50, 0x2c, 0x6a, 0x3a,
    0xf3, 0x7f, 0x41, 0x3a, 0xe5, 0x83, 0x6f, 0x3b, 0x91, 0x05, 0x50, 0x3a,
    0x52, 0x0c, 0x51, 0x3a, 0xf7, 0xdf, 0x65, 0x3a, 0xb5, 0xdb, 0x1a, 0x3a,
    0x12, 0x7d, 0x63, 0x3a, 0x98, 0x68, 0x11, 0x3a, 0xcb, 0x95, 0x40, 0x3b,
    0x83, 0x02, 0x0d, 0x3a, 0x7c, 0xa2, 0xea, 0x3a, 0x62, 0xe5, 0xe1, 0x39,
    0x8e, 0xb8, 0x05, 0x3a, 0x31, 0xac, 0x41, 0x3b, 0x61, 0x32, 0x8f, 0x3a,
    0x67, 0x3b, 0x49, 0x3a, 0x07, 0x00, 0x00, 0x00, 0x43, 0x6f, 0x6e, 0x73,
    0x74, 0x5f, 0x31, 0x00, 0x01, 0x00, 0x00, 0x00, 0x40, 0x00, 0x00, 0x00,
    0x9a, 0xfb, 0xff, 0xff, 0x14, 0x00, 0x00, 0x00, 0x28, 0x03, 0x00, 0x00,
    0x07, 0x00, 0x00, 0x00, 0x00, 0x00, 0x00, 0x09, 0x2c, 0x03, 0x00, 0x00,
    0x8c, 0xfb, 0xff, 0xff, 0x08, 0x00, 0x00, 0x00, 0x0c, 0x02, 0x00, 0x00,
    0x40, 0x00, 0x00, 0x00, 0x00, 0x00, 0x00, 0x00, 0x00, 0x00, 0x00, 0x00,
    0x00, 0x00, 0x00, 0x00, 0x00, 0x00, 0x00, 0x00, 0x00, 0x00, 0x00, 0x00,
    0x00, 0x00, 0x00, 0x00, 0x00, 0x00, 0x00, 0x00, 0x00, 0x00, 0x00, 0x00,
    0x00, 0x00, 0x00, 0x00, 0x00, 0x00, 0x00, 0x00, 0x00, 0x00, 0x00, 0x00,
    0x00, 0x00, 0x00, 0x00, 0x00, 0x00, 0x00, 0x00, 0x00, 0x00, 0x00, 0x00,
    0x00, 0x00, 0x00, 0x00, 0x00, 0x00, 0x00, 0x00, 0x00, 0x00, 0x00, 0x00,
    0x00, 0x00, 0x00, 0x00, 0x00, 0x00, 0x00, 0x00, 0x00, 0x00, 0x00, 0x00,
    0x00, 0x00, 0x00, 0x00, 0x00, 0x00, 0x00, 0x00, 0x00, 0x00, 0x00, 0x00,
    0x00, 0x00, 0x00, 0x00, 0x00, 0x00, 0x00, 0x00, 0x00, 0x00, 0x00, 0x00,
    0x00, 0x00, 0x00, 0x00, 0x00, 0x00, 0x00, 0x00, 0x00, 0x00, 0x00, 0x00,
    0x00, 0x00, 0x00, 0x00, 0x00, 0x00, 0x00, 0x00, 0x00, 0x00, 0x00, 0x00,
    0x00, 0x00, 0x00, 0x00, 0x00, 0x00, 0x00, 0x00, 0x00, 0x00, 0x00, 0x00,
    0x00, 0x00, 0x00, 0x00, 0x00, 0x00, 0x00, 0x00, 0x00, 0x00, 0x00, 0x00,
    0x00, 0x00, 0x00, 0x00, 0x00, 0x00, 0x00, 0x00, 0x00, 0x00, 0x00, 0x00,
    0x00, 0x00, 0x00, 0x00, 0x00, 0x00, 0x00, 0x00, 0x00, 0x00, 0x00, 0x00,
    0x00, 0x00, 0x00, 0x00, 0x00, 0x00, 0x00, 0x00, 0x00, 0x00, 0x00, 0x00,
    0x00, 0x00, 0x00, 0x00, 0x00, 0x00, 0x00, 0x00, 0x00, 0x00, 0x00, 0x00,
    0x00, 0x00, 0x00, 0x00, 0x00, 0x00, 0x00, 0x00, 0x00, 0x00, 0x00, 0x00,
    0x00, 0x00, 0x00, 0x00, 0x00, 0x00, 0x00, 0x00, 0x00, 0x00, 0x00, 0x00,
    0x00, 0x00, 0x00, 0x00, 0x00, 0x00, 0x00, 0x00, 0x00, 0x00, 0x00, 0x00,
    0x00, 0x00, 0x00, 0x00, 0x00, 0x00, 0x00, 0x00, 0x00, 0x00, 0x00, 0x00,
    0x00, 0x00, 0x00, 0x00, 0x00, 0x00, 0x00, 0x00, 0x00, 0x00, 0x00, 0x00,
    0x00, 0x00, 0x00, 0x00, 0x00, 0x00, 0x00, 0x00, 0x00, 0x00, 0x00, 0x00,
    0x00, 0x00, 0x00, 0x00, 0x00, 0x00, 0x00, 0x00, 0x00, 0x00, 0x00, 0x00,
    0x00, 0x00, 0x00, 0x00, 0x00, 0x00, 0x00, 0x00, 0x00, 0x00, 0x00, 0x00,
    0x00, 0x00, 0x00, 0x00, 0x00, 0x00, 0x00, 0x00, 0x00, 0x00, 0x00, 0x00,
    0x00, 0x00, 0x00, 0x00, 0x00, 0x00, 0x00, 0x00, 0x00, 0x00, 0x00, 0x00,
    0x00, 0x00, 0x00, 0x00, 0x00, 0x00, 0x00, 0x00, 0x00, 0x00, 0x00, 0x00,
    0x00, 0x00, 0x00, 0x00, 0x00, 0x00, 0x00, 0x00, 0x00, 0x00, 0x00, 0x00,
    0x00, 0x00, 0x00, 0x00, 0x00, 0x00, 0x00, 0x00, 0x00, 0x00, 0x00, 0x00,
    0x00, 0x00, 0x00, 0x00, 0x00, 0x00, 0x00, 0x00, 0x00, 0x00, 0x00, 0x00,
    0x00, 0x00, 0x00, 0x00, 0x00, 0x00, 0x00, 0x00, 0x00, 0x00, 0x00, 0x00,
    0x00, 0x00, 0x00, 0x00, 0x00, 0x00, 0x00, 0x00, 0x00, 0x00, 0x00, 0x00,
    0x00, 0x00, 0x00, 0x00, 0x00, 0x00, 0x00, 0x00, 0x00, 0x00, 0x00, 0x00,
    0x00, 0x00, 0x00, 0x00, 0x00, 0x00, 0x00, 0x00, 0x00, 0x00, 0x00, 0x00,
    0x00, 0x00, 0x00, 0x00, 0x00, 0x00, 0x00, 0x00, 0x00, 0x00, 0x00, 0x00,
    0x00, 0x00, 0x00, 0x00, 0x00, 0x00, 0x00, 0x00, 0x00, 0x00, 0x00, 0x00,
    0x00, 0x00, 0x00, 0x00, 0x00, 0x00, 0x00, 0x00, 0x00, 0x00, 0x00, 0x00,
    0x00, 0x00, 0x00, 0x00, 0x00, 0x00, 0x00, 0x00, 0x00, 0x00, 0x00, 0x00,
    0x00, 0x00, 0x00, 0x00, 0x00, 0x00, 0x00, 0x00, 0x00, 0x00, 0x00, 0x00,
    0x00, 0x00, 0x00, 0x00, 0x00, 0x00, 0x00, 0x00, 0x00, 0x00, 0x00, 0x00,
    0x00, 0x00, 0x00, 0x00, 0x00, 0x00, 0x00, 0x00, 0x00, 0x00, 0x00, 0x00,
    0x00, 0x00, 0x00, 0x00, 0x00, 0x00, 0x00, 0x00, 0x00, 0x00, 0x00, 0x00,
    0x00, 0x00, 0x00, 0x00, 0x40, 0x00, 0x00, 0x00, 0x74, 0xc8, 0x06, 0x39,
    0xfb, 0x92, 0xc5, 0x38, 0x97, 0x99, 0x1d, 0x39, 0xd9, 0xc8, 0x15, 0x39,
    0xf0, 0xc9, 0x09, 0x3a, 0x7f, 0xc0, 0xd1, 0x38, 0x24, 0x05, 0x5b, 0x3a,
    0x02, 0xca, 0xed, 0x38, 0x1c, 0xbb, 0xc9, 0x39, 0x81, 0x80, 0xd9, 0x39,
    0x57, 0x62, 0x1e, 0x39, 0x64, 0xa5, 0x1d, 0x39, 0x39, 0x74, 0x89, 0x3a,
    0xf0, 0xb0, 0xf7, 0x39, 0x19, 0x65, 0x11, 0x3a, 0x4f, 0xf0, 0xf2, 0x39,
    0x3c, 0xd9, 0x52, 0x39, 0x67, 0xa3, 0x22, 0x39, 0x34, 0xd5, 0xf3, 0x38,
    0x05, 0xe4, 0xd8, 0x38, 0x0d, 0x2f, 0x13, 0x39, 0xaa, 0xbe, 0x53, 0x3a,
    0xda, 0x91, 0x21, 0x39, 0x69, 0x51, 0xc1, 0x38, 0x0c, 0x54, 0x1e, 0x39,
    0x5d, 0xe6, 0x00, 0x39, 0x7d, 0x90, 0x2b, 0x3a, 0xb2, 0xda, 0x3a, 0x39,
    0x8c, 0xbd, 0x94, 0x3a, 0xfe, 0xa6, 0xba, 0x38, 0x32, 0x88, 0x05, 0x39,
    0x00, 0x0b, 0x23, 0x39, 0x47, 0x32, 0x17, 0x39, 0x81, 0xf4, 0xc9, 0x39,
    0xd5, 0x64, 0xb4, 0x39, 0x10, 0x11, 0xcb, 0x39, 0xb1, 0xb2, 0x37, 0x39,
    0xde, 0x38, 0xf1, 0x39, 0x72, 0xab, 0x6f, 0x3a, 0xe7, 0xa7, 0x0d, 0x39,
    0x0e, 0x4f, 0x76, 0x3a, 0xe0, 0xc0, 0x11, 0x39, 0x66, 0xeb, 0x9f, 0x3a,
    0x77, 0x00, 0x34, 0x39, 0x0b, 0x5d, 0x0e, 0x39, 0xbf, 0xae, 0xf5, 0x39,
    0x08, 0x53, 0x4e, 0x3a, 0x53, 0xb3, 0x37, 0x39, 0x32, 0xcb, 0x17, 0x39,
    0x25, 0xe4, 0x3b, 0x3a, 0x89, 0x2f, 0x23, 0x39, 0xa8, 0xfd, 0x23, 0x39,
    0x24, 0x54, 0x34, 0x39, 0x2a, 0xf6, 0xf2, 0x38, 0xeb, 0x74, 0x32, 0x39,
    0xbf, 0x22, 0xe4, 0x38, 0x82, 0x13, 0x17, 0x3a, 0x01, 0x3c, 0xdd, 0x38,
    0x07, 0x10, 0xb8, 0x39, 0x1a, 0x35, 0xb1, 0x38, 0x74, 0xcc, 0xd1, 0x38,
    0xe7, 0xed, 0x17, 0x3a, 0x66, 0xaa, 0x60, 0x39, 0x02, 0xdc, 0x1d, 0x39,
    0x0b, 0x00, 0x00, 0x00, 0x63, 0x6f, 0x6e, 0x76, 0x6f, 0x6c, 0x75, 0x74,
    0x69, 0x6f, 0x6e, 0x00, 0x04, 0x00, 0x00, 0x00, 0x40, 0x00, 0x00, 0x00,
    0x03, 0x00, 0x00, 0x00, 0x03, 0x00, 0x00, 0x00, 0x01, 0x00, 0x00, 0x00,
    0xee, 0xfe, 0xff, 0xff, 0x14, 0x00, 0x00, 0x00, 0x14, 0x00, 0x00, 0x00,
    0x06, 0x00, 0x00, 0x00, 0x00, 0x00, 0x00, 0x02, 0x1c, 0x00, 0x00, 0x00,
    0x28, 0xff, 0xff, 0xff, 0x0d, 0x00, 0x00, 0x00, 0x66, 0x6c, 0x61, 0x74,
    0x74, 0x65, 0x6e, 0x2f, 0x43, 0x6f, 0x6e, 0x73, 0x74, 0x00, 0x00, 0x00,
    0x01, 0x00, 0x00, 0x00, 0x02, 0x00, 0x00, 0x00, 0x26, 0xff, 0xff, 0xff,
    0x14, 0x00, 0x00, 0x00, 0x14, 0x00, 0x00, 0x00, 0x05, 0x00, 0x00, 0x00,
    0x00, 0x00, 0x00, 0x02, 0x14, 0x00, 0x00, 0x00, 0x60, 0xff, 0xff, 0xff,
    0x07, 0x00, 0x00, 0x00, 0x73, 0x70, 0x6c, 0x69, 0x74, 0x5f, 0x31, 0x00,
    0x01, 0x00, 0x00, 0x00, 0x02, 0x00, 0x00, 0x00, 0x56, 0xff, 0xff, 0xff,
    0x14, 0x00, 0x00, 0x00, 0x14, 0x00, 0x00, 0x00, 0x04, 0x00, 0x00, 0x00,
    0x00, 0x00, 0x00, 0x02, 0x20, 0x00, 0x00, 0x00, 0x90, 0xff, 0xff, 0xff,
    0x10, 0x00, 0x00, 0x00, 0x74, 0x72, 0x61, 0x6e, 0x73, 0x70, 0x6f, 0x73,
    0x65, 0x5f, 0x32, 0x2f, 0x70, 0x65, 0x72, 0x6d, 0x00, 0x00, 0x00, 0x00,
    0x01, 0x00, 0x00, 0x00, 0x04, 0x00, 0x00, 0x00, 0x92, 0xff, 0xff, 0xff,
    0x14, 0x00, 0x00, 0x00, 0x14, 0x00, 0x00, 0x00, 0x03, 0x00, 0x00, 0x00,
    0x00, 0x00, 0x00, 0x02, 0x18, 0x00, 0x00, 0x00, 0xcc, 0xff, 0xff, 0xff,
    0x0b, 0x00, 0x00, 0x00, 0x74, 0x72, 0x61, 0x6e, 0x73, 0x70, 0x6f, 0x73,
    0x65, 0x5f, 0x31, 0x00, 0x01, 0x00, 0x00, 0x00, 0x04, 0x00, 0x00, 0x00,
    0xc6, 0xff, 0xff, 0xff, 0x18, 0x00, 0x00, 0x00, 0x18, 0x00, 0x00, 0x00,
    0x02, 0x00, 0x00, 0x00, 0x00, 0x00, 0x00, 0x02, 0x18, 0x00, 0x00, 0x00,
    0x04, 0x00, 0x04, 0x00, 0x04, 0x00, 0x00, 0x00, 0x05, 0x00, 0x00, 0x00,
    0x43, 0x6f, 0x6e, 0x73, 0x74, 0x00, 0x00, 0x00, 0x02, 0x00, 0x00, 0x00,
    0x04, 0x00, 0x00, 0x00, 0x02, 0x00, 0x00, 0x00, 0x00, 0x00, 0x0e, 0x00,
    0x18, 0x00, 0x14, 0x00, 0x13, 0x00, 0x0c, 0x00, 0x08, 0x00, 0x04, 0x00,
    0x0e, 0x00, 0x00, 0x00, 0x20, 0x00, 0x00, 0x00, 0x3c, 0x00, 0x00, 0x00,
    0x01, 0x00, 0x00, 0x00, 0x00, 0x00, 0x00, 0x09, 0x4c, 0x00, 0x00, 0x00,
    0x0c, 0x00, 0x0c, 0x00, 0x00, 0x00, 0x00, 0x00, 0x08, 0x00, 0x04, 0x00,
    0x0c, 0x00, 0x00, 0x00, 0x08, 0x00, 0x00, 0x00, 0x10, 0x00, 0x00, 0x00,
    0x01, 0x00, 0x00, 0x00, 0x1d, 0x00, 0x00, 0x00, 0x00, 0x00, 0x00, 0x00,
    0x01, 0x00, 0x00, 0x00, 0x2b, 0x2b, 0xa3, 0x40, 0x17, 0x00, 0x00, 0x00,
    0x73, 0x65, 0x72, 0x76, 0x69, 0x6e, 0x67, 0x5f, 0x64, 0x65, 0x66, 0x61,
    0x75, 0x6c, 0x74, 0x5f, 0x69, 0x6e, 0x70, 0x75, 0x74, 0x3a, 0x30, 0x00,
    0x04, 0x00, 0x00, 0x00, 0x01, 0x00, 0x00, 0x00, 0x01, 0x00, 0x00, 0x00,
    0x0a, 0x00, 0x00, 0x00, 0x16, 0x00, 0x00, 0x00, 0x06, 0x00, 0x00, 0x00,
    0x7c, 0x00, 0x00, 0x00, 0x60, 0x00, 0x00, 0x00, 0x40, 0x00, 0x00, 0x00,
    0x2c, 0x00, 0x00, 0x00, 0x18, 0x00, 0x00, 0x00, 0x04, 0x00, 0x00, 0x00,
    0xa8, 0xff, 0xff, 0xff, 0x09, 0x00, 0x00, 0x00, 0x04, 0x00, 0x00, 0x00,
    0x00, 0x00, 0x00, 0x09, 0xb8, 0xff, 0xff, 0xff, 0x28, 0x00, 0x00, 0x00,
    0x02, 0x00, 0x00, 0x00, 0x00, 0x00, 0x00, 0x28, 0xc8, 0xff, 0xff, 0xff,
    0x27, 0x00, 0x00, 0x00, 0x02, 0x00, 0x00, 0x00, 0x00, 0x00, 0x00, 0x27,
    0xd8, 0xff, 0xff, 0xff, 0x03, 0x00, 0x00, 0x00, 0x03, 0x00, 0x00, 0x00,
    0x00, 0x00, 0x00, 0x03, 0x0c, 0x00, 0x0c, 0x00, 0x0b, 0x00, 0x00, 0x00,
    0x00, 0x00, 0x04, 0x00, 0x0c, 0x00, 0x00, 0x00, 0x16, 0x00, 0x00, 0x00,
    0x00, 0x00, 0x00, 0x16, 0x0c, 0x00, 0x10, 0x00, 0x0f, 0x00, 0x00, 0x00,
    0x08, 0x00, 0x04, 0x00, 0x0c, 0x00, 0x00, 0x00, 0x22, 0x00, 0x00, 0x00,
    0x02, 0x00, 0x00, 0x00, 0x00, 0x00, 0x00, 0x22
};
const unsigned int absence_int8_pr_len = 5216;
