unsigned char results_seizure_binary_shallow_checkpoint_poi_8_fold_2_mobilenet_s_shallow_model_quant_dr_tflite[] = {
  0x1c, 0x00, 0x00, 0x00, 0x54, 0x46, 0x4c, 0x33, 0x14, 0x00, 0x20, 0x00,
  0x1c, 0x00, 0x18, 0x00, 0x14, 0x00, 0x10, 0x00, 0x0c, 0x00, 0x00, 0x00,
  0x08, 0x00, 0x04, 0x00, 0x14, 0x00, 0x00, 0x00, 0x1c, 0x00, 0x00, 0x00,
  0x80, 0x00, 0x00, 0x00, 0xb0, 0x00, 0x00, 0x00, 0x10, 0x20, 0x00, 0x00,
  0x20, 0x20, 0x00, 0x00, 0xf4, 0x2c, 0x00, 0x00, 0x03, 0x00, 0x00, 0x00,
  0x01, 0x00, 0x00, 0x00, 0x04, 0x00, 0x00, 0x00, 0x5a, 0xdd, 0xff, 0xff,
  0x0c, 0x00, 0x00, 0x00, 0x1c, 0x00, 0x00, 0x00, 0x38, 0x00, 0x00, 0x00,
  0x0f, 0x00, 0x00, 0x00, 0x73, 0x65, 0x72, 0x76, 0x69, 0x6e, 0x67, 0x5f,
  0x64, 0x65, 0x66, 0x61, 0x75, 0x6c, 0x74, 0x00, 0x01, 0x00, 0x00, 0x00,
  0x04, 0x00, 0x00, 0x00, 0xc4, 0xff, 0xff, 0xff, 0x1a, 0x00, 0x00, 0x00,
  0x04, 0x00, 0x00, 0x00, 0x06, 0x00, 0x00, 0x00, 0x6f, 0x75, 0x74, 0x70,
  0x75, 0x74, 0x00, 0x00, 0x01, 0x00, 0x00, 0x00, 0x04, 0x00, 0x00, 0x00,
  0x7e, 0xe0, 0xff, 0xff, 0x04, 0x00, 0x00, 0x00, 0x05, 0x00, 0x00, 0x00,
  0x69, 0x6e, 0x70, 0x75, 0x74, 0x00, 0x00, 0x00, 0x01, 0x00, 0x00, 0x00,
  0x0c, 0x00, 0x00, 0x00, 0x08, 0x00, 0x0c, 0x00, 0x08, 0x00, 0x04, 0x00,
  0x08, 0x00, 0x00, 0x00, 0x1c, 0x00, 0x00, 0x00, 0x04, 0x00, 0x00, 0x00,
  0x13, 0x00, 0x00, 0x00, 0x6d, 0x69, 0x6e, 0x5f, 0x72, 0x75, 0x6e, 0x74,
  0x69, 0x6d, 0x65, 0x5f, 0x76, 0x65, 0x72, 0x73, 0x69, 0x6f, 0x6e, 0x00,
  0x1d, 0x00, 0x00, 0x00, 0x5c, 0x1f, 0x00, 0x00, 0x54, 0x1f, 0x00, 0x00,
  0x34, 0x1f, 0x00, 0x00, 0x0c, 0x1f, 0x00, 0x00, 0xf4, 0x1e, 0x00, 0x00,
  0xdc, 0x1e, 0x00, 0x00, 0xac, 0x1e, 0x00, 0x00, 0x9c, 0x1d, 0x00, 0x00,
  0x8c, 0x1c, 0x00, 0x00, 0xfc, 0x1b, 0x00, 0x00, 0xe4, 0x1b, 0x00, 0x00,
  0xd4, 0x1a, 0x00, 0x00, 0xc4, 0x11, 0x00, 0x00, 0xb4, 0x08, 0x00, 0x00,
  0xa4, 0x00, 0x00, 0x00, 0x84, 0x00, 0x00, 0x00, 0x7c, 0x00, 0x00, 0x00,
  0x74, 0x00, 0x00, 0x00, 0x6c, 0x00, 0x00, 0x00, 0x64, 0x00, 0x00, 0x00,
  0x5c, 0x00, 0x00, 0x00, 0x54, 0x00, 0x00, 0x00, 0x4c, 0x00, 0x00, 0x00,
  0x44, 0x00, 0x00, 0x00, 0x3c, 0x00, 0x00, 0x00, 0x34, 0x00, 0x00, 0x00,
  0x2c, 0x00, 0x00, 0x00, 0x24, 0x00, 0x00, 0x00, 0x04, 0x00, 0x00, 0x00,
  0x3e, 0xe1, 0xff, 0xff, 0x04, 0x00, 0x00, 0x00, 0x10, 0x00, 0x00, 0x00,
  0x31, 0x2e, 0x36, 0x2e, 0x30, 0x00, 0x00, 0x00, 0x00, 0x00, 0x00, 0x00,
  0x00, 0x00, 0x00, 0x00, 0x7c, 0xd4, 0xff, 0xff, 0x80, 0xd4, 0xff, 0xff,
  0x84, 0xd4, 0xff, 0xff, 0x88, 0xd4, 0xff, 0xff, 0x8c, 0xd4, 0xff, 0xff,
  0x90, 0xd4, 0xff, 0xff, 0x94, 0xd4, 0xff, 0xff, 0x98, 0xd4, 0xff, 0xff,
  0x9c, 0xd4, 0xff, 0xff, 0xa0, 0xd4, 0xff, 0xff, 0xa4, 0xd4, 0xff, 0xff,
  0xa8, 0xd4, 0xff, 0xff, 0x8a, 0xe1, 0xff, 0xff, 0x04, 0x00, 0x00, 0x00,
  0x10, 0x00, 0x00, 0x00, 0x01, 0x00, 0x00, 0x00, 0x0c, 0x00, 0x00, 0x00,
  0x99, 0x00, 0x00, 0x00, 0x01, 0x00, 0x00, 0x00, 0xa6, 0xe1, 0xff, 0xff,
  0x04, 0x00, 0x00, 0x00, 0x00, 0x08, 0x00, 0x00, 0xf8, 0xce, 0xff, 0x02,
  0x2f, 0xfb, 0xf7, 0xea, 0x04, 0x0a, 0x23, 0xf5, 0x34, 0xf2, 0x0c, 0xfe,
  0x38, 0xea, 0x14, 0xfc, 0x00, 0xfc, 0x0f, 0xff, 0x04, 0x02, 0x00, 0xef,
  0x16, 0xef, 0xf9, 0xf3, 0xf8, 0x81, 0x02, 0x00, 0x09, 0x02, 0x03, 0xfc,
  0xfe, 0x0f, 0x00, 0x00, 0xf9, 0xfd, 0x11, 0x08, 0xda, 0xfe, 0x10, 0xfc,
  0xfa, 0x00, 0xf4, 0x00, 0x05, 0xda, 0xfb, 0xf6, 0x04, 0x07, 0x02, 0xc6,
  0x76, 0xeb, 0xe4, 0xf6, 0x23, 0xdb, 0x38, 0xe7, 0xea, 0x23, 0x3b, 0x00,
  0x1f, 0x4c, 0x27, 0x2a, 0x17, 0xe5, 0x0f, 0xe3, 0xf1, 0xcd, 0xf0, 0x3c,
  0x00, 0xfd, 0xd9, 0xfd, 0x14, 0x27, 0x43, 0xcc, 0xd4, 0xea, 0xef, 0x40,
  0xcf, 0x81, 0x06, 0xb2, 0xfe, 0x0c, 0x14, 0xf5, 0x04, 0xf5, 0x19, 0x0d,
  0xda, 0xf8, 0x12, 0x11, 0xf3, 0xf4, 0xda, 0x03, 0x65, 0x32, 0xda, 0xb8,
  0x3f, 0x4e, 0x2e, 0x1c, 0xd6, 0xce, 0xf8, 0x09, 0x1e, 0xe9, 0xf2, 0xf6,
  0x23, 0x81, 0x28, 0x03, 0x2a, 0x07, 0x11, 0x19, 0x70, 0x09, 0x2c, 0xfe,
  0xf9, 0xf9, 0x17, 0x00, 0x05, 0x0a, 0x08, 0xfe, 0x2c, 0xf5, 0xfa, 0x05,
  0xf1, 0xce, 0xfe, 0xfd, 0x10, 0xf6, 0x02, 0x0d, 0xf2, 0x16, 0x08, 0xf9,
  0x2f, 0x03, 0xf4, 0x09, 0xf1, 0xf8, 0x06, 0xef, 0xf8, 0x11, 0xf8, 0x03,
  0xfc, 0xf1, 0xfe, 0xfd, 0x0b, 0x0b, 0x06, 0xb9, 0xeb, 0xe8, 0x00, 0x05,
  0xee, 0xfb, 0xfa, 0xba, 0xf7, 0x19, 0x07, 0xe0, 0x09, 0xfa, 0xf5, 0x36,
  0x2c, 0xcd, 0xfe, 0x00, 0x05, 0xc9, 0x13, 0xff, 0xc3, 0xfc, 0x07, 0xcf,
  0xe2, 0xe2, 0xfd, 0x01, 0xe5, 0x11, 0xfd, 0xf0, 0xf1, 0x08, 0xca, 0xed,
  0xfe, 0x1d, 0x0b, 0x0b, 0x81, 0x00, 0x09, 0x02, 0x20, 0x00, 0x03, 0xfd,
  0x00, 0x10, 0x08, 0xfa, 0x03, 0x0b, 0xee, 0xf4, 0xf2, 0xe6, 0xfe, 0x12,
  0xf2, 0x0a, 0x18, 0x07, 0xc2, 0xfd, 0x1c, 0x4b, 0x45, 0x33, 0xfa, 0x29,
  0x08, 0xcd, 0xeb, 0x09, 0xc1, 0x87, 0xdc, 0xdf, 0xfe, 0x0a, 0x38, 0x17,
  0x17, 0xfc, 0xf3, 0x01, 0xe2, 0xe8, 0x21, 0xd7, 0x02, 0x23, 0x22, 0xce,
  0xd6, 0x40, 0x8c, 0x31, 0xfa, 0x34, 0x07, 0xba, 0x81, 0x1d, 0x21, 0xe4,
  0x2e, 0xae, 0x1c, 0x13, 0xc0, 0xe3, 0x28, 0xf4, 0x18, 0x11, 0x28, 0x11,
  0xd9, 0xe3, 0x2d, 0x25, 0x12, 0x1a, 0xf9, 0xc6, 0x0f, 0xce, 0x19, 0x17,
  0xd0, 0x02, 0x1a, 0x15, 0x11, 0x21, 0x1d, 0x10, 0xf7, 0x27, 0x1a, 0x37,
  0x25, 0xf8, 0xcd, 0x2a, 0xcb, 0xfd, 0xea, 0x0c, 0xe5, 0xed, 0x23, 0x0e,
  0xd3, 0x2c, 0xe5, 0xfc, 0x23, 0xec, 0x06, 0xdd, 0xfc, 0xf4, 0x1d, 0xfe,
  0xfd, 0xe9, 0xf4, 0x06, 0xf8, 0xf1, 0x0c, 0x24, 0xfb, 0x02, 0xc5, 0x04,
  0x7f, 0x2c, 0xf0, 0x89, 0x2b, 0x06, 0x35, 0x1b, 0xfe, 0xff, 0xfe, 0x02,
  0x02, 0x01, 0x11, 0x55, 0x4a, 0x02, 0x07, 0xf6, 0x0c, 0xf7, 0xd9, 0xf4,
  0x1a, 0xfd, 0x36, 0xfc, 0x08, 0xf2, 0xfd, 0x05, 0xfc, 0xfe, 0xf4, 0x15,
  0xf4, 0xfa, 0xf8, 0x05, 0xf4, 0x02, 0x07, 0x02, 0xff, 0xfb, 0xa5, 0xff,
  0x81, 0x04, 0xfb, 0x08, 0x22, 0xf1, 0x2d, 0xfc, 0x06, 0x04, 0x06, 0x0a,
  0xf6, 0xf9, 0xf0, 0xf9, 0x11, 0xfe, 0x18, 0xff, 0x05, 0x00, 0x00, 0x46,
  0xd6, 0x1b, 0xfa, 0xf6, 0x4e, 0xdc, 0xe7, 0xe8, 0x11, 0xcd, 0x1f, 0x0d,
  0x42, 0xf5, 0x07, 0x03, 0x78, 0x02, 0x27, 0x08, 0x18, 0xed, 0xce, 0xfc,
  0xf9, 0x00, 0xe8, 0xf6, 0x38, 0xf1, 0x16, 0xec, 0xc9, 0xc6, 0xf7, 0x05,
  0x20, 0xf4, 0x09, 0xd4, 0xe1, 0x1a, 0x0b, 0xef, 0x23, 0xe7, 0x03, 0x16,
  0xcf, 0xd3, 0x07, 0xe7, 0xfc, 0xfb, 0xda, 0x04, 0x7f, 0xdc, 0x02, 0xb2,
  0xfb, 0xf6, 0x18, 0xe9, 0xe7, 0x0f, 0xf5, 0x1a, 0x44, 0x1d, 0x2a, 0x7f,
  0xc3, 0xe0, 0x5e, 0x0d, 0x13, 0x14, 0x26, 0x0e, 0xfc, 0x4f, 0x23, 0xf3,
  0xfb, 0xff, 0xf8, 0xf1, 0xc9, 0x03, 0xe6, 0x3d, 0x30, 0xf3, 0x21, 0xe8,
  0xfd, 0xe7, 0xf0, 0xf4, 0x17, 0xf2, 0x06, 0xfb, 0x05, 0x36, 0x11, 0xe2,
  0x1d, 0x01, 0xda, 0xe8, 0x04, 0xe8, 0xfd, 0xd6, 0x0b, 0x05, 0x0e, 0x03,
  0x1b, 0xda, 0x2d, 0xfe, 0xf0, 0x08, 0x0f, 0xee, 0xcd, 0xf4, 0x0c, 0x15,
  0xa6, 0xf4, 0x15, 0xf1, 0x7f, 0x35, 0xf0, 0x2a, 0xfc, 0xdf, 0xe1, 0xf8,
  0xc7, 0xbb, 0xd0, 0xee, 0xe5, 0xfe, 0x24, 0x16, 0x0b, 0xfe, 0xef, 0xe7,
  0xc2, 0xf8, 0x12, 0xcd, 0x09, 0x2b, 0xfd, 0xb7, 0xd6, 0x3f, 0xc0, 0x39,
  0x0c, 0x2d, 0xff, 0xc4, 0xa7, 0x20, 0x10, 0xe2, 0x35, 0xda, 0x17, 0x2f,
  0x15, 0xd2, 0x24, 0xf4, 0x08, 0x1b, 0x29, 0x31, 0x94, 0xa4, 0x28, 0x26,
  0xf9, 0xd3, 0xfd, 0x01, 0x31, 0xf6, 0xf6, 0xe9, 0x10, 0x13, 0x22, 0xf8,
  0x39, 0xf1, 0x0e, 0x03, 0x35, 0xe4, 0x0d, 0xff, 0xfd, 0xfc, 0x02, 0xfe,
  0x05, 0x03, 0x01, 0xef, 0x16, 0xe7, 0xf8, 0xf4, 0xf6, 0x81, 0x04, 0xfd,
  0x0d, 0x04, 0x04, 0xee, 0xfc, 0x0c, 0x00, 0xfa, 0xf6, 0x03, 0x16, 0x0c,
  0xdc, 0xfd, 0x0e, 0x00, 0xfd, 0xfd, 0xf6, 0x00, 0x06, 0xd0, 0xfe, 0xf9,
  0x00, 0x09, 0x04, 0xc8, 0x13, 0xf3, 0x20, 0xe1, 0xea, 0x33, 0x3e, 0x41,
  0x04, 0x06, 0x2a, 0x26, 0x25, 0x2d, 0xf9, 0xf7, 0xf2, 0xe4, 0x0f, 0xe2,
  0x15, 0xf3, 0x1b, 0x1d, 0x12, 0x03, 0x96, 0x47, 0x06, 0x1a, 0x0a, 0x0b,
  0xbb, 0x08, 0xaf, 0xde, 0xec, 0x4d, 0xa2, 0x2e, 0xf8, 0xfc, 0xe0, 0x9c,
  0xfc, 0x15, 0x0e, 0xcb, 0x21, 0xfc, 0x24, 0x47, 0x44, 0xbf, 0xe6, 0xf9,
  0x7f, 0x22, 0x3f, 0x0b, 0xce, 0xc7, 0x02, 0x59, 0x0e, 0x2e, 0xdf, 0x09,
  0x4d, 0xe9, 0xda, 0x7f, 0x20, 0xfb, 0x2a, 0x05, 0x08, 0xba, 0xf6, 0x09,
  0xdd, 0x35, 0x2e, 0x43, 0xf5, 0xf5, 0xf5, 0xee, 0xe5, 0x09, 0xea, 0x36,
  0xde, 0xfb, 0xf7, 0x34, 0xd6, 0xf4, 0x1c, 0xf2, 0x19, 0x0c, 0x06, 0xea,
  0x05, 0xf1, 0x25, 0x26, 0xee, 0xe8, 0xb0, 0xe9, 0xbf, 0x03, 0x2e, 0x1d,
  0xdc, 0x0b, 0xca, 0x04, 0x7a, 0x0b, 0xfd, 0xbb, 0x13, 0xfc, 0x36, 0xf9,
  0xbe, 0x42, 0x00, 0x41, 0x1f, 0xfa, 0x35, 0x7f, 0xc4, 0xd5, 0xee, 0x09,
  0x0a, 0x07, 0x37, 0x06, 0x04, 0x1d, 0x27, 0x25, 0xea, 0xfd, 0x21, 0xee,
  0xe5, 0x06, 0x0a, 0x3a, 0x2e, 0xf4, 0x1b, 0xbe, 0xe8, 0xe8, 0xf9, 0xe9,
  0x4f, 0x03, 0xeb, 0x09, 0x14, 0x25, 0xcf, 0xf8, 0x40, 0xf0, 0xce, 0xe4,
  0xfb, 0xe7, 0x30, 0x16, 0xfe, 0x17, 0xff, 0x03, 0x55, 0xf0, 0x4c, 0x0d,
  0xf4, 0xfb, 0x17, 0xe5, 0xf9, 0xe5, 0xf0, 0x00, 0xfc, 0x28, 0x2f, 0xf1,
  0xd2, 0x01, 0x15, 0xf8, 0x08, 0xfa, 0x14, 0xe1, 0x1a, 0xe4, 0xf2, 0xfc,
  0x17, 0x06, 0xbb, 0x1a, 0xfa, 0x04, 0xfe, 0xfe, 0x09, 0x62, 0xb8, 0x85,
  0x15, 0x0f, 0xfb, 0xf5, 0x2d, 0xd5, 0xf6, 0x38, 0xe4, 0xea, 0x15, 0xe4,
  0xe2, 0x19, 0xf5, 0x02, 0x22, 0xfa, 0x81, 0xf7, 0xc5, 0x0a, 0x38, 0x06,
  0xa4, 0xe0, 0xfc, 0x04, 0x08, 0x02, 0xd0, 0x2d, 0xdf, 0xb8, 0x1a, 0x44,
  0xcc, 0x46, 0x0c, 0xa3, 0x64, 0x15, 0xda, 0xfe, 0x89, 0xfd, 0xe1, 0xcf,
  0x13, 0xf8, 0x00, 0x0d, 0x7a, 0xee, 0x28, 0x13, 0x17, 0x02, 0xfa, 0xcd,
  0xbc, 0x0b, 0x1e, 0xde, 0xd8, 0x18, 0xf1, 0xb2, 0xcf, 0x24, 0xf2, 0x35,
  0x01, 0x7f, 0xcb, 0xea, 0xb2, 0x44, 0xf5, 0x8a, 0x3b, 0xeb, 0x43, 0x44,
  0x30, 0xb5, 0xf9, 0xf7, 0xf5, 0x3a, 0x03, 0x03, 0xa3, 0xeb, 0x2c, 0x01,
  0xce, 0xc3, 0xfa, 0x05, 0x34, 0xe8, 0xec, 0xe3, 0x23, 0x9a, 0x36, 0xff,
  0x43, 0xf9, 0x0e, 0x15, 0x7f, 0xfa, 0x2a, 0x02, 0xf9, 0xf8, 0x1c, 0xfe,
  0x09, 0x07, 0x05, 0xf8, 0x38, 0xeb, 0xfa, 0xff, 0xed, 0x94, 0xff, 0xff,
  0x1a, 0xf6, 0x02, 0x0c, 0xf1, 0x1d, 0x04, 0xf7, 0x25, 0x01, 0x02, 0x0a,
  0xe2, 0xf7, 0x09, 0xed, 0xf3, 0x07, 0xf3, 0x00, 0x01, 0xd9, 0xf7, 0x00,
  0x09, 0x0e, 0x0a, 0xa0, 0xbd, 0xd8, 0x0e, 0x05, 0x8c, 0xb8, 0x0c, 0xec,
  0x49, 0x34, 0xdc, 0x20, 0xd3, 0x1d, 0x09, 0xaf, 0xc0, 0x0b, 0x81, 0xd4,
  0xfc, 0xf3, 0x12, 0x0c, 0x06, 0xfe, 0xe9, 0xe8, 0xda, 0xea, 0xf7, 0xf8,
  0xda, 0x2c, 0xe9, 0xdf, 0x1e, 0x38, 0xfa, 0xd8, 0xe8, 0xf8, 0x06, 0x16,
  0x0c, 0x1e, 0x08, 0xbe, 0x4f, 0xf3, 0xe0, 0x2a, 0x21, 0xee, 0x14, 0xf6,
  0x36, 0x2f, 0x10, 0x0b, 0xd0, 0xf8, 0x18, 0x24, 0x1d, 0xeb, 0x02, 0x00,
  0xdd, 0xff, 0xfd, 0xd2, 0x1a, 0x25, 0xcf, 0xf8, 0xf4, 0x00, 0xf2, 0xd7,
  0xd7, 0xc5, 0xec, 0x02, 0x04, 0xc6, 0x08, 0xfd, 0x10, 0x01, 0xfc, 0xde,
  0xe6, 0xab, 0x01, 0xfa, 0x05, 0x18, 0x05, 0xfd, 0xe7, 0xfd, 0xe5, 0x17,
  0x03, 0x00, 0xef, 0xdf, 0xbb, 0x08, 0x01, 0xfe, 0x81, 0xf4, 0x03, 0x03,
  0xc6, 0xfb, 0xfd, 0xfc, 0x40, 0x21, 0xfe, 0x11, 0xd0, 0xeb, 0xf8, 0xfe,
  0x1a, 0xc1, 0x27, 0x17, 0xbb, 0xf2, 0xff, 0x90, 0xdf, 0x40, 0x22, 0xf3,
  0xdb, 0x39, 0x06, 0xb6, 0xf0, 0xa6, 0x1f, 0x1a, 0x02, 0x81, 0x28, 0xfb,
  0xf7, 0xff, 0xb6, 0xb5, 0xda, 0xbf, 0xbc, 0xf6, 0x07, 0x33, 0x03, 0xda,
  0x00, 0x0d, 0xf7, 0x0d, 0x0f, 0x09, 0xba, 0xd9, 0x94, 0x0e, 0xea, 0xde,
  0xb1, 0x02, 0xea, 0x05, 0xd3, 0x17, 0xf5, 0xf6, 0x32, 0x28, 0xed, 0xf1,
  0x0d, 0xe1, 0xf6, 0xe5, 0xe1, 0x13, 0x19, 0x00, 0xea, 0x78, 0x12, 0xd7,
  0x52, 0x27, 0xf4, 0x28, 0xdf, 0x00, 0xcf, 0xde, 0xd4, 0xda, 0xf6, 0x14,
  0x39, 0xfc, 0x34, 0x02, 0x08, 0x03, 0xcb, 0x1f, 0xe9, 0xf8, 0x0b, 0xfc,
  0x04, 0x18, 0xf4, 0xe5, 0xdd, 0x21, 0xea, 0x32, 0x07, 0x0e, 0xd7, 0x81,
  0xd2, 0x28, 0x0a, 0xcb, 0x36, 0xca, 0x1e, 0x1c, 0x2c, 0xd2, 0xd4, 0xf8,
  0x05, 0x3f, 0x24, 0x31, 0xd6, 0xd1, 0x18, 0x29, 0x2c, 0xef, 0xdc, 0x22,
  0x1c, 0x11, 0x81, 0x0d, 0xed, 0x0a, 0x25, 0x29, 0x81, 0x1d, 0xdb, 0xf3,
  0x0b, 0x61, 0x31, 0x11, 0xd7, 0xfe, 0xc2, 0x05, 0x9d, 0x00, 0xde, 0x2f,
  0x0f, 0xfe, 0x19, 0xf6, 0xe5, 0x2f, 0x26, 0xf6, 0x1c, 0x1b, 0x02, 0xf4,
  0x0e, 0xef, 0xe7, 0x00, 0x35, 0xd2, 0x2e, 0xdf, 0xdd, 0xd3, 0xef, 0x9b,
  0xe4, 0xb4, 0xa5, 0x08, 0x44, 0x06, 0xf2, 0xf4, 0x11, 0xfb, 0x11, 0xdc,
  0x66, 0xfa, 0x16, 0xab, 0xe5, 0x81, 0x10, 0x25, 0x07, 0xfc, 0xb7, 0x09,
  0xca, 0x36, 0xf8, 0xbc, 0xda, 0x5d, 0xc9, 0x0e, 0x56, 0xda, 0x49, 0xfe,
  0x15, 0x04, 0xef, 0x12, 0xee, 0x95, 0xfa, 0xfa, 0xe5, 0xee, 0xcd, 0x05,
  0x29, 0x03, 0x1b, 0xf1, 0x14, 0xa0, 0xf6, 0x0e, 0x3b, 0x18, 0xe6, 0x91,
  0x25, 0x03, 0xe8, 0x68, 0x16, 0xe0, 0x0f, 0xf7, 0x0a, 0xf6, 0x28, 0x1c,
  0x2c, 0x07, 0xc7, 0x10, 0x16, 0x0f, 0xc5, 0x29, 0xf9, 0xd9, 0x27, 0x7f,
  0xc2, 0xde, 0xfa, 0x2f, 0xff, 0x00, 0x1f, 0xfc, 0xff, 0x5f, 0xea, 0xfb,
  0xe2, 0xf1, 0xfd, 0xef, 0xcc, 0x04, 0xf5, 0x2c, 0x16, 0xe0, 0x25, 0x28,
  0x06, 0xf5, 0x1b, 0xfd, 0xfc, 0x0f, 0x13, 0xe4, 0x05, 0x0e, 0x09, 0xcd,
  0x79, 0x0a, 0xf3, 0x07, 0x12, 0x00, 0x28, 0xe5, 0xfa, 0x11, 0xeb, 0x07,
  0x2f, 0xe8, 0x28, 0xcf, 0x25, 0x1b, 0x11, 0x48, 0x24, 0x08, 0xd5, 0x07,
  0xe5, 0xf4, 0x0f, 0x7f, 0x26, 0xf3, 0x16, 0x30, 0xf7, 0x15, 0xfe, 0x24,
  0xe8, 0x21, 0xfc, 0x16, 0xee, 0xf5, 0xf7, 0x0a, 0xfc, 0x08, 0x0b, 0x20,
  0x05, 0x25, 0xe8, 0x10, 0xe9, 0xfc, 0x07, 0xf9, 0xfb, 0x08, 0xfc, 0x21,
  0x02, 0x12, 0x1a, 0x0c, 0x1d, 0x12, 0x07, 0x03, 0x18, 0xfa, 0xde, 0xff,
  0x01, 0x19, 0x13, 0x05, 0xf0, 0x14, 0xfd, 0xee, 0xf8, 0x18, 0x0d, 0x0a,
  0xeb, 0x0a, 0xf1, 0x0f, 0x14, 0xe6, 0x0d, 0x7f, 0xf0, 0xe7, 0x0a, 0x12,
  0xfa, 0xf0, 0x3f, 0x09, 0x01, 0x55, 0x0e, 0x11, 0x09, 0xef, 0xfb, 0xf6,
  0xfe, 0x04, 0xf6, 0x23, 0x27, 0xe0, 0x1f, 0xe5, 0xf8, 0x00, 0x00, 0xf5,
  0x12, 0x03, 0x07, 0xe8, 0xfc, 0x11, 0x09, 0xc2, 0x5f, 0xed, 0xd9, 0x06,
  0xfd, 0xf2, 0x32, 0xe9, 0xf4, 0x15, 0xf3, 0x05, 0x59, 0xff, 0x2f, 0xf2,
  0x06, 0x09, 0x09, 0x23, 0xea, 0x11, 0x10, 0xaf, 0x16, 0xb6, 0xd5, 0x68,
  0x65, 0xd1, 0x36, 0xf4, 0x1b, 0x21, 0xf2, 0x41, 0x18, 0xe4, 0x1f, 0x43,
  0xeb, 0x06, 0xf3, 0x82, 0xc7, 0x02, 0xf4, 0x1b, 0x2a, 0xee, 0x18, 0x15,
  0x81, 0xef, 0xce, 0xe4, 0xf5, 0x0f, 0xf5, 0xd6, 0xf3, 0xdb, 0xf2, 0xef,
  0x68, 0xb0, 0xd6, 0x04, 0x08, 0x0e, 0x1a, 0x0d, 0x04, 0xe3, 0xe2, 0x08,
  0xba, 0x3a, 0xf8, 0xb5, 0x1f, 0xd1, 0xbe, 0xfd, 0xec, 0xe2, 0x00, 0x38,
  0xdd, 0x29, 0x14, 0xd1, 0x23, 0x2a, 0x08, 0xe1, 0x15, 0xf0, 0xf4, 0xed,
  0xf2, 0xb8, 0x3e, 0x02, 0x1f, 0xff, 0x07, 0x2f, 0x1c, 0xfb, 0x08, 0xbc,
  0xd1, 0xfd, 0x10, 0xfe, 0x15, 0x1e, 0xca, 0xf6, 0xd4, 0x0f, 0x81, 0x26,
  0xf1, 0x29, 0x0f, 0xde, 0x8f, 0x09, 0x16, 0xfa, 0x1b, 0xde, 0x08, 0x28,
  0x2f, 0xbd, 0xd5, 0xf7, 0x00, 0x0a, 0x17, 0x17, 0xc8, 0xda, 0x18, 0x13,
  0xec, 0xdc, 0x08, 0x0b, 0xd4, 0x21, 0x0a, 0xa5, 0x39, 0x28, 0x10, 0xd1,
  0x05, 0xf5, 0x03, 0xf5, 0x10, 0xaf, 0x28, 0x08, 0x16, 0xfd, 0x0c, 0xdb,
  0x0d, 0xfc, 0xf7, 0xb6, 0xe3, 0xf2, 0x0e, 0x00, 0x0a, 0x17, 0xdb, 0xfa,
  0xd8, 0x09, 0xe1, 0x3e, 0xfa, 0xfd, 0x14, 0x14, 0x81, 0x0e, 0x13, 0xfe,
  0x1f, 0xe7, 0x23, 0x01, 0x2e, 0x8f, 0xc6, 0xf4, 0x50, 0x24, 0xf7, 0x0a,
  0xd2, 0xd2, 0xff, 0x0c, 0xf7, 0x1f, 0xd8, 0x37, 0x1c, 0xe6, 0x22, 0x7f,
  0xec, 0xf3, 0xe0, 0x2f, 0xf6, 0x1b, 0x04, 0x07, 0xf7, 0x3a, 0x22, 0x06,
  0xd3, 0xfa, 0xf3, 0xf8, 0xdb, 0x03, 0xf7, 0x1f, 0x13, 0xfa, 0x10, 0x24,
  0xe2, 0xfb, 0x18, 0xfe, 0xf8, 0x06, 0x03, 0xca, 0x07, 0x25, 0x19, 0xc2,
  0x24, 0x09, 0xee, 0x00, 0x10, 0x05, 0x1c, 0xe8, 0x0e, 0x02, 0xfe, 0x06,
  0x0b, 0xf1, 0x27, 0xcc, 0x11, 0x10, 0x10, 0x27, 0xfb, 0xf9, 0x0d, 0x0f,
  0xfa, 0x24, 0x15, 0xd2, 0x09, 0x12, 0xf4, 0xf8, 0xd7, 0xe6, 0xef, 0xe4,
  0xfe, 0xef, 0xf5, 0x0b, 0x2f, 0xfe, 0x13, 0x05, 0xfc, 0x01, 0xdc, 0x0b,
  0xf6, 0x0e, 0x08, 0xe9, 0xdf, 0x01, 0xf9, 0x81, 0xe4, 0x1d, 0xff, 0x0b,
  0x11, 0x33, 0xd7, 0x21, 0xe5, 0x2f, 0xf2, 0xc1, 0x2f, 0x0e, 0x20, 0x24,
  0x1a, 0xd7, 0x06, 0xfb, 0x13, 0x25, 0x02, 0x13, 0xcf, 0xe7, 0x04, 0x04,
  0x0c, 0x11, 0xe2, 0x1b, 0xbd, 0xe5, 0x11, 0xf5, 0x12, 0x34, 0xc4, 0x2c,
  0xad, 0x0d, 0xde, 0xa6, 0xb2, 0xef, 0xb0, 0xf6, 0x04, 0xed, 0xe7, 0x0b,
  0x0c, 0x01, 0x21, 0xde, 0x9c, 0xe3, 0x09, 0xe4, 0xb5, 0x2a, 0x02, 0xf5,
  0x06, 0x40, 0x00, 0x81, 0xe2, 0x08, 0xf9, 0x10, 0x0b, 0x1a, 0xcd, 0x00,
  0x64, 0xe9, 0xe9, 0x16, 0x1e, 0xf9, 0x0b, 0xf6, 0x2d, 0x19, 0x1d, 0x38,
  0xf1, 0xda, 0x22, 0x21, 0xb2, 0xe9, 0xff, 0xff, 0x04, 0x00, 0x00, 0x00,
  0x00, 0x09, 0x00, 0x00, 0xaa, 0x51, 0x27, 0xbf, 0x7c, 0x46, 0x84, 0x3d,
  0xc3, 0xd7, 0xcd, 0xbe, 0x20, 0xe6, 0x21, 0xbf, 0x5a, 0x74, 0x9d, 0x3e,
  0x8a, 0x90, 0x87, 0x3e, 0x0a, 0x48, 0x00, 0x3f, 0x23, 0x60, 0x43, 0x3d,
  0xbf, 0x9c, 0x28, 0x3c, 0x25, 0x3c, 0xbf, 0xbe, 0xce, 0x08, 0x86, 0x3d,
  0x2f, 0x00, 0xca, 0x3e, 0x07, 0xfd, 0x22, 0xbf, 0x3d, 0x01, 0xca, 0xbd,
  0x8b, 0x94, 0x32, 0xbe, 0xce, 0xfa, 0x4c, 0x3e, 0x90, 0x9b, 0xb0, 0x3d,
  0x3c, 0x36, 0xaf, 0xbf, 0x92, 0x4f, 0xaa, 0xbe, 0x62, 0x4f, 0x50, 0xbe,
  0x1b, 0xdb, 0x76, 0xbf, 0xd4, 0x5b, 0xb1, 0x3f, 0xeb, 0x1c, 0x05, 0x3d,
  0xe2, 0xad, 0xba, 0x3f, 0xbb, 0x54, 0xe6, 0x3f, 0x96, 0x1f, 0xa2, 0x3d,
  0x98, 0x09, 0x9f, 0x3f, 0xf7, 0xd1, 0x84, 0x3f, 0xb4, 0xbd, 0xf2, 0xbd,
  0x44, 0x45, 0x76, 0xbf, 0xfd, 0xec, 0x29, 0xc0, 0x29, 0x0d, 0xb5, 0xbe,
  0x0c, 0xa3, 0xce, 0x3f, 0x2b, 0xc5, 0x14, 0xbe, 0x05, 0x0b, 0xfe, 0xbe,
  0xe2, 0x72, 0x3a, 0xbe, 0xbd, 0x25, 0xca, 0x3e, 0x05, 0xf3, 0xd3, 0x3e,
  0x2c, 0xe7, 0x97, 0x41, 0x96, 0xc7, 0x59, 0x3e, 0x09, 0x97, 0xa5, 0xbc,
  0x16, 0x44, 0x71, 0xba, 0xf9, 0x95, 0xcb, 0x3e, 0x57, 0x79, 0x80, 0xbf,
  0x12, 0xb4, 0x81, 0x3d, 0xdb, 0xaa, 0xaf, 0xbd, 0xa8, 0x32, 0xa5, 0xbf,
  0xc0, 0xc0, 0xa7, 0xbf, 0x7f, 0x88, 0x14, 0xbf, 0xfa, 0x7d, 0x11, 0xbe,
  0x14, 0xc3, 0x56, 0x3d, 0x18, 0x83, 0xa3, 0xbc, 0x56, 0xbf, 0xca, 0xbf,
  0xc1, 0x9e, 0x2d, 0xbf, 0x55, 0xbf, 0x96, 0xbe, 0xa4, 0x5c, 0x92, 0x42,
  0xb1, 0xbf, 0xcd, 0xbc, 0xaf, 0xd8, 0x34, 0x3e, 0xa9, 0x0a, 0x2e, 0xbe,
  0x3c, 0xda, 0xa8, 0x3e, 0x25, 0x73, 0x0f, 0x3e, 0x68, 0x29, 0x86, 0x3f,
  0x8a, 0xd4, 0x77, 0x3e, 0x80, 0x21, 0xa1, 0x3d, 0xd2, 0xc5, 0xe5, 0xbd,
  0x70, 0x08, 0x74, 0x3d, 0xb6, 0x09, 0x2b, 0x3f, 0xd0, 0x2e, 0x0a, 0xc0,
  0x2c, 0x74, 0x32, 0xc0, 0x8f, 0xf4, 0x46, 0x3c, 0x10, 0xb2, 0x7c, 0x3f,
  0xb8, 0x87, 0xba, 0xbf, 0x01, 0xc7, 0x71, 0x3e, 0x1c, 0x4c, 0xae, 0xbe,
  0x93, 0x9c, 0x16, 0xbc, 0x2d, 0x67, 0x7c, 0x3e, 0xf0, 0x5e, 0x24, 0xbe,
  0xc0, 0x92, 0x58, 0xbd, 0xc2, 0xf0, 0x8a, 0xbd, 0xa6, 0x42, 0x3d, 0xbf,
  0x28, 0xc5, 0xae, 0xbd, 0x01, 0xb6, 0x8f, 0xbc, 0x6a, 0x37, 0x5c, 0xbc,
  0x03, 0xbc, 0x2b, 0xbd, 0x32, 0xb4, 0xf5, 0xbe, 0x1b, 0x5a, 0xd8, 0x3e,
  0xc9, 0x39, 0x4f, 0xbe, 0x89, 0x2e, 0x9f, 0x3f, 0x73, 0xc2, 0x85, 0xbf,
  0x19, 0x51, 0x14, 0x3e, 0x62, 0xd4, 0x5d, 0xc0, 0x6c, 0x14, 0x8e, 0xbf,
  0x9a, 0x8d, 0x3e, 0xbf, 0x02, 0x45, 0x27, 0x3e, 0x19, 0x21, 0x61, 0x3f,
  0xa3, 0xe1, 0xa1, 0x3e, 0x40, 0xbf, 0x2d, 0x3f, 0xd8, 0x17, 0xfe, 0xbd,
  0x63, 0x85, 0x88, 0xbb, 0x33, 0x95, 0x95, 0x3e, 0xb5, 0x80, 0x9e, 0x3e,
  0xf6, 0x4c, 0x8f, 0xbe, 0x72, 0x99, 0xa9, 0x41, 0x95, 0x00, 0x7b, 0xbd,
  0xe8, 0xaa, 0x11, 0x3d, 0xbe, 0x23, 0x15, 0xbf, 0x81, 0x03, 0xc1, 0xbf,
  0xe1, 0x92, 0x0c, 0xc0, 0x00, 0xe1, 0x8f, 0x3f, 0xc3, 0x31, 0xd5, 0x3c,
  0x16, 0x5d, 0x0b, 0xbf, 0x63, 0xb5, 0x02, 0x3f, 0x1e, 0x6a, 0x42, 0xbf,
  0x79, 0x9c, 0x19, 0xbf, 0x57, 0xa5, 0x0a, 0xbf, 0x4f, 0x22, 0x0b, 0xbc,
  0x6e, 0x39, 0x40, 0x3f, 0x5e, 0x41, 0x4f, 0xbe, 0x28, 0x68, 0x42, 0x3e,
  0x13, 0x70, 0x04, 0xc3, 0x38, 0x46, 0xc2, 0x3e, 0xda, 0x8a, 0xc8, 0xbf,
  0x2e, 0x95, 0xd1, 0xbf, 0x65, 0xf7, 0x50, 0xbd, 0x90, 0x9a, 0x8e, 0x3e,
  0x01, 0xbf, 0xe1, 0xbf, 0xc2, 0xa6, 0x90, 0xbc, 0x53, 0x2c, 0x2e, 0xbf,
  0x11, 0x98, 0x8f, 0xbe, 0xe5, 0x30, 0x1c, 0x3c, 0xd5, 0x75, 0x18, 0xbf,
  0xa0, 0x62, 0x29, 0xbd, 0xf3, 0x1b, 0x18, 0x3f, 0xa5, 0x45, 0xa5, 0x3e,
  0x36, 0x04, 0xb5, 0x3d, 0xb3, 0x50, 0x4f, 0x3f, 0x8c, 0xf7, 0x42, 0x3e,
  0xf2, 0xae, 0x40, 0x3e, 0x33, 0xd1, 0x43, 0x3c, 0xd6, 0xea, 0xab, 0xbf,
  0xe9, 0xba, 0xdf, 0x3e, 0xb1, 0xbd, 0x96, 0x3d, 0xea, 0x15, 0x02, 0xbd,
  0x41, 0x08, 0x05, 0x3c, 0x3d, 0x5a, 0xc3, 0xbd, 0x29, 0xdb, 0x14, 0x3d,
  0xf2, 0x8b, 0xf3, 0x3d, 0x85, 0xa9, 0x1a, 0xbb, 0xc4, 0x06, 0x29, 0xbe,
  0xee, 0xe2, 0xa8, 0x3f, 0x12, 0x8b, 0x4a, 0x3e, 0xf7, 0xff, 0x9c, 0x3f,
  0x1c, 0x02, 0x18, 0xbd, 0x2f, 0x43, 0xef, 0x3d, 0x93, 0x55, 0x1c, 0x3e,
  0x7e, 0x14, 0xe1, 0x3e, 0x06, 0x5d, 0x69, 0xbe, 0x18, 0xda, 0x09, 0xbf,
  0xdb, 0xf1, 0x74, 0x3f, 0xeb, 0x85, 0x94, 0xbe, 0x0d, 0x62, 0x43, 0x3f,
  0x12, 0xd6, 0x0d, 0x3d, 0xd4, 0x5d, 0x67, 0xbe, 0x33, 0xab, 0x06, 0x3d,
  0xfc, 0xa9, 0x2b, 0xbf, 0xac, 0x60, 0x98, 0xbe, 0xd4, 0xae, 0xa1, 0x41,
  0x65, 0x6f, 0x94, 0xbc, 0xeb, 0x31, 0x2b, 0x3e, 0x1e, 0x49, 0x89, 0x3f,
  0x82, 0x98, 0x86, 0x3f, 0x15, 0x31, 0xf8, 0xbe, 0x73, 0xe0, 0x63, 0xc0,
  0xda, 0x0a, 0x8d, 0xbe, 0xbc, 0x3d, 0x83, 0xbf, 0x84, 0x07, 0xe9, 0x3e,
  0x32, 0x9c, 0xe4, 0xbc, 0x0d, 0x8b, 0x28, 0xbe, 0xbe, 0x3b, 0x48, 0xbb,
  0x6a, 0x80, 0x5d, 0xbd, 0x40, 0xc5, 0x99, 0x3e, 0x13, 0x82, 0x37, 0xbe,
  0xd2, 0xb2, 0x26, 0x3f, 0x80, 0x21, 0xa1, 0x42, 0x39, 0x4b, 0xc2, 0x3d,
  0xf9, 0xa8, 0xdd, 0x3e, 0x43, 0xa5, 0x48, 0xbe, 0xed, 0x9f, 0x94, 0xbe,
  0x2c, 0x4f, 0xc2, 0x3d, 0xc8, 0xec, 0xb1, 0x3e, 0x08, 0x3f, 0xa0, 0x3d,
  0x62, 0xbd, 0x48, 0xbf, 0x52, 0x8f, 0xe6, 0xbc, 0x94, 0x68, 0xe2, 0xbc,
  0x58, 0x38, 0xc6, 0xbe, 0x52, 0xc4, 0x46, 0xbf, 0x02, 0x51, 0x35, 0xbe,
  0x39, 0x3f, 0xbb, 0xbe, 0xd0, 0x2e, 0x78, 0xbf, 0x7d, 0xc7, 0xa2, 0xbd,
  0x72, 0x0a, 0x59, 0xbd, 0xde, 0xae, 0xcf, 0x3c, 0x62, 0x32, 0x7d, 0x3e,
  0x40, 0x90, 0x1e, 0xbf, 0x7f, 0x4d, 0x44, 0x3d, 0x02, 0x30, 0xc1, 0xbc,
  0x3c, 0x72, 0x08, 0x3e, 0x28, 0x8f, 0xc7, 0xbd, 0x2b, 0x5e, 0x31, 0xbf,
  0x0d, 0x92, 0xa9, 0x3e, 0x9e, 0x9b, 0x3f, 0xbd, 0xf0, 0x28, 0x1b, 0xbe,
  0xf0, 0x17, 0x1d, 0xbf, 0xfc, 0x3f, 0x5f, 0xbf, 0xe5, 0xcf, 0xb1, 0xbd,
  0x72, 0x2a, 0xe9, 0xbf, 0x7f, 0xf3, 0xda, 0xbf, 0x6f, 0xd6, 0x91, 0xbd,
  0x2a, 0x95, 0x04, 0xbf, 0x35, 0xd5, 0xe9, 0xbe, 0x6a, 0xa5, 0x6c, 0xbe,
  0xc7, 0x3e, 0x15, 0x3f, 0x46, 0x27, 0x7c, 0xbd, 0xad, 0x5d, 0x99, 0xbe,
  0x15, 0x1b, 0x0c, 0x3f, 0x93, 0x78, 0x76, 0x3d, 0x27, 0x5b, 0xc1, 0x3e,
  0x13, 0x6a, 0x51, 0x3e, 0x01, 0x61, 0x93, 0xbf, 0xb7, 0x18, 0x15, 0x3f,
  0xce, 0xa6, 0x0c, 0xc2, 0xc8, 0x2e, 0x4d, 0x3e, 0x96, 0x38, 0x04, 0xbf,
  0xb9, 0xfe, 0x8d, 0x3e, 0x99, 0xe3, 0x18, 0x3f, 0x77, 0x81, 0x17, 0xc0,
  0x55, 0xc5, 0x0f, 0xbf, 0x7e, 0x98, 0xf9, 0xbe, 0x05, 0xae, 0x08, 0xbd,
  0x1b, 0x0a, 0x8a, 0x3f, 0xbe, 0xbb, 0xb6, 0x3e, 0xe4, 0xf8, 0x9a, 0xbd,
  0x54, 0xea, 0x34, 0x3e, 0x2e, 0xe8, 0x73, 0xbd, 0x66, 0x84, 0xee, 0xbd,
  0x87, 0x67, 0x0b, 0xbe, 0x51, 0x27, 0x5a, 0x3c, 0x42, 0x74, 0x85, 0xc2,
  0xf5, 0x0c, 0x6c, 0xbd, 0xff, 0xc2, 0xdd, 0x3e, 0x09, 0x41, 0xf2, 0xbe,
  0x55, 0xd2, 0xff, 0x3e, 0xe2, 0x64, 0xc9, 0xbe, 0x4d, 0xd9, 0x4b, 0xbf,
  0x22, 0x70, 0x0d, 0x3f, 0xf0, 0x6c, 0xc1, 0x3d, 0xef, 0x6f, 0x9b, 0x3e,
  0x9d, 0xb6, 0xdc, 0xbd, 0x28, 0x88, 0x94, 0x3f, 0xeb, 0x3c, 0xb7, 0xbd,
  0xf4, 0x51, 0xaa, 0x3e, 0x6a, 0xb2, 0x09, 0xbd, 0x83, 0x57, 0x69, 0xbf,
  0x43, 0x10, 0x04, 0x3f, 0xba, 0x62, 0x00, 0xbe, 0x28, 0xdb, 0xfe, 0x3d,
  0xef, 0x5f, 0x97, 0x3e, 0xe6, 0x90, 0x60, 0xbf, 0x3a, 0x56, 0x91, 0x3e,
  0x16, 0x8f, 0xb7, 0x3d, 0xd1, 0xdb, 0x28, 0xbd, 0xae, 0x8b, 0x96, 0xbd,
  0x5a, 0x3b, 0x93, 0xbc, 0xdf, 0xc8, 0x82, 0xbd, 0x6b, 0x65, 0xac, 0x3d,
  0x15, 0x78, 0xa2, 0xbd, 0xef, 0xc2, 0x5f, 0xbf, 0x14, 0x37, 0x6d, 0xbe,
  0x70, 0x09, 0x0f, 0xbe, 0xf6, 0x3b, 0x50, 0xbf, 0xbc, 0x7b, 0x9f, 0x3f,
  0x1f, 0x78, 0xa9, 0xbd, 0x8f, 0xa5, 0x98, 0x3e, 0x1d, 0x5e, 0xa7, 0x3f,
  0x76, 0x96, 0x5f, 0x3d, 0x72, 0xde, 0xfc, 0xbe, 0xc7, 0x17, 0x2e, 0xbf,
  0x50, 0x85, 0xda, 0x3e, 0x0f, 0xd8, 0x87, 0x3f, 0x3d, 0x6e, 0x5e, 0x3e,
  0x67, 0x14, 0xc7, 0x3c, 0x18, 0x3c, 0x83, 0xbd, 0x63, 0x87, 0x30, 0xbe,
  0x38, 0x8f, 0x1d, 0xbf, 0xc9, 0x10, 0x28, 0x42, 0xfb, 0x80, 0x5f, 0x3e,
  0x41, 0xd2, 0xee, 0x3e, 0xf9, 0x58, 0x15, 0x3f, 0xdc, 0x74, 0xe0, 0xbf,
  0x18, 0xfd, 0xe3, 0xbd, 0xe2, 0xde, 0x85, 0x3d, 0xc9, 0x1d, 0x8a, 0x3f,
  0xf7, 0xb6, 0x96, 0x3d, 0x7a, 0x74, 0xd0, 0xbf, 0xe0, 0x6d, 0xc4, 0x3e,
  0xdf, 0x54, 0x29, 0x3f, 0xb1, 0xa8, 0x4d, 0x3d, 0xe6, 0x02, 0xe0, 0xbd,
  0x61, 0x3e, 0x05, 0xbf, 0xe2, 0x20, 0xbf, 0x3e, 0x4a, 0x5c, 0x98, 0xbe,
  0xdc, 0x17, 0x1d, 0x42, 0x19, 0xfa, 0x2b, 0x3e, 0xa4, 0xbd, 0x8d, 0xbf,
  0x1a, 0xfb, 0xdb, 0xbe, 0xe6, 0xb3, 0x6e, 0xbe, 0x99, 0xbb, 0x90, 0x3d,
  0x3a, 0xba, 0x17, 0x3c, 0xfe, 0x7d, 0x5a, 0x3e, 0x5f, 0xf5, 0x02, 0x3f,
  0x66, 0xc7, 0x1f, 0x3e, 0x8d, 0x5b, 0x9c, 0xbe, 0x4c, 0x8c, 0xaf, 0xbe,
  0x10, 0x43, 0x0c, 0x3e, 0x30, 0xae, 0xe8, 0x3e, 0x68, 0xee, 0xdf, 0x3e,
  0x98, 0x2b, 0x09, 0xbf, 0xe9, 0xf3, 0x61, 0xbd, 0xba, 0x0f, 0x82, 0x3d,
  0x89, 0xdf, 0xa8, 0x3c, 0xf3, 0x30, 0x5f, 0x3e, 0xd2, 0xed, 0x3d, 0x3f,
  0xe0, 0xb0, 0x67, 0x3e, 0x73, 0x14, 0xc7, 0xbc, 0x58, 0xd9, 0x93, 0xbc,
  0x70, 0xef, 0x81, 0xbe, 0x53, 0x90, 0xf1, 0x3b, 0x3a, 0xaa, 0x36, 0xbe,
  0x25, 0x54, 0x1c, 0x3f, 0x1c, 0x51, 0x92, 0x3d, 0xb9, 0xbc, 0x81, 0x3e,
  0x69, 0x42, 0x9d, 0xbf, 0x82, 0x45, 0x55, 0xbe, 0xe2, 0x83, 0xba, 0xbe,
  0x4d, 0xe8, 0x11, 0xbf, 0xf9, 0x61, 0xec, 0xbd, 0xd1, 0x16, 0x90, 0xbc,
  0x97, 0x1f, 0xfa, 0xbf, 0x8a, 0xe9, 0x58, 0x3d, 0xe5, 0xfa, 0x6f, 0xbf,
  0xac, 0x3d, 0xea, 0xbd, 0x53, 0xba, 0xdb, 0xbe, 0x9e, 0xc9, 0xfb, 0x3e,
  0x8c, 0x96, 0xd3, 0x3d, 0x90, 0xd7, 0xf4, 0x3e, 0x50, 0x57, 0x30, 0xbd,
  0x50, 0xef, 0x28, 0x3f, 0xf2, 0xe0, 0xa5, 0xbe, 0xb4, 0x77, 0x20, 0x42,
  0x21, 0x65, 0x4a, 0x3e, 0xfa, 0xa6, 0xe4, 0x3d, 0x70, 0x3b, 0x2d, 0x3f,
  0xb6, 0x5c, 0x12, 0x3f, 0x68, 0x43, 0x7d, 0xbf, 0x16, 0x87, 0x96, 0x3e,
  0x50, 0xbc, 0x86, 0xbf, 0xf9, 0xc9, 0x73, 0x3e, 0xfd, 0xd7, 0x00, 0xc0,
  0x22, 0xdc, 0x4e, 0x3e, 0x8f, 0x41, 0xbc, 0xbd, 0x5a, 0x6c, 0x2b, 0xbe,
  0x42, 0xbb, 0xe6, 0xbd, 0x73, 0x76, 0x72, 0xbe, 0x1f, 0xe8, 0x5d, 0x3e,
  0x97, 0x18, 0x0b, 0x3e, 0xa1, 0xad, 0x2c, 0x43, 0xe7, 0x4e, 0xa3, 0x3d,
  0x15, 0x8f, 0xc4, 0xbe, 0x0f, 0x62, 0x05, 0xbf, 0xfa, 0x1b, 0x0c, 0xbf,
  0x88, 0x92, 0x55, 0xbd, 0xca, 0xdc, 0xfb, 0x3e, 0x09, 0x96, 0xe6, 0x3e,
  0x29, 0xc0, 0x96, 0x3e, 0x71, 0xbb, 0x4f, 0x3f, 0x35, 0x79, 0x8f, 0xbe,
  0xeb, 0xdc, 0x6b, 0x3e, 0x98, 0xf0, 0xb1, 0x40, 0xcb, 0x20, 0xc0, 0x3e,
  0x7e, 0x98, 0xb6, 0x3e, 0xa6, 0x4d, 0x25, 0x3e, 0xa5, 0x15, 0xa4, 0x3d,
  0x6e, 0xf0, 0xb2, 0xbc, 0x3d, 0xcd, 0x85, 0xc1, 0xa0, 0x01, 0x29, 0xbf,
  0x94, 0xe9, 0xec, 0xbf, 0x6e, 0xfb, 0x34, 0xbd, 0xba, 0xb7, 0xcf, 0x3b,
  0xad, 0x4b, 0xf6, 0xbe, 0x4a, 0xdb, 0x3b, 0xc1, 0xbd, 0xad, 0x26, 0x3e,
  0xb5, 0x32, 0x92, 0x41, 0x6e, 0xb0, 0x99, 0x3e, 0xd9, 0x5b, 0x35, 0x3e,
  0x31, 0xf7, 0xf0, 0x40, 0x60, 0x8c, 0x1c, 0x3f, 0xbc, 0xb8, 0x68, 0xbe,
  0xd2, 0x3b, 0xfa, 0x3f, 0x83, 0xa2, 0x1e, 0xc0, 0x01, 0x7a, 0x04, 0x3f,
  0x44, 0x99, 0x90, 0xbf, 0xd5, 0x10, 0x07, 0x3f, 0xb7, 0x63, 0x10, 0x40,
  0x40, 0x37, 0xdf, 0xbe, 0xeb, 0x6f, 0x80, 0xbf, 0xcd, 0xa8, 0x2d, 0x40,
  0x20, 0x0e, 0x78, 0xbe, 0x79, 0x4c, 0xfc, 0xc1, 0xf9, 0x64, 0x89, 0xbd,
  0x93, 0x3a, 0x88, 0xbf, 0xc8, 0xe3, 0xc8, 0xbf, 0x8f, 0xf4, 0x64, 0x40,
  0xb9, 0x2b, 0xfa, 0x3e, 0xd0, 0x9d, 0x64, 0xbe, 0xac, 0x7b, 0xa2, 0xbf,
  0x6a, 0x0b, 0x02, 0x3f, 0x11, 0x64, 0x04, 0xbd, 0x51, 0x14, 0xf2, 0xbf,
  0x09, 0x50, 0x1a, 0x40, 0x6a, 0xe4, 0x22, 0x3e, 0xb5, 0x43, 0x8d, 0xbc,
  0x1d, 0x0c, 0xce, 0xbf, 0x30, 0x1c, 0x2b, 0xbf, 0x12, 0x68, 0x25, 0x3c,
  0x29, 0xe3, 0xbc, 0x3d, 0xdd, 0x8c, 0x08, 0xbe, 0xf0, 0x26, 0xf8, 0x3f,
  0xcd, 0xe2, 0xa0, 0xbe, 0x44, 0xf1, 0x09, 0xbf, 0x44, 0xa9, 0x0f, 0x3f,
  0x8f, 0xd2, 0x4f, 0xbd, 0x34, 0xf2, 0x4a, 0xbe, 0x5d, 0xeb, 0x6f, 0xbf,
  0xd0, 0x42, 0xa0, 0xbe, 0xd2, 0xf5, 0x57, 0x3e, 0x81, 0x80, 0x2d, 0x40,
  0x5a, 0x18, 0x6c, 0xbc, 0xee, 0x9a, 0x3f, 0xbf, 0xf8, 0x6f, 0x84, 0x3d,
  0x9b, 0x7e, 0xc2, 0xbd, 0x85, 0x15, 0xc2, 0x3e, 0x34, 0x13, 0xa5, 0x40,
  0xa1, 0x6e, 0xff, 0x3f, 0x08, 0xcb, 0x0e, 0xbf, 0x98, 0xd3, 0x36, 0xbd,
  0x45, 0x62, 0x9d, 0x3f, 0x6b, 0x27, 0x85, 0xbe, 0xae, 0x70, 0x5f, 0xc1,
  0xcd, 0x7c, 0x81, 0xbf, 0x04, 0x52, 0x4f, 0xbf, 0x30, 0xe6, 0x01, 0x3f,
  0xdc, 0x32, 0xf2, 0xbd, 0x11, 0x07, 0xae, 0xbe, 0xb9, 0x27, 0x4f, 0xc1,
  0xac, 0x70, 0x9e, 0x3d, 0x8b, 0x69, 0x81, 0xc0, 0xb8, 0xce, 0x35, 0x3e,
  0x9b, 0x31, 0xc9, 0xbe, 0xae, 0x7e, 0xf1, 0x3f, 0x72, 0x63, 0x01, 0x3f,
  0xe4, 0x94, 0xb8, 0xbe, 0x21, 0xa1, 0xbf, 0x3f, 0x9f, 0xdd, 0xe9, 0x3f,
  0xb7, 0xc8, 0xe1, 0x3f, 0x4b, 0x21, 0x4b, 0x3e, 0xe5, 0x8c, 0x0e, 0x41,
  0x82, 0xe8, 0xa8, 0x3f, 0x4c, 0x63, 0x1a, 0xbf, 0xa5, 0x04, 0x1a, 0xbf,
  0x06, 0x66, 0x54, 0xbf, 0xea, 0x1f, 0x5e, 0x3f, 0x7d, 0x57, 0xee, 0xc1,
  0xf5, 0x1e, 0x95, 0xbe, 0xb2, 0xba, 0x31, 0xbe, 0xae, 0x52, 0x1e, 0x3f,
  0xdd, 0x37, 0x02, 0xbf, 0x28, 0xcb, 0x51, 0x42, 0x67, 0x90, 0x6b, 0xbf,
  0x2f, 0x9d, 0xce, 0x3a, 0xef, 0xd4, 0xbf, 0x3e, 0x3e, 0xc5, 0x2e, 0x3f,
  0x60, 0x89, 0xc0, 0xbf, 0x77, 0x62, 0x90, 0x41, 0xe4, 0x36, 0xa5, 0xbf,
  0x96, 0x6c, 0x2e, 0x3f, 0x03, 0xc3, 0xab, 0x3f, 0xd4, 0xb5, 0x81, 0xbf,
  0xb1, 0xa5, 0x94, 0xbd, 0xb5, 0x2c, 0x04, 0xbe, 0x76, 0x77, 0x88, 0xbe,
  0x13, 0x94, 0xf0, 0xbe, 0x79, 0xa8, 0xe0, 0x3c, 0x64, 0x32, 0x00, 0x40,
  0x8f, 0x7f, 0x75, 0x43, 0xad, 0x63, 0x33, 0x3a, 0xb2, 0x73, 0x3b, 0xbf,
  0x1e, 0x3a, 0xfc, 0x3c, 0x6f, 0x8c, 0x20, 0x3e, 0x1e, 0xe1, 0xdf, 0xbe,
  0x67, 0xab, 0x3a, 0x3f, 0x46, 0xa9, 0x80, 0xbe, 0x6a, 0x17, 0x08, 0xbf,
  0xa9, 0x01, 0xcd, 0x3e, 0x75, 0xb8, 0x40, 0xbe, 0x4d, 0xd0, 0xd0, 0xbf,
  0x1a, 0xe5, 0x8c, 0x40, 0xc4, 0x21, 0xd2, 0x3e, 0xdf, 0x68, 0x8b, 0x3b,
  0x23, 0xc0, 0x90, 0x3d, 0xf7, 0x68, 0x4b, 0xbe, 0xf8, 0xa4, 0x99, 0xbe,
  0x37, 0x04, 0x66, 0xc1, 0x10, 0x41, 0x43, 0xbf, 0x9d, 0x86, 0x8e, 0xbf,
  0x08, 0xf0, 0x66, 0x3e, 0x9f, 0x3b, 0x2c, 0xbe, 0xf1, 0x16, 0xbb, 0xbe,
  0x9a, 0x86, 0xf2, 0xc0, 0x76, 0xe7, 0x8f, 0x3b, 0x14, 0xf8, 0x0e, 0xbf,
  0x93, 0xce, 0x0f, 0xbe, 0x99, 0xbf, 0x8f, 0xbe, 0xa8, 0xb8, 0x8a, 0xc1,
  0xcf, 0x26, 0x6d, 0xbe, 0xb8, 0x04, 0x3f, 0xbe, 0x49, 0x17, 0x48, 0x40,
  0xb1, 0x4a, 0x7b, 0x3d, 0xe9, 0xf3, 0x72, 0x40, 0xfb, 0x81, 0x06, 0xbf,
  0x38, 0x40, 0xa3, 0x3d, 0xf4, 0x8e, 0xd6, 0xbc, 0x39, 0xe1, 0x93, 0xbf,
  0xf2, 0x21, 0xe0, 0x3e, 0xbe, 0x66, 0x26, 0xc0, 0x3f, 0x4c, 0x91, 0xbd,
  0xce, 0x4d, 0xf6, 0xc1, 0xf0, 0x9e, 0x3e, 0x3d, 0x85, 0x56, 0xb0, 0x3d,
  0x27, 0x59, 0xcd, 0xbe, 0xae, 0x35, 0xce, 0xbf, 0xd0, 0x56, 0xf1, 0x3f,
  0x0a, 0x1f, 0xb3, 0xbd, 0xbf, 0x7f, 0x46, 0xbf, 0x80, 0x72, 0x1a, 0x3f,
  0x94, 0x22, 0xb8, 0xbe, 0x6b, 0x38, 0x43, 0xbf, 0x68, 0x22, 0x0d, 0xbf,
  0xbb, 0xa5, 0xcf, 0x3f, 0x95, 0x45, 0x08, 0xbe, 0x6b, 0x73, 0x26, 0xbe,
  0x77, 0x85, 0x71, 0xbf, 0x10, 0xa4, 0x95, 0x3b, 0xa2, 0x1e, 0x43, 0xbe,
  0x5d, 0x47, 0x91, 0xbd, 0x2b, 0x45, 0x40, 0x41, 0x2a, 0x62, 0x6a, 0x3e,
  0xa8, 0xb8, 0xd1, 0x3f, 0xfc, 0x94, 0xed, 0xc1, 0xe3, 0x41, 0x11, 0xbc,
  0x7b, 0xb5, 0xa3, 0x3f, 0x4e, 0xc2, 0x44, 0x3d, 0xfe, 0xd7, 0xe1, 0x3e,
  0xfd, 0xbb, 0xfc, 0xbc, 0x07, 0x6c, 0xac, 0xbf, 0x05, 0x89, 0xf1, 0x3d,
  0x12, 0xd7, 0x80, 0xbe, 0xbe, 0xf2, 0xff, 0xff, 0x04, 0x00, 0x00, 0x00,
  0x00, 0x09, 0x00, 0x00, 0x9a, 0xfb, 0x25, 0x3d, 0x26, 0x98, 0xfa, 0xbb,
  0x56, 0xa0, 0xa0, 0xba, 0x77, 0x43, 0x47, 0x3b, 0xf6, 0x5f, 0x3b, 0x3c,
  0x2b, 0xbd, 0xfb, 0x3a, 0x9d, 0x86, 0xec, 0xbd, 0x4d, 0xcc, 0x0c, 0xbe,
  0x38, 0x05, 0xc0, 0xbd, 0x36, 0xcc, 0x22, 0xbd, 0x2f, 0xb3, 0xa9, 0xbd,
  0x84, 0x2a, 0xab, 0xbd, 0x08, 0xe2, 0x0c, 0x3c, 0xa7, 0x51, 0x0b, 0xbd,
  0x2b, 0xec, 0x91, 0xbc, 0x14, 0x62, 0xb9, 0x3d, 0x26, 0xfd, 0x8a, 0xbb,
  0x7f, 0xcf, 0x9e, 0xbb, 0x2e, 0xf1, 0x3e, 0xbc, 0xfc, 0x01, 0x96, 0x3c,
  0x28, 0x8e, 0x08, 0xbd, 0x42, 0x57, 0x14, 0x3d, 0xb4, 0xf3, 0xab, 0xba,
  0x38, 0xad, 0x25, 0x3d, 0x44, 0xb3, 0x53, 0x3c, 0x0f, 0x01, 0x75, 0x3d,
  0xfb, 0x38, 0x1e, 0x3d, 0x68, 0xda, 0x8e, 0x3c, 0x40, 0x53, 0x44, 0x3c,
  0xb3, 0xd7, 0x8b, 0x3c, 0x34, 0x71, 0xc0, 0xbb, 0x64, 0x11, 0x35, 0x3c,
  0xc4, 0xc7, 0xdc, 0xbc, 0x98, 0x2b, 0xe6, 0x3b, 0xb7, 0xee, 0x41, 0x3b,
  0xe9, 0xcd, 0xfa, 0x3c, 0x69, 0x7d, 0xd4, 0xbb, 0xc2, 0xcc, 0x25, 0x3d,
  0x51, 0xe1, 0xdb, 0xbb, 0x96, 0xc0, 0x6f, 0x3c, 0x2d, 0x06, 0x13, 0xbc,
  0xcb, 0xd3, 0xd9, 0x3c, 0x9c, 0x22, 0x71, 0xbc, 0x26, 0x23, 0x41, 0xbd,
  0xb5, 0xc7, 0x48, 0xbc, 0xf9, 0xf1, 0x96, 0xbd, 0x7c, 0x16, 0x32, 0xbd,
  0xae, 0xc6, 0x52, 0xbd, 0x97, 0x61, 0x68, 0xbd, 0xfc, 0x62, 0x68, 0xbc,
  0x16, 0xf6, 0xea, 0x3d, 0xb7, 0x12, 0xa6, 0xbd, 0x2c, 0x2e, 0xf8, 0xbc,
  0x9a, 0xfa, 0x15, 0x3e, 0x5b, 0x6b, 0x99, 0x3d, 0x30, 0xfe, 0x15, 0x3d,
  0x66, 0xbb, 0x59, 0x3d, 0x26, 0xe2, 0xb1, 0xbc, 0x2e, 0x8a, 0x29, 0x3d,
  0x12, 0xf1, 0x23, 0x3b, 0x95, 0xbc, 0x0f, 0xbe, 0x7a, 0xe9, 0x12, 0xbe,
  0x52, 0xd0, 0x85, 0xbd, 0x30, 0xb3, 0x4f, 0x3e, 0x35, 0x78, 0x1b, 0xbb,
  0x80, 0x72, 0x73, 0xba, 0x44, 0xbe, 0x2b, 0xbd, 0xef, 0x8f, 0x70, 0x3c,
  0x22, 0x40, 0xe0, 0x3c, 0x4b, 0x33, 0x49, 0xbe, 0x4e, 0x28, 0xa6, 0xbc,
  0xb0, 0xbb, 0xd8, 0xbc, 0xc5, 0xc4, 0x03, 0x3e, 0xd6, 0x39, 0xe5, 0xbc,
  0x38, 0x88, 0x55, 0xbc, 0xe8, 0xfd, 0x6e, 0x3d, 0xd7, 0x78, 0xa0, 0xbc,
  0xb3, 0xdd, 0xaf, 0x3c, 0x12, 0xff, 0x54, 0x3d, 0x9a, 0xc5, 0xba, 0xbd,
  0xbb, 0x25, 0x76, 0x3d, 0x14, 0x09, 0xd2, 0x3a, 0x1d, 0x36, 0x3f, 0xba,
  0x10, 0x13, 0x90, 0xbe, 0xae, 0x39, 0x2b, 0xbb, 0x51, 0xd0, 0x10, 0x3b,
  0x50, 0x8d, 0x37, 0x3b, 0xbc, 0x69, 0xfe, 0x3a, 0xbf, 0x23, 0x49, 0xbb,
  0x7d, 0x3f, 0x9d, 0x3e, 0xd7, 0x1d, 0x76, 0x3d, 0xf7, 0xcc, 0x96, 0xbd,
  0x90, 0x40, 0x89, 0x3d, 0x55, 0x47, 0x59, 0x3c, 0x38, 0x54, 0xe0, 0x3c,
  0x52, 0xa2, 0x9c, 0xbc, 0x3d, 0x4c, 0xa2, 0xbd, 0x38, 0x88, 0xea, 0x3d,
  0x44, 0x42, 0x6f, 0xbd, 0x94, 0x29, 0xa8, 0x3c, 0x0e, 0x87, 0xaa, 0xbc,
  0xb9, 0x4b, 0x4a, 0xbd, 0xa5, 0x1a, 0x91, 0xbc, 0x4b, 0x14, 0x0f, 0x3c,
  0xf9, 0xaf, 0x39, 0xbc, 0xbb, 0x93, 0xe5, 0x3d, 0xa3, 0x33, 0xd9, 0x3c,
  0x72, 0x53, 0x02, 0xbc, 0x22, 0x15, 0x2c, 0xbb, 0x86, 0x27, 0x4b, 0xba,
  0x9b, 0xd9, 0x5d, 0x3c, 0xc1, 0xcb, 0x2d, 0x3c, 0x5b, 0x0e, 0x07, 0xbc,
  0x1d, 0xf2, 0xb9, 0x3b, 0x3f, 0xff, 0x64, 0x3d, 0x99, 0x16, 0xda, 0x3d,
  0x14, 0x45, 0x8e, 0x3c, 0x03, 0x82, 0x24, 0x3e, 0xdc, 0xae, 0x9a, 0x3e,
  0x0d, 0x05, 0x98, 0x3e, 0x04, 0x70, 0x62, 0xbe, 0x3b, 0xcb, 0x4e, 0x3e,
  0xf9, 0x89, 0xf6, 0xbd, 0xa1, 0x43, 0xb6, 0xbe, 0x89, 0xa6, 0x1a, 0x3c,
  0xb1, 0x9d, 0x6d, 0x3b, 0x98, 0xa4, 0x46, 0x3e, 0xbc, 0x29, 0x65, 0x3d,
  0x6e, 0x6e, 0x2e, 0x3e, 0xc3, 0x2a, 0x95, 0xbc, 0x6e, 0xe2, 0xfc, 0x3c,
  0xcc, 0x20, 0x14, 0xbd, 0xdf, 0x14, 0x74, 0xbe, 0xb5, 0x9d, 0xcf, 0xbd,
  0x3e, 0x45, 0x6a, 0xbe, 0x66, 0xde, 0xb0, 0x3a, 0x82, 0x25, 0xfc, 0xbd,
  0xee, 0x98, 0x46, 0x3b, 0xbf, 0x22, 0xf0, 0x3a, 0x6b, 0xb4, 0x49, 0xbb,
  0xea, 0x34, 0x83, 0xbb, 0xd7, 0x33, 0xca, 0xb9, 0x0f, 0x05, 0x38, 0x3e,
  0xa9, 0x2f, 0x88, 0xb7, 0xf9, 0x8e, 0xdf, 0xbc, 0x54, 0x43, 0x19, 0xbc,
  0x7a, 0x8c, 0xdd, 0x3e, 0x10, 0x59, 0xbf, 0x3d, 0xc4, 0xe3, 0x85, 0x3d,
  0x5f, 0x7d, 0xf7, 0xbd, 0xa5, 0x66, 0xaf, 0xbd, 0xbe, 0x43, 0x50, 0xbd,
  0x8e, 0x69, 0xc2, 0xbe, 0x66, 0x4d, 0x2c, 0x3b, 0xf1, 0xc3, 0x72, 0x39,
  0x33, 0xbe, 0xc2, 0xbc, 0x72, 0x10, 0xce, 0xbb, 0x9e, 0x1c, 0x79, 0xba,
  0x30, 0x7e, 0x3e, 0x3d, 0xac, 0xe7, 0x70, 0x3b, 0xf0, 0xa6, 0x72, 0x3a,
  0x5d, 0xc6, 0xb6, 0xbc, 0xb7, 0x2c, 0xa2, 0x3d, 0xd0, 0xf7, 0xa8, 0x3d,
  0x1e, 0x5f, 0x33, 0x3d, 0xf4, 0xac, 0xfc, 0x3c, 0x6e, 0x41, 0xb6, 0xbc,
  0xef, 0xc0, 0xa6, 0xbb, 0x5d, 0x35, 0x44, 0xbe, 0x23, 0x55, 0x3e, 0xbe,
  0xd4, 0x7c, 0x29, 0xbd, 0x30, 0x0f, 0xb8, 0xbe, 0x6c, 0xc3, 0x5d, 0x3d,
  0x6c, 0x32, 0x4e, 0xbe, 0x70, 0x95, 0x1d, 0x3e, 0xf1, 0xc6, 0x5b, 0xbe,
  0x27, 0xab, 0x1f, 0x3e, 0x55, 0xd7, 0x97, 0x3e, 0x1f, 0xe7, 0x86, 0x3d,
  0x48, 0xcd, 0x2d, 0x3e, 0x6d, 0x16, 0x63, 0x39, 0x70, 0x17, 0x8c, 0xbc,
  0x26, 0x2a, 0x69, 0xbd, 0x0f, 0x22, 0xcd, 0xbc, 0xde, 0x5d, 0x08, 0x3d,
  0xab, 0x80, 0x83, 0xbc, 0x40, 0x7a, 0xc1, 0x3b, 0xaf, 0x0b, 0x90, 0xbc,
  0x2a, 0x4f, 0xa8, 0x3b, 0x49, 0xc6, 0xdb, 0xbc, 0x08, 0xd5, 0x2a, 0xbd,
  0xc7, 0x1d, 0x38, 0x3c, 0x9a, 0xef, 0x59, 0x3d, 0xae, 0x1c, 0xf7, 0xbc,
  0x7b, 0x63, 0x0e, 0xbc, 0x03, 0x02, 0x7f, 0xbd, 0xb3, 0x83, 0x91, 0xbc,
  0x5f, 0xaf, 0x39, 0xbd, 0xed, 0xe4, 0x4c, 0xbd, 0xae, 0xfa, 0x69, 0xbd,
  0xf5, 0xa7, 0x4a, 0xbd, 0xb0, 0xed, 0x05, 0x3d, 0x20, 0x16, 0x90, 0x3d,
  0x7a, 0x07, 0xa2, 0x3c, 0x95, 0x16, 0x96, 0xbc, 0xeb, 0xd6, 0x06, 0xbd,
  0x80, 0x17, 0xea, 0xbc, 0x2e, 0x1e, 0xf8, 0x3c, 0xc5, 0xc2, 0x97, 0x3c,
  0xf2, 0xd4, 0xf6, 0x3c, 0x59, 0x2a, 0x0b, 0xbc, 0x27, 0xe3, 0x03, 0xbc,
  0xac, 0x6b, 0xa7, 0xbb, 0x3a, 0x20, 0x84, 0x3c, 0x76, 0xca, 0xb8, 0x3c,
  0x82, 0x1a, 0x80, 0x3b, 0x2e, 0x79, 0xb0, 0x3c, 0xe9, 0x4e, 0xb5, 0xbb,
  0x37, 0x30, 0xb8, 0x3c, 0xef, 0xb1, 0xc2, 0x3c, 0x10, 0x2d, 0x91, 0xba,
  0xc0, 0x98, 0x3d, 0xbc, 0x1f, 0xa8, 0xa0, 0x3c, 0x2d, 0x41, 0x3b, 0xbd,
  0x83, 0x8b, 0xf0, 0x3c, 0x24, 0xbc, 0x0e, 0xbd, 0xa8, 0x30, 0xc2, 0xbb,
  0x53, 0x0f, 0x81, 0xbb, 0xb5, 0xe2, 0x89, 0x3b, 0xed, 0xe5, 0x62, 0xbb,
  0xcd, 0xb7, 0x84, 0xbb, 0x5a, 0x1d, 0xe8, 0x3c, 0x3e, 0xe9, 0xdc, 0x3b,
  0xb7, 0xff, 0xa7, 0x3b, 0x9f, 0xa6, 0x43, 0xba, 0x41, 0x3d, 0x1b, 0xbb,
  0x7f, 0xd2, 0x8d, 0x3b, 0x3e, 0x0e, 0x8d, 0xbc, 0x78, 0xff, 0x22, 0xbc,
  0x46, 0xb9, 0x7a, 0x3b, 0x26, 0xa4, 0xb8, 0xbc, 0x87, 0x8e, 0xf8, 0x3a,
  0xe9, 0xed, 0xf7, 0x3b, 0x7e, 0x44, 0x12, 0x3d, 0xda, 0x20, 0x05, 0x3b,
  0x91, 0x1f, 0xe9, 0x3c, 0x89, 0x33, 0xd4, 0x3c, 0x36, 0x47, 0xd7, 0xbb,
  0xd1, 0xca, 0xb8, 0xbc, 0x81, 0xbf, 0x6d, 0xbd, 0x9f, 0x71, 0xd7, 0x3b,
  0x3d, 0x2c, 0x25, 0xbc, 0x3c, 0x2c, 0x52, 0x3c, 0xb9, 0x3f, 0x0c, 0x3c,
  0x4a, 0x2b, 0x85, 0xbe, 0xa7, 0x58, 0x1e, 0xbc, 0x18, 0xc1, 0xb3, 0xbb,
  0x3d, 0x53, 0x0e, 0x3d, 0x5d, 0x32, 0xa1, 0x3b, 0x1e, 0xe8, 0x19, 0x3c,
  0x03, 0x5c, 0x93, 0x3e, 0xb9, 0x53, 0xce, 0x3c, 0xac, 0x4f, 0xf7, 0x3c,
  0xc5, 0x4d, 0x8a, 0x3c, 0x30, 0xa6, 0x0b, 0x3c, 0x14, 0x77, 0x71, 0x3c,
  0x8e, 0xfc, 0x96, 0x3c, 0x68, 0xfb, 0xc0, 0xbc, 0xa7, 0xad, 0xb0, 0xbb,
  0x80, 0xf4, 0xa3, 0xba, 0x46, 0xf6, 0x89, 0xbd, 0xe5, 0x96, 0x6a, 0xbd,
  0xe3, 0x53, 0xea, 0xbc, 0x1e, 0xf6, 0xf6, 0xbb, 0xfe, 0x3e, 0x42, 0x3c,
  0x90, 0x46, 0x15, 0xbc, 0xf8, 0x20, 0x10, 0x3c, 0x30, 0xde, 0xe7, 0xbc,
  0x5a, 0xa2, 0x8b, 0x3c, 0xf5, 0xbb, 0xbd, 0x3d, 0x3d, 0xde, 0xdd, 0x3d,
  0xc8, 0xf9, 0x22, 0xbd, 0x72, 0x19, 0xd5, 0xbd, 0xd9, 0xff, 0x87, 0x3b,
  0xe2, 0x60, 0x45, 0xbd, 0x1b, 0x46, 0xee, 0x3c, 0x7a, 0xe6, 0xfd, 0xbc,
  0xd2, 0xf9, 0x02, 0xbc, 0x2e, 0xad, 0x15, 0x3c, 0x07, 0x05, 0x7e, 0x3d,
  0x9b, 0x9f, 0xac, 0x3c, 0x5f, 0x6a, 0xa8, 0xbc, 0xd8, 0xa3, 0xbe, 0x3c,
  0xe5, 0xa6, 0x65, 0xbc, 0xeb, 0xd9, 0xad, 0x3b, 0x58, 0x8a, 0x30, 0xbc,
  0x43, 0x4d, 0x82, 0x3c, 0x76, 0x69, 0xb3, 0xb8, 0xc9, 0x3f, 0x48, 0xbe,
  0x32, 0x52, 0x69, 0xb6, 0x06, 0x6d, 0x14, 0xba, 0x36, 0x3b, 0x97, 0x3a,
  0x6d, 0x6b, 0x27, 0xb9, 0x0b, 0x6a, 0xe0, 0x39, 0x39, 0x33, 0x5b, 0x3e,
  0x7a, 0xe4, 0x75, 0x3a, 0x6b, 0xa2, 0x24, 0x3d, 0x04, 0x0f, 0xbd, 0xbc,
  0xcb, 0xd5, 0xd6, 0xbb, 0x65, 0x05, 0x46, 0x3d, 0xdf, 0xd5, 0xad, 0xbc,
  0xda, 0x7e, 0xe8, 0x3b, 0x5a, 0x27, 0x78, 0x3d, 0x45, 0x15, 0x2f, 0xbe,
  0x3e, 0xcf, 0x0f, 0xbc, 0x29, 0xce, 0x70, 0x3b, 0x76, 0xf8, 0xba, 0xbc,
  0xa8, 0x32, 0xde, 0x3d, 0x07, 0x3c, 0x9d, 0xbd, 0xc6, 0xf2, 0x24, 0x3c,
  0x63, 0xb0, 0xa4, 0x3c, 0x04, 0x4f, 0xd0, 0xbd, 0x27, 0x83, 0x16, 0x3c,
  0xcf, 0x63, 0x92, 0x3a, 0x24, 0x9a, 0xcb, 0x3c, 0xde, 0xaa, 0xb4, 0xbc,
  0x48, 0xcb, 0x6f, 0x3d, 0xe0, 0x6a, 0x3c, 0x3a, 0xfc, 0x12, 0x97, 0x3b,
  0x8c, 0xb6, 0xc3, 0xbc, 0xd0, 0x04, 0x1f, 0x38, 0xf7, 0x85, 0x97, 0xbc,
  0x5c, 0x56, 0x08, 0x3e, 0x99, 0xcc, 0x9c, 0x3c, 0x61, 0xcb, 0x37, 0xbc,
  0x58, 0x92, 0xf7, 0xbd, 0xf0, 0x11, 0x4c, 0x3b, 0xf9, 0xcc, 0x07, 0x3d,
  0xfe, 0x25, 0xc1, 0x3c, 0xda, 0x12, 0x3d, 0xbc, 0xe5, 0x21, 0x0c, 0xbd,
  0xe6, 0xf4, 0x03, 0x3e, 0x78, 0x31, 0x82, 0x3d, 0x82, 0x5e, 0xcd, 0x39,
  0x39, 0x9d, 0x00, 0xb7, 0xcd, 0xdd, 0x87, 0xbb, 0x27, 0xf9, 0x56, 0x3a,
  0xd2, 0xba, 0xaf, 0x3a, 0x78, 0xd5, 0x80, 0xbd, 0xf1, 0xef, 0x50, 0xba,
  0x0a, 0x37, 0xa8, 0xba, 0x4b, 0x10, 0xf5, 0x3c, 0xca, 0xda, 0x71, 0xbc,
  0x8f, 0x57, 0x61, 0xbc, 0x68, 0x85, 0x1d, 0xbd, 0x7f, 0xea, 0x91, 0x3d,
  0xdf, 0x7e, 0x35, 0xbb, 0xe6, 0x9f, 0x3f, 0x3d, 0x62, 0x1d, 0x55, 0x3d,
  0x7f, 0xd1, 0x21, 0x3d, 0xc4, 0x5e, 0x54, 0xbd, 0xa2, 0x39, 0xa4, 0xbb,
  0xd2, 0xc0, 0xe3, 0xbd, 0x8b, 0x48, 0x78, 0xbd, 0xc1, 0x90, 0x21, 0xba,
  0x61, 0xaf, 0x7b, 0x3d, 0xb9, 0x61, 0xba, 0x3d, 0xcb, 0x2b, 0x90, 0x3c,
  0xe0, 0x0a, 0xbb, 0xbd, 0x90, 0xb7, 0x8e, 0x3c, 0x4c, 0xee, 0x8a, 0x3c,
  0xea, 0x3d, 0x25, 0x3c, 0xf5, 0xb3, 0x0a, 0xbc, 0x7a, 0xc8, 0xb3, 0xbb,
  0x95, 0x36, 0x42, 0xb9, 0x9a, 0xb3, 0x4a, 0xbc, 0x04, 0x67, 0x95, 0xbb,
  0x73, 0x88, 0x28, 0x3b, 0x55, 0x00, 0xbb, 0x3b, 0x59, 0x2a, 0x07, 0x3d,
  0x2c, 0xe7, 0x62, 0x3d, 0x0f, 0x12, 0x0e, 0x3c, 0x42, 0x84, 0xe6, 0x3a,
  0x15, 0xe0, 0xb9, 0xbc, 0x88, 0x87, 0x43, 0xbc, 0x14, 0xf5, 0x8c, 0xbd,
  0xed, 0x46, 0x8d, 0xbd, 0x80, 0x65, 0x70, 0x3c, 0xd9, 0xa4, 0x6d, 0x3c,
  0xe1, 0xb3, 0xec, 0x3c, 0xd2, 0x65, 0xe6, 0x3c, 0x0d, 0x20, 0xa9, 0x39,
  0xd7, 0x93, 0x9b, 0xbc, 0x86, 0xdd, 0xd7, 0xbc, 0x16, 0x8f, 0x2c, 0xbd,
  0xd1, 0x1d, 0x56, 0xbd, 0xc0, 0xb9, 0x22, 0xbb, 0x29, 0xcf, 0x3a, 0xba,
  0xe6, 0xd6, 0xc6, 0xba, 0x45, 0x1f, 0xac, 0x3c, 0x4c, 0xee, 0x7b, 0x3b,
  0x53, 0x88, 0x4f, 0x3c, 0xc2, 0xaa, 0x91, 0xbc, 0xf0, 0x9b, 0x41, 0xbb,
  0x7c, 0xe0, 0x2c, 0xbc, 0x4d, 0x91, 0xfc, 0xbc, 0xb1, 0x86, 0x33, 0xbc,
  0x7d, 0xe0, 0xb1, 0xbc, 0xc7, 0x8e, 0x12, 0xbd, 0x0c, 0xa2, 0x0a, 0x3c,
  0xb7, 0x10, 0x27, 0x3d, 0xc4, 0x3a, 0xbb, 0xbd, 0xf6, 0x9d, 0x95, 0xbd,
  0x74, 0xae, 0xd0, 0xbc, 0xcb, 0x52, 0x85, 0x3d, 0xe4, 0xe7, 0x60, 0x3d,
  0xf1, 0xfd, 0x86, 0x3c, 0xb6, 0x39, 0x39, 0xbb, 0x57, 0x88, 0x69, 0x3c,
  0xb2, 0xff, 0x23, 0xbc, 0xcf, 0x16, 0x81, 0xbd, 0x2e, 0xf5, 0x8c, 0xbd,
  0x23, 0x5f, 0xd1, 0xbc, 0x43, 0xe1, 0x90, 0xbc, 0x12, 0x83, 0x9d, 0xbb,
  0x7d, 0xcf, 0xaa, 0x3b, 0x94, 0x14, 0x07, 0x3d, 0x14, 0xe8, 0xe3, 0xb9,
  0x73, 0x4c, 0x0f, 0xbb, 0x34, 0x74, 0x7d, 0x3b, 0xc4, 0xec, 0x9b, 0xbb,
  0x18, 0xf2, 0x38, 0xbc, 0x22, 0x4f, 0x35, 0x3d, 0x28, 0x45, 0x8e, 0x3c,
  0x50, 0x80, 0x74, 0xbb, 0xd4, 0x37, 0x77, 0xbc, 0x13, 0x30, 0x37, 0x3d,
  0x8d, 0xe2, 0xb0, 0xba, 0xd9, 0x20, 0xf0, 0xbc, 0x08, 0xae, 0x96, 0x3d,
  0x43, 0xc5, 0xa6, 0xbd, 0x96, 0xdd, 0x43, 0xbe, 0x01, 0x58, 0x13, 0xbe,
  0x17, 0xa9, 0xae, 0xbd, 0x49, 0x4b, 0x41, 0x3d, 0x10, 0x81, 0x9d, 0xbb,
  0xc1, 0x2d, 0x39, 0xbd, 0x64, 0x23, 0x73, 0xbe, 0xa3, 0x38, 0xa4, 0xbd,
  0xee, 0xba, 0x1d, 0xbc, 0x3b, 0x83, 0x4a, 0x3d, 0x51, 0x7c, 0xec, 0xbc,
  0xf9, 0x30, 0x02, 0x3e, 0xb4, 0x21, 0x36, 0x3d, 0xe2, 0x73, 0x74, 0x3d,
  0x70, 0x0f, 0x04, 0xbd, 0xc5, 0x22, 0x84, 0x3d, 0x7c, 0xe6, 0x40, 0xbc,
  0x79, 0x84, 0x60, 0x3d, 0x74, 0x6a, 0x96, 0xbd, 0x31, 0x03, 0x32, 0xbd,
  0x91, 0xd9, 0x66, 0xbd, 0x3a, 0x0a, 0x5c, 0x3d, 0xd5, 0x7e, 0x7a, 0x3d,
  0xff, 0x74, 0x0e, 0x3c, 0x87, 0x5c, 0x80, 0x3d, 0x1a, 0x07, 0x95, 0xbc,
  0x1b, 0x8b, 0x8a, 0x3d, 0xe5, 0xfb, 0x9d, 0xbc, 0x70, 0x0c, 0xff, 0xbc,
  0x90, 0x77, 0x43, 0x3d, 0x8c, 0xc4, 0x75, 0xbc, 0x7c, 0x84, 0xee, 0xbc,
  0x95, 0x9e, 0x25, 0xbc, 0x96, 0xac, 0x47, 0xbc, 0xb6, 0x68, 0x3a, 0xbd,
  0x87, 0x3c, 0x82, 0x3b, 0xf9, 0x76, 0xa6, 0x3c, 0xef, 0x58, 0x0e, 0x3d,
  0x3a, 0x1b, 0x6a, 0x3d, 0x96, 0x89, 0xcb, 0xbc, 0x65, 0x12, 0xc4, 0x3d,
  0x01, 0x66, 0x77, 0xbc, 0x2e, 0x3d, 0x14, 0xbd, 0xa1, 0xef, 0xb9, 0x3d,
  0xbb, 0x82, 0xe7, 0x3b, 0x6a, 0x9a, 0x75, 0xbd, 0x46, 0x65, 0xc4, 0xbd,
  0xe5, 0xb6, 0x39, 0xbd, 0xb1, 0x6c, 0xae, 0x3c, 0xb4, 0xb4, 0x5d, 0x3c,
  0xb8, 0xe1, 0xcb, 0x3c, 0x43, 0x62, 0xe6, 0x3c, 0xfe, 0xc6, 0x04, 0x3e,
  0x9d, 0x13, 0x9f, 0x3d, 0x24, 0xe5, 0x20, 0xb7, 0x7b, 0x9e, 0xdb, 0x39,
  0x57, 0x72, 0xe5, 0x3b, 0xac, 0xe8, 0x8d, 0x3a, 0xc9, 0xa7, 0x2d, 0xb9,
  0x6a, 0x0f, 0x90, 0xb8, 0x56, 0x55, 0x11, 0xbb, 0x09, 0xf5, 0x76, 0xba,
  0xd3, 0x36, 0xd7, 0xbb, 0xa8, 0xa0, 0x30, 0xbd, 0x84, 0x33, 0x85, 0xbd,
  0x52, 0xc1, 0x0e, 0x3c, 0xfd, 0xff, 0x13, 0x3d, 0xb0, 0x92, 0xd3, 0xba,
  0xe2, 0xa2, 0xbc, 0x3c, 0xcb, 0x27, 0xca, 0x3c, 0xeb, 0x48, 0x24, 0x3d,
  0x86, 0x73, 0xe0, 0x3c, 0xd5, 0x26, 0x75, 0xbb, 0xf3, 0xca, 0x52, 0xbd,
  0x6f, 0xfa, 0xdc, 0xbc, 0x52, 0x2e, 0xdc, 0xb9, 0x20, 0xe9, 0x82, 0x3c,
  0x4f, 0x61, 0x19, 0x3d, 0xe3, 0x4e, 0xb5, 0xbc, 0x26, 0x24, 0x2f, 0x3d,
  0x2e, 0x2e, 0x11, 0xbd, 0xe2, 0xb9, 0xca, 0x3d, 0x1b, 0x67, 0x38, 0x3c,
  0x35, 0x46, 0xe3, 0x3c, 0xec, 0x41, 0x12, 0xbd, 0x2a, 0x76, 0x8a, 0x3c,
  0x6a, 0x26, 0x87, 0x3b, 0xd5, 0xbd, 0x4b, 0xbd, 0xc6, 0xfd, 0xda, 0xbb,
  0xf6, 0x23, 0xca, 0xbc, 0x74, 0x5b, 0x7c, 0xbe, 0x06, 0x0e, 0x40, 0xbe,
  0x84, 0xce, 0x23, 0xbe, 0xb7, 0xbd, 0xde, 0x3c, 0x1f, 0xb0, 0x0b, 0x3d,
  0x43, 0x3d, 0x85, 0x3c, 0x74, 0x75, 0x19, 0xbc, 0x0d, 0x0c, 0x5a, 0xbd,
  0xd3, 0xea, 0x34, 0xbb, 0x13, 0x94, 0xc6, 0xbc, 0x8c, 0xf9, 0xd4, 0x3d,
  0xee, 0x84, 0xb4, 0xbd, 0x7e, 0x97, 0x20, 0x3d, 0x8a, 0x96, 0xde, 0xbd,
  0xfb, 0x6e, 0x32, 0x3e, 0x1a, 0xfa, 0x01, 0x3e, 0xf9, 0x60, 0xec, 0x3c,
  0x81, 0x08, 0x8f, 0xbe, 0x4a, 0x58, 0xc7, 0xbd, 0x13, 0x44, 0x96, 0xbb,
  0xfd, 0x27, 0xa6, 0xbb, 0x49, 0x08, 0xb4, 0x3c, 0x78, 0x70, 0x7e, 0x3c,
  0x38, 0x76, 0xbb, 0x3c, 0xc1, 0xfc, 0x74, 0x3d, 0xef, 0x32, 0x05, 0xbc,
  0x1b, 0xc5, 0x6b, 0xbc, 0xdf, 0x0f, 0xc4, 0x3c, 0xe2, 0x9c, 0x65, 0x3c,
  0xb2, 0xf8, 0x0c, 0x3c, 0xa1, 0xeb, 0x22, 0xbc, 0x67, 0x0d, 0x2d, 0xbc,
  0x52, 0x63, 0x9c, 0xbc, 0x33, 0xd5, 0x2b, 0xbd, 0xf5, 0x95, 0x25, 0xbd,
  0x6c, 0x75, 0x4f, 0xbd, 0x3d, 0xbd, 0x69, 0x3d, 0x51, 0x1e, 0x01, 0x3d,
  0x62, 0x07, 0x15, 0x3d, 0x87, 0x3e, 0xb3, 0x3b, 0xb6, 0x70, 0xe0, 0xbc,
  0x9f, 0x71, 0x08, 0x3d, 0xd4, 0x64, 0xa6, 0xbd, 0x42, 0x82, 0x3c, 0xbc,
  0x36, 0xfb, 0x7a, 0xbd, 0xca, 0xfb, 0xff, 0xff, 0x04, 0x00, 0x00, 0x00,
  0x00, 0x01, 0x00, 0x00, 0xb2, 0x10, 0x41, 0x3f, 0xf1, 0x4f, 0x58, 0x40,
  0x7a, 0x1d, 0x61, 0x3f, 0xa4, 0xd1, 0x9b, 0xc1, 0x70, 0x6e, 0x9b, 0xbf,
  0xe4, 0x8e, 0xf4, 0x3f, 0xad, 0x0a, 0xbd, 0xc2, 0x4f, 0x5d, 0xe0, 0x3f,
  0x03, 0x4d, 0x97, 0x40, 0x53, 0xa6, 0x87, 0xbf, 0xaa, 0x8c, 0x70, 0x3f,
  0xbd, 0xe3, 0x87, 0xc0, 0x63, 0x97, 0x87, 0x40, 0xac, 0x37, 0x12, 0x41,
  0x10, 0x91, 0xf3, 0x40, 0xa8, 0x52, 0x01, 0xc0, 0x7e, 0xd0, 0x58, 0x3f,
  0x9f, 0x69, 0xd2, 0xbf, 0xe4, 0x0e, 0xa4, 0xc0, 0x33, 0x78, 0xa9, 0xc0,
  0x1d, 0x7e, 0x00, 0xc0, 0x78, 0x62, 0x30, 0x41, 0xc7, 0x0f, 0x9e, 0xc0,
  0xd0, 0xf9, 0xa4, 0x3f, 0x2d, 0x89, 0x65, 0x40, 0x2f, 0x38, 0xf9, 0x3f,
  0xf9, 0x7d, 0x85, 0x40, 0xc7, 0xfb, 0xe8, 0xbf, 0xdf, 0x34, 0x3d, 0xc0,
  0x73, 0x98, 0x2f, 0x40, 0xa1, 0x4c, 0x9a, 0xc0, 0xc9, 0x80, 0x35, 0xc0,
  0x44, 0x48, 0x7c, 0xbf, 0x22, 0x16, 0x43, 0xc0, 0xeb, 0x51, 0x72, 0xbf,
  0xa0, 0xc6, 0x9a, 0x41, 0x4d, 0xe8, 0x78, 0x3f, 0x68, 0xa2, 0xf1, 0xbf,
  0xcf, 0x38, 0xbd, 0x42, 0xb5, 0xdd, 0xd7, 0xbf, 0xbf, 0x83, 0x93, 0xc0,
  0x34, 0xf6, 0x6f, 0x3f, 0x96, 0xe0, 0x78, 0xbf, 0xf4, 0xe0, 0x84, 0x40,
  0x8c, 0x1e, 0x7c, 0xc0, 0x3a, 0x2d, 0x13, 0xc1, 0xa4, 0x10, 0xf3, 0xc0,
  0x74, 0xe9, 0x0e, 0x40, 0x4d, 0x8c, 0x72, 0xbf, 0x28, 0xeb, 0xd1, 0x3f,
  0x68, 0xbc, 0xa6, 0x40, 0xa2, 0x4e, 0xa4, 0x40, 0x1a, 0x2c, 0xf7, 0x3f,
  0x85, 0xed, 0x31, 0xc1, 0x78, 0x5d, 0xa1, 0x40, 0x11, 0x03, 0xa9, 0xbf,
  0x81, 0xe3, 0x69, 0xc0, 0xa7, 0x0b, 0xec, 0xbf, 0xfc, 0x3c, 0x85, 0xc0,
  0xe5, 0xc3, 0xcd, 0x3f, 0xd5, 0x4b, 0x4a, 0x40, 0x30, 0x5a, 0x29, 0xc0,
  0x78, 0x93, 0x97, 0x40, 0xe3, 0x51, 0x3d, 0x40, 0xd6, 0xfc, 0xff, 0xff,
  0x04, 0x00, 0x00, 0x00, 0x08, 0x00, 0x00, 0x00, 0x76, 0x83, 0xbb, 0x3e,
  0xb2, 0x40, 0x80, 0xbe, 0xea, 0xfc, 0xff, 0xff, 0x04, 0x00, 0x00, 0x00,
  0x80, 0x00, 0x00, 0x00, 0xf3, 0xd0, 0x08, 0x41, 0x0e, 0xaa, 0x05, 0xc1,
  0x95, 0xac, 0xf5, 0x40, 0xd4, 0x9c, 0x92, 0xbf, 0x85, 0xbf, 0x24, 0xc0,
  0x72, 0x55, 0xf2, 0xc0, 0x2b, 0xfc, 0x25, 0xc1, 0x62, 0x2f, 0x5e, 0x3f,
  0x84, 0xa1, 0x00, 0xc1, 0xc3, 0x49, 0xd3, 0x3f, 0x3a, 0x58, 0xe3, 0x40,
  0x8a, 0x37, 0xc9, 0xc0, 0x20, 0x2d, 0x11, 0x3e, 0xb6, 0xe5, 0x72, 0xc1,
  0xb4, 0x5b, 0x2a, 0xc0, 0x06, 0x18, 0xc9, 0x3f, 0x27, 0x4b, 0x08, 0x41,
  0x52, 0x18, 0xe1, 0x3f, 0x30, 0x80, 0x5e, 0x40, 0x79, 0x43, 0x83, 0x40,
  0x6a, 0x35, 0x98, 0xc0, 0x48, 0x1d, 0xd8, 0x3f, 0x90, 0xfc, 0x70, 0x3e,
  0x6f, 0x9f, 0x45, 0xc1, 0xe2, 0x27, 0x45, 0xc1, 0x24, 0xdc, 0x4f, 0xc1,
  0x40, 0xfa, 0x84, 0x3d, 0x48, 0xde, 0xf7, 0xbd, 0x98, 0x75, 0x12, 0x3f,
  0x2e, 0x86, 0x63, 0xc1, 0x89, 0x23, 0x01, 0xc0, 0x84, 0x12, 0xb2, 0x3f,
  0x76, 0xfd, 0xff, 0xff, 0x04, 0x00, 0x00, 0x00, 0x00, 0x01, 0x00, 0x00,
  0x5a, 0xa6, 0xb8, 0xc0, 0x3a, 0x5d, 0x41, 0x40, 0x02, 0xc1, 0x36, 0x3f,
  0xb6, 0x00, 0x02, 0x40, 0xfc, 0x8c, 0x25, 0xc0, 0xeb, 0x1e, 0xa5, 0xc0,
  0x3e, 0x63, 0x6d, 0x40, 0x5e, 0xf0, 0xf7, 0xc0, 0xdb, 0x6a, 0x99, 0xbf,
  0x3b, 0x5a, 0x10, 0x40, 0xa4, 0x10, 0x03, 0xbe, 0x66, 0xe7, 0xf8, 0x3f,
  0x37, 0x8a, 0x60, 0xc0, 0x3f, 0xe0, 0xa0, 0x3f, 0x78, 0x6e, 0x79, 0x40,
  0x46, 0x9b, 0x48, 0x40, 0xf1, 0x97, 0x9c, 0x3f, 0xca, 0x1a, 0xd6, 0xc0,
  0xde, 0xcf, 0xa3, 0xc0, 0x00, 0x53, 0x9b, 0x3f, 0xd1, 0xcb, 0xdb, 0x3f,
  0x24, 0xca, 0xaa, 0xbf, 0xb4, 0x76, 0x9d, 0x40, 0xce, 0x41, 0x41, 0xc0,
  0x6c, 0x32, 0xb3, 0xbe, 0xdb, 0xc0, 0x0a, 0xc0, 0x6c, 0xb4, 0xb1, 0x40,
  0xb0, 0xdb, 0xed, 0xbf, 0xb6, 0x93, 0x57, 0x40, 0xbf, 0x34, 0xa4, 0x40,
  0xf6, 0xb7, 0x81, 0x3f, 0x1b, 0xc5, 0xb5, 0x3f, 0xdd, 0x9f, 0x2d, 0xc0,
  0xdb, 0x9d, 0xe0, 0x3f, 0xb9, 0x1d, 0x8e, 0xbf, 0xa4, 0x70, 0x89, 0x3f,
  0x5e, 0x30, 0x85, 0x3e, 0xf5, 0xd3, 0xae, 0xbf, 0x74, 0xe1, 0xc1, 0xc0,
  0x28, 0xfb, 0x23, 0xbe, 0x41, 0x65, 0x7d, 0x3f, 0x0f, 0x8a, 0x8f, 0xc1,
  0xb4, 0x87, 0x5c, 0xbf, 0x4f, 0xf2, 0x02, 0x40, 0x12, 0xcd, 0x23, 0xc1,
  0xd6, 0xdc, 0x31, 0xbe, 0x1e, 0x4c, 0xec, 0x3f, 0x92, 0x58, 0xad, 0x40,
  0xd2, 0xa9, 0x8a, 0x3f, 0xd7, 0x45, 0x92, 0xbf, 0xca, 0xf1, 0xed, 0x3f,
  0x91, 0x82, 0x44, 0x40, 0x34, 0x68, 0xe4, 0x3e, 0x00, 0x00, 0xb5, 0xbe,
  0xaf, 0xf0, 0x8d, 0xc0, 0xfe, 0x6f, 0x42, 0xbf, 0xbe, 0x22, 0x26, 0xc0,
  0x51, 0x6f, 0xcd, 0x3f, 0x61, 0xe3, 0x1f, 0x40, 0x12, 0xbd, 0xd4, 0xbf,
  0xe7, 0x97, 0x7b, 0x3f, 0x7c, 0x7f, 0x01, 0xc0, 0x84, 0xdc, 0x64, 0xc0,
  0x27, 0x93, 0x96, 0x3f, 0x82, 0xfe, 0xff, 0xff, 0x04, 0x00, 0x00, 0x00,
  0x00, 0x01, 0x00, 0x00, 0xe4, 0x99, 0x25, 0x41, 0xdc, 0x7a, 0x3b, 0x40,
  0xa5, 0xfe, 0x48, 0xbf, 0x0a, 0x3c, 0x9b, 0xc0, 0xcc, 0x8b, 0x62, 0x3f,
  0x08, 0x1e, 0xed, 0x40, 0xe3, 0x43, 0xb9, 0x40, 0xb6, 0xb0, 0xc0, 0x3f,
  0x6a, 0x33, 0x90, 0xbf, 0x94, 0x59, 0xf2, 0xbe, 0x14, 0xd5, 0xe9, 0xbf,
  0xc2, 0x62, 0x02, 0xc0, 0x23, 0x25, 0x8a, 0xc0, 0x2a, 0x7e, 0x44, 0xc1,
  0x40, 0xb4, 0xde, 0x3e, 0x59, 0x49, 0x81, 0xbf, 0x2f, 0xc5, 0x48, 0x40,
  0xd0, 0x6d, 0xf0, 0x3e, 0x0e, 0xbb, 0xf6, 0x40, 0x17, 0x45, 0x3e, 0xbf,
  0xaa, 0xe7, 0x44, 0x3f, 0xc0, 0x1d, 0xe3, 0x40, 0xfa, 0x36, 0x2a, 0x41,
  0xcd, 0x34, 0xc5, 0xc0, 0x7a, 0xdd, 0x2f, 0x3f, 0x3d, 0x5a, 0x8f, 0xbe,
  0x0e, 0xf0, 0x20, 0x40, 0x3e, 0x6f, 0x0b, 0xc0, 0x32, 0x8e, 0xcb, 0xbf,
  0x5e, 0xea, 0xb5, 0xbf, 0x2a, 0x6b, 0x54, 0x40, 0x08, 0x34, 0x06, 0xc1,
  0x9b, 0x3f, 0xaa, 0xc0, 0xbe, 0x83, 0xb2, 0xbe, 0x2e, 0x3b, 0x9d, 0x40,
  0x9e, 0x4e, 0x4c, 0x3f, 0x54, 0xae, 0xdb, 0xc0, 0xc8, 0x11, 0xcb, 0x3e,
  0x2f, 0x82, 0x24, 0xc0, 0x9e, 0x8a, 0xe9, 0xbf, 0x69, 0x6e, 0xa4, 0x40,
  0x28, 0x27, 0x81, 0x40, 0xfb, 0x65, 0x74, 0x3f, 0xda, 0xdd, 0x7a, 0x3f,
  0xbc, 0x86, 0xca, 0x3e, 0xae, 0x03, 0xef, 0x40, 0x40, 0x05, 0x8c, 0xbd,
  0xee, 0xf4, 0x3e, 0x40, 0xea, 0x6a, 0x92, 0xbf, 0xd3, 0x48, 0xba, 0x41,
  0x43, 0x80, 0xdc, 0xc0, 0x83, 0x9e, 0x92, 0x40, 0x80, 0xb4, 0x0d, 0x3c,
  0x26, 0xc4, 0x9f, 0xc0, 0xe4, 0xac, 0x51, 0x3e, 0x88, 0x9d, 0x21, 0xbf,
  0x3a, 0xf7, 0x48, 0x40, 0xd9, 0x84, 0x2c, 0x40, 0x56, 0x2f, 0x50, 0xc0,
  0xc0, 0xae, 0xb5, 0x41, 0x9c, 0x23, 0x05, 0x41, 0x56, 0x6b, 0xeb, 0x3f,
  0xe4, 0x7a, 0x97, 0x40, 0x24, 0x0c, 0x18, 0x3f, 0x8e, 0xff, 0xff, 0xff,
  0x04, 0x00, 0x00, 0x00, 0x20, 0x00, 0x00, 0x00, 0x00, 0x00, 0x00, 0x00,
  0x00, 0x00, 0x00, 0x00, 0x00, 0x00, 0x00, 0x00, 0x00, 0x00, 0x00, 0x00,
  0x01, 0x00, 0x00, 0x00, 0x01, 0x00, 0x00, 0x00, 0x01, 0x00, 0x00, 0x00,
  0x01, 0x00, 0x00, 0x00, 0xba, 0xff, 0xff, 0xff, 0x04, 0x00, 0x00, 0x00,
  0x08, 0x00, 0x00, 0x00, 0xff, 0xff, 0xff, 0xff, 0x20, 0x00, 0x00, 0x00,
  0xce, 0xff, 0xff, 0xff, 0x04, 0x00, 0x00, 0x00, 0x08, 0x00, 0x00, 0x00,
  0x02, 0x00, 0x00, 0x00, 0x03, 0x00, 0x00, 0x00, 0xe2, 0xff, 0xff, 0xff,
  0x04, 0x00, 0x00, 0x00, 0x10, 0x00, 0x00, 0x00, 0x00, 0x00, 0x00, 0x00,
  0x02, 0x00, 0x00, 0x00, 0x03, 0x00, 0x00, 0x00, 0x01, 0x00, 0x00, 0x00,
  0x00, 0x00, 0x06, 0x00, 0x08, 0x00, 0x04, 0x00, 0x06, 0x00, 0x00, 0x00,
  0x04, 0x00, 0x00, 0x00, 0x10, 0x00, 0x00, 0x00, 0x00, 0x00, 0x00, 0x00,
  0x03, 0x00, 0x00, 0x00, 0x01, 0x00, 0x00, 0x00, 0x02, 0x00, 0x00, 0x00,
  0x44, 0xf3, 0xff, 0xff, 0x48, 0xf3, 0xff, 0xff, 0x0f, 0x00, 0x00, 0x00,
  0x4d, 0x4c, 0x49, 0x52, 0x20, 0x43, 0x6f, 0x6e, 0x76, 0x65, 0x72, 0x74,
  0x65, 0x64, 0x2e, 0x00, 0x01, 0x00, 0x00, 0x00, 0x14, 0x00, 0x00, 0x00,
  0x00, 0x00, 0x0e, 0x00, 0x18, 0x00, 0x14, 0x00, 0x10, 0x00, 0x0c, 0x00,
  0x08, 0x00, 0x04, 0x00, 0x0e, 0x00, 0x00, 0x00, 0x14, 0x00, 0x00, 0x00,
  0x1c, 0x00, 0x00, 0x00, 0xe0, 0x02, 0x00, 0x00, 0xe4, 0x02, 0x00, 0x00,
  0xe8, 0x02, 0x00, 0x00, 0x04, 0x00, 0x00, 0x00, 0x6d, 0x61, 0x69, 0x6e,
  0x00, 0x00, 0x00, 0x00, 0x0c, 0x00, 0x00, 0x00, 0x98, 0x02, 0x00, 0x00,
  0x60, 0x02, 0x00, 0x00, 0x00, 0x02, 0x00, 0x00, 0xc8, 0x01, 0x00, 0x00,
  0x98, 0x01, 0x00, 0x00, 0x70, 0x01, 0x00, 0x00, 0x14, 0x01, 0x00, 0x00,
  0xcc, 0x00, 0x00, 0x00, 0xa4, 0x00, 0x00, 0x00, 0x64, 0x00, 0x00, 0x00,
  0x3c, 0x00, 0x00, 0x00, 0x04, 0x00, 0x00, 0x00, 0x36, 0xfe, 0xff, 0xff,
  0x14, 0x00, 0x00, 0x00, 0x00, 0x00, 0x00, 0x08, 0x10, 0x00, 0x00, 0x00,
  0x14, 0x00, 0x00, 0x00, 0x06, 0x00, 0x00, 0x00, 0xe8, 0xf3, 0xff, 0xff,
  0x01, 0x00, 0x00, 0x00, 0x1a, 0x00, 0x00, 0x00, 0x03, 0x00, 0x00, 0x00,
  0x19, 0x00, 0x00, 0x00, 0x0a, 0x00, 0x00, 0x00, 0x09, 0x00, 0x00, 0x00,
  0x0a, 0xfe, 0xff, 0xff, 0x0c, 0x00, 0x00, 0x00, 0x10, 0x00, 0x00, 0x00,
  0x01, 0x00, 0x00, 0x00, 0x01, 0x00, 0x00, 0x00, 0x19, 0x00, 0x00, 0x00,
  0x02, 0x00, 0x00, 0x00, 0x18, 0x00, 0x00, 0x00, 0x04, 0x00, 0x00, 0x00,
  0x8e, 0xfe, 0xff, 0xff, 0x1c, 0x00, 0x00, 0x00, 0x00, 0x00, 0x00, 0x1b,
  0x1c, 0x00, 0x00, 0x00, 0x20, 0x00, 0x00, 0x00, 0x05, 0x00, 0x00, 0x00,
  0x00, 0x00, 0x06, 0x00, 0x08, 0x00, 0x07, 0x00, 0x06, 0x00, 0x00, 0x00,
  0x00, 0x00, 0x00, 0x01, 0x01, 0x00, 0x00, 0x00, 0x18, 0x00, 0x00, 0x00,
  0x02, 0x00, 0x00, 0x00, 0x17, 0x00, 0x00, 0x00, 0x03, 0x00, 0x00, 0x00,
  0x6a, 0xfe, 0xff, 0xff, 0x0c, 0x00, 0x00, 0x00, 0x10, 0x00, 0x00, 0x00,
  0x03, 0x00, 0x00, 0x00, 0x01, 0x00, 0x00, 0x00, 0x17, 0x00, 0x00, 0x00,
  0x02, 0x00, 0x00, 0x00, 0x16, 0x00, 0x00, 0x00, 0x01, 0x00, 0x00, 0x00,
  0xee, 0xfe, 0xff, 0xff, 0x14, 0x00, 0x00, 0x00, 0x00, 0x00, 0x00, 0x01,
  0x20, 0x00, 0x00, 0x00, 0x24, 0x00, 0x00, 0x00, 0x02, 0x00, 0x00, 0x00,
  0xe0, 0xfe, 0xff, 0xff, 0x00, 0x00, 0x00, 0x01, 0x01, 0x00, 0x00, 0x00,
  0x01, 0x00, 0x00, 0x00, 0x00, 0x00, 0x00, 0x01, 0x01, 0x00, 0x00, 0x00,
  0x16, 0x00, 0x00, 0x00, 0x03, 0x00, 0x00, 0x00, 0x15, 0x00, 0x00, 0x00,
  0x0d, 0x00, 0x00, 0x00, 0x08, 0x00, 0x00, 0x00, 0x32, 0xff, 0xff, 0xff,
  0x24, 0x00, 0x00, 0x00, 0x00, 0x00, 0x00, 0x02, 0x34, 0x00, 0x00, 0x00,
  0x38, 0x00, 0x00, 0x00, 0x04, 0x00, 0x00, 0x00, 0x00, 0x00, 0x0e, 0x00,
  0x18, 0x00, 0x17, 0x00, 0x10, 0x00, 0x0c, 0x00, 0x08, 0x00, 0x07, 0x00,
  0x0e, 0x00, 0x00, 0x00, 0x00, 0x00, 0x00, 0x01, 0x01, 0x00, 0x00, 0x00,
  0x01, 0x00, 0x00, 0x00, 0x01, 0x00, 0x00, 0x00, 0x00, 0x00, 0x00, 0x01,
  0x01, 0x00, 0x00, 0x00, 0x15, 0x00, 0x00, 0x00, 0x03, 0x00, 0x00, 0x00,
  0x14, 0x00, 0x00, 0x00, 0x0c, 0x00, 0x00, 0x00, 0x07, 0x00, 0x00, 0x00,
  0x2a, 0xff, 0xff, 0xff, 0x0c, 0x00, 0x00, 0x00, 0x10, 0x00, 0x00, 0x00,
  0x03, 0x00, 0x00, 0x00, 0x01, 0x00, 0x00, 0x00, 0x14, 0x00, 0x00, 0x00,
  0x02, 0x00, 0x00, 0x00, 0x13, 0x00, 0x00, 0x00, 0x02, 0x00, 0x00, 0x00,
  0x1e, 0xff, 0xff, 0xff, 0x10, 0x00, 0x00, 0x00, 0x00, 0x00, 0x00, 0x16,
  0x0c, 0x00, 0x00, 0x00, 0x10, 0x00, 0x00, 0x00, 0x5c, 0xf5, 0xff, 0xff,
  0x01, 0x00, 0x00, 0x00, 0x13, 0x00, 0x00, 0x00, 0x02, 0x00, 0x00, 0x00,
  0x12, 0x00, 0x00, 0x00, 0x05, 0x00, 0x00, 0x00, 0x7a, 0xff, 0xff, 0xff,
  0x0c, 0x00, 0x00, 0x00, 0x10, 0x00, 0x00, 0x00, 0x03, 0x00, 0x00, 0x00,
  0x01, 0x00, 0x00, 0x00, 0x12, 0x00, 0x00, 0x00, 0x02, 0x00, 0x00, 0x00,
  0x11, 0x00, 0x00, 0x00, 0x01, 0x00, 0x00, 0x00, 0x00, 0x00, 0x0e, 0x00,
  0x18, 0x00, 0x14, 0x00, 0x10, 0x00, 0x0c, 0x00, 0x0b, 0x00, 0x04, 0x00,
  0x0e, 0x00, 0x00, 0x00, 0x20, 0x00, 0x00, 0x00, 0x00, 0x00, 0x00, 0x01,
  0x2c, 0x00, 0x00, 0x00, 0x30, 0x00, 0x00, 0x00, 0x02, 0x00, 0x00, 0x00,
  0x0c, 0x00, 0x14, 0x00, 0x13, 0x00, 0x0c, 0x00, 0x08, 0x00, 0x07, 0x00,
  0x0c, 0x00, 0x00, 0x00, 0x00, 0x00, 0x00, 0x01, 0x02, 0x00, 0x00, 0x00,
  0x02, 0x00, 0x00, 0x00, 0x00, 0x00, 0x00, 0x01, 0x01, 0x00, 0x00, 0x00,
  0x11, 0x00, 0x00, 0x00, 0x03, 0x00, 0x00, 0x00, 0x10, 0x00, 0x00, 0x00,
  0x0b, 0x00, 0x00, 0x00, 0x06, 0x00, 0x00, 0x00, 0x00, 0x00, 0x0a, 0x00,
  0x10, 0x00, 0x0c, 0x00, 0x08, 0x00, 0x04, 0x00, 0x0a, 0x00, 0x00, 0x00,
  0x0c, 0x00, 0x00, 0x00, 0x10, 0x00, 0x00, 0x00, 0x01, 0x00, 0x00, 0x00,
  0x01, 0x00, 0x00, 0x00, 0x10, 0x00, 0x00, 0x00, 0x02, 0x00, 0x00, 0x00,
  0x0f, 0x00, 0x00, 0x00, 0x0e, 0x00, 0x00, 0x00, 0x00, 0x00, 0x0e, 0x00,
  0x14, 0x00, 0x00, 0x00, 0x10, 0x00, 0x0c, 0x00, 0x0b, 0x00, 0x04, 0x00,
  0x0e, 0x00, 0x00, 0x00, 0x10, 0x00, 0x00, 0x00, 0x00, 0x00, 0x00, 0x16,
  0x0c, 0x00, 0x00, 0x00, 0x10, 0x00, 0x00, 0x00, 0x4c, 0xf6, 0xff, 0xff,
  0x01, 0x00, 0x00, 0x00, 0x0f, 0x00, 0x00, 0x00, 0x02, 0x00, 0x00, 0x00,
  0x00, 0x00, 0x00, 0x00, 0x05, 0x00, 0x00, 0x00, 0x01, 0x00, 0x00, 0x00,
  0x1a, 0x00, 0x00, 0x00, 0x01, 0x00, 0x00, 0x00, 0x00, 0x00, 0x00, 0x00,
  0x1b, 0x00, 0x00, 0x00, 0x74, 0x09, 0x00, 0x00, 0x24, 0x09, 0x00, 0x00,
  0xd4, 0x08, 0x00, 0x00, 0xa0, 0x08, 0x00, 0x00, 0x64, 0x08, 0x00, 0x00,
  0x2c, 0x08, 0x00, 0x00, 0xfc, 0x07, 0x00, 0x00, 0xcc, 0x07, 0x00, 0x00,
  0x9c, 0x07, 0x00, 0x00, 0x6c, 0x07, 0x00, 0x00, 0x38, 0x07, 0x00, 0x00,
  0xf8, 0x06, 0x00, 0x00, 0xb8, 0x06, 0x00, 0x00, 0xc0, 0x03, 0x00, 0x00,
  0x88, 0x03, 0x00, 0x00, 0x50, 0x03, 0x00, 0x00, 0x0c, 0x03, 0x00, 0x00,
  0xa0, 0x02, 0x00, 0x00, 0x60, 0x02, 0x00, 0x00, 0x24, 0x02, 0x00, 0x00,
  0xe4, 0x01, 0x00, 0x00, 0x80, 0x01, 0x00, 0x00, 0x18, 0x01, 0x00, 0x00,
  0xd8, 0x00, 0x00, 0x00, 0x9c, 0x00, 0x00, 0x00, 0x44, 0x00, 0x00, 0x00,
  0x04, 0x00, 0x00, 0x00, 0x06, 0xf7, 0xff, 0xff, 0x10, 0x00, 0x00, 0x00,
  0x10, 0x00, 0x00, 0x00, 0x1b, 0x00, 0x00, 0x00, 0x20, 0x00, 0x00, 0x00,
  0xf8, 0xf6, 0xff, 0xff, 0x11, 0x00, 0x00, 0x00, 0x50, 0x61, 0x72, 0x74,
  0x69, 0x74, 0x69, 0x6f, 0x6e, 0x65, 0x64, 0x43, 0x61, 0x6c, 0x6c, 0x3a,
  0x30, 0x00, 0x00, 0x00, 0x02, 0x00, 0x00, 0x00, 0x01, 0x00, 0x00, 0x00,
  0x02, 0x00, 0x00, 0x00, 0x42, 0xf7, 0xff, 0xff, 0x10, 0x00, 0x00, 0x00,
  0x10, 0x00, 0x00, 0x00, 0x1a, 0x00, 0x00, 0x00, 0x38, 0x00, 0x00, 0x00,
  0x34, 0xf7, 0xff, 0xff, 0x28, 0x00, 0x00, 0x00, 0x66, 0x6c, 0x61, 0x74,
  0x74, 0x65, 0x6e, 0x2f, 0x52, 0x65, 0x73, 0x68, 0x61, 0x70, 0x65, 0x3b,
  0x6f, 0x6e, 0x6e, 0x78, 0x5f, 0x74, 0x66, 0x5f, 0x70, 0x72, 0x65, 0x66,
  0x69, 0x78, 0x5f, 0x52, 0x65, 0x73, 0x68, 0x61, 0x70, 0x65, 0x5f, 0x37,
  0x00, 0x00, 0x00, 0x00, 0x02, 0x00, 0x00, 0x00, 0x01, 0x00, 0x00, 0x00,
  0x20, 0x00, 0x00, 0x00, 0x96, 0xf7, 0xff, 0xff, 0x10, 0x00, 0x00, 0x00,
  0x10, 0x00, 0x00, 0x00, 0x19, 0x00, 0x00, 0x00, 0x14, 0x00, 0x00, 0x00,
  0x88, 0xf7, 0xff, 0xff, 0x04, 0x00, 0x00, 0x00, 0x4d, 0x65, 0x61, 0x6e,
  0x00, 0x00, 0x00, 0x00, 0x04, 0x00, 0x00, 0x00, 0x01, 0x00, 0x00, 0x00,
  0x20, 0x00, 0x00, 0x00, 0x01, 0x00, 0x00, 0x00, 0x01, 0x00, 0x00, 0x00,
  0xce, 0xf7, 0xff, 0xff, 0x10, 0x00, 0x00, 0x00, 0x10, 0x00, 0x00, 0x00,
  0x18, 0x00, 0x00, 0x00, 0x18, 0x00, 0x00, 0x00, 0xc0, 0xf7, 0xff, 0xff,
  0x0b, 0x00, 0x00, 0x00, 0x74, 0x72, 0x61, 0x6e, 0x73, 0x70, 0x6f, 0x73,
  0x65, 0x5f, 0x38, 0x00, 0x04, 0x00, 0x00, 0x00, 0x01, 0x00, 0x00, 0x00,
  0x20, 0x00, 0x00, 0x00, 0x05, 0x00, 0x00, 0x00, 0x4c, 0x00, 0x00, 0x00,
  0x0a, 0xf8, 0xff, 0xff, 0x10, 0x00, 0x00, 0x00, 0x10, 0x00, 0x00, 0x00,
  0x17, 0x00, 0x00, 0x00, 0x40, 0x00, 0x00, 0x00, 0xfc, 0xf7, 0xff, 0xff,
  0x31, 0x00, 0x00, 0x00, 0x6f, 0x6e, 0x6e, 0x78, 0x5f, 0x74, 0x66, 0x5f,
  0x70, 0x72, 0x65, 0x66, 0x69, 0x78, 0x5f, 0x52, 0x65, 0x6c, 0x75, 0x5f,
  0x35, 0x3b, 0x41, 0x64, 0x64, 0x5f, 0x32, 0x3b, 0x63, 0x6f, 0x6e, 0x76,
  0x6f, 0x6c, 0x75, 0x74, 0x69, 0x6f, 0x6e, 0x5f, 0x31, 0x3b, 0x43, 0x6f,
  0x6e, 0x73, 0x74, 0x5f, 0x35, 0x00, 0x00, 0x00, 0x04, 0x00, 0x00, 0x00,
  0x01, 0x00, 0x00, 0x00, 0x05, 0x00, 0x00, 0x00, 0x4c, 0x00, 0x00, 0x00,
  0x20, 0x00, 0x00, 0x00, 0x6e, 0xf8, 0xff, 0xff, 0x10, 0x00, 0x00, 0x00,
  0x10, 0x00, 0x00, 0x00, 0x16, 0x00, 0x00, 0x00, 0x3c, 0x00, 0x00, 0x00,
  0x60, 0xf8, 0xff, 0xff, 0x2d, 0x00, 0x00, 0x00, 0x6f, 0x6e, 0x6e, 0x78,
  0x5f, 0x74, 0x66, 0x5f, 0x70, 0x72, 0x65, 0x66, 0x69, 0x78, 0x5f, 0x52,
  0x65, 0x6c, 0x75, 0x5f, 0x33, 0x3b, 0x41, 0x64, 0x64, 0x5f, 0x31, 0x3b,
  0x64, 0x65, 0x70, 0x74, 0x68, 0x77, 0x69, 0x73, 0x65, 0x3b, 0x43, 0x6f,
  0x6e, 0x73, 0x74, 0x5f, 0x33, 0x00, 0x00, 0x00, 0x04, 0x00, 0x00, 0x00,
  0x01, 0x00, 0x00, 0x00, 0x05, 0x00, 0x00, 0x00, 0x4c, 0x00, 0x00, 0x00,
  0x40, 0x00, 0x00, 0x00, 0xce, 0xf8, 0xff, 0xff, 0x10, 0x00, 0x00, 0x00,
  0x10, 0x00, 0x00, 0x00, 0x15, 0x00, 0x00, 0x00, 0x18, 0x00, 0x00, 0x00,
  0xc0, 0xf8, 0xff, 0xff, 0x0b, 0x00, 0x00, 0x00, 0x74, 0x72, 0x61, 0x6e,
  0x73, 0x70, 0x6f, 0x73, 0x65, 0x5f, 0x34, 0x00, 0x04, 0x00, 0x00, 0x00,
  0x01, 0x00, 0x00, 0x00, 0x07, 0x00, 0x00, 0x00, 0x4e, 0x00, 0x00, 0x00,
  0x40, 0x00, 0x00, 0x00, 0x0a, 0xf9, 0xff, 0xff, 0x10, 0x00, 0x00, 0x00,
  0x10, 0x00, 0x00, 0x00, 0x14, 0x00, 0x00, 0x00, 0x14, 0x00, 0x00, 0x00,
  0xfc, 0xf8, 0xff, 0xff, 0x05, 0x00, 0x00, 0x00, 0x50, 0x61, 0x64, 0x5f,
  0x31, 0x00, 0x00, 0x00, 0x04, 0x00, 0x00, 0x00, 0x01, 0x00, 0x00, 0x00,
  0x40, 0x00, 0x00, 0x00, 0x07, 0x00, 0x00, 0x00, 0x4e, 0x00, 0x00, 0x00,
  0x42, 0xf9, 0xff, 0xff, 0x10, 0x00, 0x00, 0x00, 0x10, 0x00, 0x00, 0x00,
  0x13, 0x00, 0x00, 0x00, 0x18, 0x00, 0x00, 0x00, 0x34, 0xf9, 0xff, 0xff,
  0x0b, 0x00, 0x00, 0x00, 0x74, 0x72, 0x61, 0x6e, 0x73, 0x70, 0x6f, 0x73,
  0x65, 0x5f, 0x32, 0x00, 0x04, 0x00, 0x00, 0x00, 0x01, 0x00, 0x00, 0x00,
  0x40, 0x00, 0x00, 0x00, 0x05, 0x00, 0x00, 0x00, 0x4c, 0x00, 0x00, 0x00,
  0x7e, 0xf9, 0xff, 0xff, 0x10, 0x00, 0x00, 0x00, 0x10, 0x00, 0x00, 0x00,
  0x12, 0x00, 0x00, 0x00, 0x44, 0x00, 0x00, 0x00, 0x70, 0xf9, 0xff, 0xff,
  0x37, 0x00, 0x00, 0x00, 0x6f, 0x6e, 0x6e, 0x78, 0x5f, 0x74, 0x66, 0x5f,
  0x70, 0x72, 0x65, 0x66, 0x69, 0x78, 0x5f, 0x52, 0x65, 0x6c, 0x75, 0x5f,
  0x31, 0x3b, 0x41, 0x64, 0x64, 0x3b, 0x64, 0x65, 0x70, 0x74, 0x68, 0x77,
  0x69, 0x73, 0x65, 0x3b, 0x63, 0x6f, 0x6e, 0x76, 0x6f, 0x6c, 0x75, 0x74,
  0x69, 0x6f, 0x6e, 0x3b, 0x43, 0x6f, 0x6e, 0x73, 0x74, 0x5f, 0x31, 0x00,
  0x04, 0x00, 0x00, 0x00, 0x01, 0x00, 0x00, 0x00, 0x05, 0x00, 0x00, 0x00,
  0x4c, 0x00, 0x00, 0x00, 0x40, 0x00, 0x00, 0x00, 0xe6, 0xf9, 0xff, 0xff,
  0x10, 0x00, 0x00, 0x00, 0x10, 0x00, 0x00, 0x00, 0x11, 0x00, 0x00, 0x00,
  0x1c, 0x00, 0x00, 0x00, 0xd8, 0xf9, 0xff, 0xff, 0x0c, 0x00, 0x00, 0x00,
  0x74, 0x72, 0x61, 0x6e, 0x73, 0x70, 0x6f, 0x73, 0x65, 0x5f, 0x31, 0x31,
  0x00, 0x00, 0x00, 0x00, 0x04, 0x00, 0x00, 0x00, 0x01, 0x00, 0x00, 0x00,
  0x0c, 0x00, 0x00, 0x00, 0x99, 0x00, 0x00, 0x00, 0x01, 0x00, 0x00, 0x00,
  0x26, 0xfa, 0xff, 0xff, 0x10, 0x00, 0x00, 0x00, 0x10, 0x00, 0x00, 0x00,
  0x10, 0x00, 0x00, 0x00, 0x10, 0x00, 0x00, 0x00, 0x18, 0xfa, 0xff, 0xff,
  0x03, 0x00, 0x00, 0x00, 0x50, 0x61, 0x64, 0x00, 0x04, 0x00, 0x00, 0x00,
  0x01, 0x00, 0x00, 0x00, 0x01, 0x00, 0x00, 0x00, 0x0c, 0x00, 0x00, 0x00,
  0x99, 0x00, 0x00, 0x00, 0xa6, 0xfa, 0xff, 0xff, 0x14, 0x00, 0x00, 0x00,
  0x14, 0x00, 0x00, 0x00, 0x0f, 0x00, 0x00, 0x00, 0x00, 0x00, 0x00, 0x02,
  0x18, 0x00, 0x00, 0x00, 0x50, 0xfa, 0xff, 0xff, 0x0b, 0x00, 0x00, 0x00,
  0x74, 0x72, 0x61, 0x6e, 0x73, 0x70, 0x6f, 0x73, 0x65, 0x5f, 0x31, 0x00,
  0x01, 0x00, 0x00, 0x00, 0x04, 0x00, 0x00, 0x00, 0xda, 0xfa, 0xff, 0xff,
  0x20, 0x00, 0x00, 0x00, 0xc4, 0x02, 0x00, 0x00, 0x0e, 0x00, 0x00, 0x00,
  0x00, 0x00, 0x00, 0x09, 0xcc, 0x02, 0x00, 0x00, 0x0c, 0x00, 0x14, 0x00,
  0x10, 0x00, 0x0c, 0x00, 0x08, 0x00, 0x04, 0x00, 0x0c, 0x00, 0x00, 0x00,
  0x10, 0x00, 0x00, 0x00, 0x14, 0x01, 0x00, 0x00, 0x94, 0x01, 0x00, 0x00,
  0x14, 0x02, 0x00, 0x00, 0x20, 0x00, 0x00, 0x00, 0x00, 0x00, 0x00, 0x00,
  0x00, 0x00, 0x00, 0x00, 0x00, 0x00, 0x00, 0x00, 0x00, 0x00, 0x00, 0x00,
  0x00, 0x00, 0x00, 0x00, 0x00, 0x00, 0x00, 0x00, 0x00, 0x00, 0x00, 0x00,
  0x00, 0x00, 0x00, 0x00, 0x00, 0x00, 0x00, 0x00, 0x00, 0x00, 0x00, 0x00,
  0x00, 0x00, 0x00, 0x00, 0x00, 0x00, 0x00, 0x00, 0x00, 0x00, 0x00, 0x00,
  0x00, 0x00, 0x00, 0x00, 0x00, 0x00, 0x00, 0x00, 0x00, 0x00, 0x00, 0x00,
  0x00, 0x00, 0x00, 0x00, 0x00, 0x00, 0x00, 0x00, 0x00, 0x00, 0x00, 0x00,
  0x00, 0x00, 0x00, 0x00, 0x00, 0x00, 0x00, 0x00, 0x00, 0x00, 0x00, 0x00,
  0x00, 0x00, 0x00, 0x00, 0x00, 0x00, 0x00, 0x00, 0x00, 0x00, 0x00, 0x00,
  0x00, 0x00, 0x00, 0x00, 0x00, 0x00, 0x00, 0x00, 0x00, 0x00, 0x00, 0x00,
  0x00, 0x00, 0x00, 0x00, 0x00, 0x00, 0x00, 0x00, 0x00, 0x00, 0x00, 0x00,
  0x00, 0x00, 0x00, 0x00, 0x00, 0x00, 0x00, 0x00, 0x00, 0x00, 0x00, 0x00,
  0x00, 0x00, 0x00, 0x00, 0x00, 0x00, 0x00, 0x00, 0x00, 0x00, 0x00, 0x00,
  0x00, 0x00, 0x00, 0x00, 0x00, 0x00, 0x00, 0x00, 0x00, 0x00, 0x00, 0x00,
  0x00, 0x00, 0x00, 0x00, 0x00, 0x00, 0x00, 0x00, 0x00, 0x00, 0x00, 0x00,
  0x00, 0x00, 0x00, 0x00, 0x00, 0x00, 0x00, 0x00, 0x00, 0x00, 0x00, 0x00,
  0x00, 0x00, 0x00, 0x00, 0x00, 0x00, 0x00, 0x00, 0x00, 0x00, 0x00, 0x00,
  0x00, 0x00, 0x00, 0x00, 0x00, 0x00, 0x00, 0x00, 0x00, 0x00, 0x00, 0x00,
  0x00, 0x00, 0x00, 0x00, 0x00, 0x00, 0x00, 0x00, 0x00, 0x00, 0x00, 0x00,
  0x00, 0x00, 0x00, 0x00, 0x00, 0x00, 0x00, 0x00, 0x00, 0x00, 0x00, 0x00,
  0x00, 0x00, 0x00, 0x00, 0x00, 0x00, 0x00, 0x00, 0x00, 0x00, 0x00, 0x00,
  0x00, 0x00, 0x00, 0x00, 0x00, 0x00, 0x00, 0x00, 0x00, 0x00, 0x00, 0x00,
  0x00, 0x00, 0x00, 0x00, 0x20, 0x00, 0x00, 0x00, 0xcc, 0x1d, 0xc8, 0x3c,
  0x77, 0x28, 0x30, 0x3c, 0xb8, 0x4f, 0xd3, 0x3c, 0x4b, 0xb2, 0xbd, 0x3c,
  0x62, 0x07, 0x7e, 0x3c, 0x99, 0x47, 0x86, 0x3c, 0x11, 0x4d, 0x84, 0x3c,
  0x60, 0x2e, 0xad, 0x3c, 0x1f, 0x3c, 0x8b, 0x3c, 0x6f, 0xea, 0x91, 0x3c,
  0x08, 0x71, 0xc0, 0x3c, 0x6f, 0x9e, 0x31, 0x3c, 0xb3, 0x62, 0x91, 0x3c,
  0x18, 0x59, 0x9f, 0x3c, 0xf3, 0xbd, 0x77, 0x3c, 0x34, 0xe3, 0x6e, 0x3c,
  0x6a, 0x4a, 0x9e, 0x3c, 0xb1, 0x84, 0x84, 0x3c, 0x87, 0xdf, 0x5c, 0x3c,
  0x52, 0x66, 0x47, 0x3c, 0xd4, 0x55, 0x8a, 0x3c, 0x4c, 0xf6, 0x4b, 0x3c,
  0xb4, 0x06, 0x4d, 0x3c, 0x81, 0x90, 0xcb, 0x3c, 0x3b, 0x90, 0xff, 0x3c,
  0xd0, 0x1c, 0xef, 0x3c, 0x2d, 0xcb, 0x0e, 0x3c, 0x0e, 0x05, 0x7a, 0x3c,
  0x41, 0xba, 0x81, 0x3c, 0xc6, 0xb1, 0xd8, 0x3c, 0x52, 0x93, 0xa2, 0x3c,
  0xf8, 0xe2, 0x61, 0x3c, 0x20, 0x00, 0x00, 0x00, 0xb5, 0x70, 0xaf, 0x3f,
  0xff, 0xc9, 0xa1, 0x3f, 0xbf, 0xf6, 0x38, 0x40, 0xf2, 0xa0, 0x9e, 0x3f,
  0x34, 0x6d, 0x95, 0x3f, 0x0a, 0x3b, 0x05, 0x40, 0x8a, 0xb5, 0xaf, 0x3f,
  0x03, 0xd4, 0x2b, 0x40, 0xa7, 0x25, 0x0a, 0x40, 0x9a, 0xc6, 0x10, 0x40,
  0xee, 0x27, 0xaa, 0x3f, 0x32, 0x3b, 0xb0, 0x3f, 0xee, 0x3f, 0x10, 0x40,
  0x66, 0x1a, 0x1e, 0x40, 0x8b, 0xa8, 0xbd, 0x3f, 0x6e, 0x05, 0xed, 0x3f,
  0xd5, 0x0d, 0x1d, 0x40, 0xaf, 0xc5, 0xa2, 0x3f, 0x2f, 0x6d, 0x5e, 0x3f,
  0x88, 0xdd, 0x47, 0x3f, 0x61, 0x7a, 0x01, 0x40, 0x79, 0x17, 0x9a, 0x3f,
  0xb8, 0x40, 0xa6, 0x3f, 0x60, 0xf9, 0x49, 0x40, 0x1b, 0x91, 0x7d, 0x40,
  0x96, 0x3e, 0x6d, 0x40, 0x64, 0x05, 0x68, 0x3f, 0x66, 0xb5, 0x71, 0x3f,
  0x67, 0xd0, 0xa2, 0x3f, 0x62, 0x00, 0x57, 0x40, 0x78, 0x1f, 0x82, 0x3f,
  0x4a, 0xf8, 0xaf, 0x3f, 0x20, 0x00, 0x00, 0x00, 0x90, 0x8d, 0x46, 0xc0,
  0x26, 0xc8, 0xae, 0xbf, 0x19, 0xa9, 0x51, 0xc0, 0xe6, 0x36, 0x3c, 0xc0,
  0x53, 0x0b, 0xfc, 0xbf, 0x86, 0x55, 0xfa, 0xbf, 0x77, 0x44, 0x03, 0xc0,
  0xe5, 0x86, 0xd3, 0xbf, 0x2b, 0x62, 0x85, 0xbf, 0xc8, 0x7a, 0xf5, 0xbf,
  0x26, 0xf0, 0x3e, 0xc0, 0x92, 0x9f, 0x92, 0xbf, 0xf0, 0x21, 0xb6, 0xbf,
  0xb4, 0xba, 0xa4, 0xbf, 0x77, 0xce, 0xf5, 0xbf, 0xc8, 0x2f, 0xde, 0xbf,
  0x68, 0x93, 0x05, 0xc0, 0xa8, 0x7b, 0x03, 0xc0, 0xc8, 0x25, 0xdb, 0xbf,
  0x85, 0xd7, 0xc5, 0xbf, 0x28, 0x41, 0x09, 0xc0, 0x5f, 0x5e, 0xca, 0xbf,
  0xa7, 0x6c, 0xcb, 0xbf, 0x5c, 0x48, 0xc4, 0xbf, 0xd4, 0xe8, 0xaa, 0xbf,
  0x1f, 0xb4, 0xe7, 0xbf, 0x97, 0xad, 0x8d, 0xbf, 0x04, 0x11, 0xf8, 0xbf,
  0xcc, 0xb6, 0x00, 0xc0, 0x4d, 0xd8, 0xd1, 0xbf, 0x2b, 0x4e, 0x21, 0xc0,
  0x32, 0x1f, 0xe0, 0xbf, 0x0d, 0x00, 0x00, 0x00, 0x63, 0x6f, 0x6e, 0x76,
  0x6f, 0x6c, 0x75, 0x74, 0x69, 0x6f, 0x6e, 0x5f, 0x31, 0x00, 0x00, 0x00,
  0x04, 0x00, 0x00, 0x00, 0x20, 0x00, 0x00, 0x00, 0x01, 0x00, 0x00, 0x00,
  0x01, 0x00, 0x00, 0x00, 0x40, 0x00, 0x00, 0x00, 0x82, 0xfd, 0xff, 0xff,
  0x10, 0x00, 0x00, 0x00, 0x10, 0x00, 0x00, 0x00, 0x0d, 0x00, 0x00, 0x00,
  0x18, 0x00, 0x00, 0x00, 0x74, 0xfd, 0xff, 0xff, 0x09, 0x00, 0x00, 0x00,
  0x64, 0x65, 0x70, 0x74, 0x68, 0x77, 0x69, 0x73, 0x65, 0x00, 0x00, 0x00,
  0x04, 0x00, 0x00, 0x00, 0x01, 0x00, 0x00, 0x00, 0x03, 0x00, 0x00, 0x00,
  0x03, 0x00, 0x00, 0x00, 0x40, 0x00, 0x00, 0x00, 0xbe, 0xfd, 0xff, 0xff,
  0x10, 0x00, 0x00, 0x00, 0x10, 0x00, 0x00, 0x00, 0x0c, 0x00, 0x00, 0x00,
  0x18, 0x00, 0x00, 0x00, 0xb0, 0xfd, 0xff, 0xff, 0x0b, 0x00, 0x00, 0x00,
  0x63, 0x6f, 0x6e, 0x76, 0x6f, 0x6c, 0x75, 0x74, 0x69, 0x6f, 0x6e, 0x00,
  0x04, 0x00, 0x00, 0x00, 0x40, 0x00, 0x00, 0x00, 0x03, 0x00, 0x00, 0x00,
  0x03, 0x00, 0x00, 0x00, 0x01, 0x00, 0x00, 0x00, 0xfa, 0xfd, 0xff, 0xff,
  0x10, 0x00, 0x00, 0x00, 0x10, 0x00, 0x00, 0x00, 0x0b, 0x00, 0x00, 0x00,
  0x14, 0x00, 0x00, 0x00, 0xec, 0xfd, 0xff, 0xff, 0x06, 0x00, 0x00, 0x00,
  0x4d, 0x61, 0x74, 0x4d, 0x75, 0x6c, 0x00, 0x00, 0x02, 0x00, 0x00, 0x00,
  0x02, 0x00, 0x00, 0x00, 0x20, 0x00, 0x00, 0x00, 0x2a, 0xfe, 0xff, 0xff,
  0x10, 0x00, 0x00, 0x00, 0x10, 0x00, 0x00, 0x00, 0x0a, 0x00, 0x00, 0x00,
  0x14, 0x00, 0x00, 0x00, 0x1c, 0xfe, 0xff, 0xff, 0x07, 0x00, 0x00, 0x00,
  0x43, 0x6f, 0x6e, 0x73, 0x74, 0x5f, 0x38, 0x00, 0x01, 0x00, 0x00, 0x00,
  0x02, 0x00, 0x00, 0x00, 0x56, 0xfe, 0xff, 0xff, 0x10, 0x00, 0x00, 0x00,
  0x10, 0x00, 0x00, 0x00, 0x09, 0x00, 0x00, 0x00, 0x14, 0x00, 0x00, 0x00,
  0x48, 0xfe, 0xff, 0xff, 0x07, 0x00, 0x00, 0x00, 0x43, 0x6f, 0x6e, 0x73,
  0x74, 0x5f, 0x35, 0x00, 0x01, 0x00, 0x00, 0x00, 0x20, 0x00, 0x00, 0x00,
  0x82, 0xfe, 0xff, 0xff, 0x10, 0x00, 0x00, 0x00, 0x10, 0x00, 0x00, 0x00,
  0x08, 0x00, 0x00, 0x00, 0x14, 0x00, 0x00, 0x00, 0x74, 0xfe, 0xff, 0xff,
  0x07, 0x00, 0x00, 0x00, 0x43, 0x6f, 0x6e, 0x73, 0x74, 0x5f, 0x33, 0x00,
  0x01, 0x00, 0x00, 0x00, 0x40, 0x00, 0x00, 0x00, 0xae, 0xfe, 0xff, 0xff,
  0x10, 0x00, 0x00, 0x00, 0x10, 0x00, 0x00, 0x00, 0x07, 0x00, 0x00, 0x00,
  0x14, 0x00, 0x00, 0x00, 0xa0, 0xfe, 0xff, 0xff, 0x07, 0x00, 0x00, 0x00,
  0x43, 0x6f, 0x6e, 0x73, 0x74, 0x5f, 0x31, 0x00, 0x01, 0x00, 0x00, 0x00,
  0x40, 0x00, 0x00, 0x00, 0x26, 0xff, 0xff, 0xff, 0x14, 0x00, 0x00, 0x00,
  0x14, 0x00, 0x00, 0x00, 0x06, 0x00, 0x00, 0x00, 0x00, 0x00, 0x00, 0x02,
  0x14, 0x00, 0x00, 0x00, 0xd0, 0xfe, 0xff, 0xff, 0x05, 0x00, 0x00, 0x00,
  0x43, 0x6f, 0x6e, 0x73, 0x74, 0x00, 0x00, 0x00, 0x02, 0x00, 0x00, 0x00,
  0x04, 0x00, 0x00, 0x00, 0x02, 0x00, 0x00, 0x00, 0x5a, 0xff, 0xff, 0xff,
  0x14, 0x00, 0x00, 0x00, 0x14, 0x00, 0x00, 0x00, 0x05, 0x00, 0x00, 0x00,
  0x00, 0x00, 0x00, 0x02, 0x1c, 0x00, 0x00, 0x00, 0x04, 0xff, 0xff, 0xff,
  0x0d, 0x00, 0x00, 0x00, 0x66, 0x6c, 0x61, 0x74, 0x74, 0x65, 0x6e, 0x2f,
  0x43, 0x6f, 0x6e, 0x73, 0x74, 0x00, 0x00, 0x00, 0x01, 0x00, 0x00, 0x00,
  0x02, 0x00, 0x00, 0x00, 0x92, 0xff, 0xff, 0xff, 0x14, 0x00, 0x00, 0x00,
  0x14, 0x00, 0x00, 0x00, 0x04, 0x00, 0x00, 0x00, 0x00, 0x00, 0x00, 0x02,
  0x14, 0x00, 0x00, 0x00, 0x3c, 0xff, 0xff, 0xff, 0x07, 0x00, 0x00, 0x00,
  0x73, 0x70, 0x6c, 0x69, 0x74, 0x5f, 0x32, 0x00, 0x01, 0x00, 0x00, 0x00,
  0x02, 0x00, 0x00, 0x00, 0xc2, 0xff, 0xff, 0xff, 0x14, 0x00, 0x00, 0x00,
  0x14, 0x00, 0x00, 0x00, 0x03, 0x00, 0x00, 0x00, 0x00, 0x00, 0x00, 0x02,
  0x20, 0x00, 0x00, 0x00, 0x6c, 0xff, 0xff, 0xff, 0x10, 0x00, 0x00, 0x00,
  0x74, 0x72, 0x61, 0x6e, 0x73, 0x70, 0x6f, 0x73, 0x65, 0x5f, 0x31, 0x2f,
  0x70, 0x65, 0x72, 0x6d, 0x00, 0x00, 0x00, 0x00, 0x01, 0x00, 0x00, 0x00,
  0x04, 0x00, 0x00, 0x00, 0x00, 0x00, 0x0e, 0x00, 0x18, 0x00, 0x14, 0x00,
  0x13, 0x00, 0x0c, 0x00, 0x08, 0x00, 0x04, 0x00, 0x0e, 0x00, 0x00, 0x00,
  0x14, 0x00, 0x00, 0x00, 0x14, 0x00, 0x00, 0x00, 0x02, 0x00, 0x00, 0x00,
  0x00, 0x00, 0x00, 0x02, 0x20, 0x00, 0x00, 0x00, 0xb8, 0xff, 0xff, 0xff,
  0x10, 0x00, 0x00, 0x00, 0x74, 0x72, 0x61, 0x6e, 0x73, 0x70, 0x6f, 0x73,
  0x65, 0x5f, 0x32, 0x2f, 0x70, 0x65, 0x72, 0x6d, 0x00, 0x00, 0x00, 0x00,
  0x01, 0x00, 0x00, 0x00, 0x04, 0x00, 0x00, 0x00, 0x00, 0x00, 0x0e, 0x00,
  0x14, 0x00, 0x10, 0x00, 0x00, 0x00, 0x0c, 0x00, 0x08, 0x00, 0x04, 0x00,
  0x0e, 0x00, 0x00, 0x00, 0x14, 0x00, 0x00, 0x00, 0x14, 0x00, 0x00, 0x00,
  0x01, 0x00, 0x00, 0x00, 0x28, 0x00, 0x00, 0x00, 0x04, 0x00, 0x04, 0x00,
  0x04, 0x00, 0x00, 0x00, 0x17, 0x00, 0x00, 0x00, 0x73, 0x65, 0x72, 0x76,
  0x69, 0x6e, 0x67, 0x5f, 0x64, 0x65, 0x66, 0x61, 0x75, 0x6c, 0x74, 0x5f,
  0x69, 0x6e, 0x70, 0x75, 0x74, 0x3a, 0x30, 0x00, 0x04, 0x00, 0x00, 0x00,
  0x01, 0x00, 0x00, 0x00, 0x01, 0x00, 0x00, 0x00, 0x0a, 0x00, 0x00, 0x00,
  0x97, 0x00, 0x00, 0x00, 0x07, 0x00, 0x00, 0x00, 0x88, 0x00, 0x00, 0x00,
  0x6c, 0x00, 0x00, 0x00, 0x58, 0x00, 0x00, 0x00, 0x3c, 0x00, 0x00, 0x00,
  0x28, 0x00, 0x00, 0x00, 0x18, 0x00, 0x00, 0x00, 0x04, 0x00, 0x00, 0x00,
  0xc8, 0xff, 0xff, 0xff, 0x09, 0x00, 0x00, 0x00, 0x09, 0x00, 0x00, 0x00,
  0x00, 0x00, 0x00, 0x09, 0xb0, 0xff, 0xff, 0xff, 0x28, 0x00, 0x00, 0x00,
  0x00, 0x00, 0x00, 0x28, 0xe4, 0xff, 0xff, 0xff, 0x04, 0x00, 0x00, 0x00,
  0x06, 0x00, 0x00, 0x00, 0x00, 0x00, 0x00, 0x04, 0xcc, 0xff, 0xff, 0xff,
  0x27, 0x00, 0x00, 0x00, 0x00, 0x00, 0x00, 0x27, 0x0c, 0x00, 0x10, 0x00,
  0x0f, 0x00, 0x00, 0x00, 0x08, 0x00, 0x04, 0x00, 0x0c, 0x00, 0x00, 0x00,
  0x03, 0x00, 0x00, 0x00, 0x05, 0x00, 0x00, 0x00, 0x00, 0x00, 0x00, 0x03,
  0xf4, 0xff, 0xff, 0xff, 0x16, 0x00, 0x00, 0x00, 0x00, 0x00, 0x00, 0x16,
  0x0c, 0x00, 0x0c, 0x00, 0x0b, 0x00, 0x00, 0x00, 0x00, 0x00, 0x04, 0x00,
  0x0c, 0x00, 0x00, 0x00, 0x22, 0x00, 0x00, 0x00, 0x00, 0x00, 0x00, 0x22
};
unsigned int results_seizure_binary_shallow_checkpoint_poi_8_fold_2_mobilenet_s_shallow_model_quant_dr_tflite_len = 11712;
