unsigned char results_seizure_binary_shallow_checkpoint_poi_12_fold_1_mobilenet_s_shallow_model_quant_dr_tflite[] = {
  0x1c, 0x00, 0x00, 0x00, 0x54, 0x46, 0x4c, 0x33, 0x14, 0x00, 0x20, 0x00,
  0x1c, 0x00, 0x18, 0x00, 0x14, 0x00, 0x10, 0x00, 0x0c, 0x00, 0x00, 0x00,
  0x08, 0x00, 0x04, 0x00, 0x14, 0x00, 0x00, 0x00, 0x1c, 0x00, 0x00, 0x00,
  0x80, 0x00, 0x00, 0x00, 0xb0, 0x00, 0x00, 0x00, 0x10, 0x20, 0x00, 0x00,
  0x20, 0x20, 0x00, 0x00, 0xf4, 0x2c, 0x00, 0x00, 0x03, 0x00, 0x00, 0x00,
  0x01, 0x00, 0x00, 0x00, 0x04, 0x00, 0x00, 0x00, 0x5a, 0xdd, 0xff, 0xff,
  0x0c, 0x00, 0x00, 0x00, 0x1c, 0x00, 0x00, 0x00, 0x38, 0x00, 0x00, 0x00,
  0x0f, 0x00, 0x00, 0x00, 0x73, 0x65, 0x72, 0x76, 0x69, 0x6e, 0x67, 0x5f,
  0x64, 0x65, 0x66, 0x61, 0x75, 0x6c, 0x74, 0x00, 0x01, 0x00, 0x00, 0x00,
  0x04, 0x00, 0x00, 0x00, 0xc4, 0xff, 0xff, 0xff, 0x1a, 0x00, 0x00, 0x00,
  0x04, 0x00, 0x00, 0x00, 0x06, 0x00, 0x00, 0x00, 0x6f, 0x75, 0x74, 0x70,
  0x75, 0x74, 0x00, 0x00, 0x01, 0x00, 0x00, 0x00, 0x04, 0x00, 0x00, 0x00,
  0x7e, 0xe0, 0xff, 0xff, 0x04, 0x00, 0x00, 0x00, 0x05, 0x00, 0x00, 0x00,
  0x69, 0x6e, 0x70, 0x75, 0x74, 0x00, 0x00, 0x00, 0x01, 0x00, 0x00, 0x00,
  0x0c, 0x00, 0x00, 0x00, 0x08, 0x00, 0x0c, 0x00, 0x08, 0x00, 0x04, 0x00,
  0x08, 0x00, 0x00, 0x00, 0x1c, 0x00, 0x00, 0x00, 0x04, 0x00, 0x00, 0x00,
  0x13, 0x00, 0x00, 0x00, 0x6d, 0x69, 0x6e, 0x5f, 0x72, 0x75, 0x6e, 0x74,
  0x69, 0x6d, 0x65, 0x5f, 0x76, 0x65, 0x72, 0x73, 0x69, 0x6f, 0x6e, 0x00,
  0x1d, 0x00, 0x00, 0x00, 0x5c, 0x1f, 0x00, 0x00, 0x54, 0x1f, 0x00, 0x00,
  0x34, 0x1f, 0x00, 0x00, 0x0c, 0x1f, 0x00, 0x00, 0xf4, 0x1e, 0x00, 0x00,
  0xdc, 0x1e, 0x00, 0x00, 0xac, 0x1e, 0x00, 0x00, 0x9c, 0x1d, 0x00, 0x00,
  0x8c, 0x1c, 0x00, 0x00, 0xfc, 0x1b, 0x00, 0x00, 0xe4, 0x1b, 0x00, 0x00,
  0xd4, 0x1a, 0x00, 0x00, 0xc4, 0x11, 0x00, 0x00, 0xb4, 0x08, 0x00, 0x00,
  0xa4, 0x00, 0x00, 0x00, 0x84, 0x00, 0x00, 0x00, 0x7c, 0x00, 0x00, 0x00,
  0x74, 0x00, 0x00, 0x00, 0x6c, 0x00, 0x00, 0x00, 0x64, 0x00, 0x00, 0x00,
  0x5c, 0x00, 0x00, 0x00, 0x54, 0x00, 0x00, 0x00, 0x4c, 0x00, 0x00, 0x00,
  0x44, 0x00, 0x00, 0x00, 0x3c, 0x00, 0x00, 0x00, 0x34, 0x00, 0x00, 0x00,
  0x2c, 0x00, 0x00, 0x00, 0x24, 0x00, 0x00, 0x00, 0x04, 0x00, 0x00, 0x00,
  0x3e, 0xe1, 0xff, 0xff, 0x04, 0x00, 0x00, 0x00, 0x10, 0x00, 0x00, 0x00,
  0x31, 0x2e, 0x36, 0x2e, 0x30, 0x00, 0x00, 0x00, 0x00, 0x00, 0x00, 0x00,
  0x00, 0x00, 0x00, 0x00, 0x7c, 0xd4, 0xff, 0xff, 0x80, 0xd4, 0xff, 0xff,
  0x84, 0xd4, 0xff, 0xff, 0x88, 0xd4, 0xff, 0xff, 0x8c, 0xd4, 0xff, 0xff,
  0x90, 0xd4, 0xff, 0xff, 0x94, 0xd4, 0xff, 0xff, 0x98, 0xd4, 0xff, 0xff,
  0x9c, 0xd4, 0xff, 0xff, 0xa0, 0xd4, 0xff, 0xff, 0xa4, 0xd4, 0xff, 0xff,
  0xa8, 0xd4, 0xff, 0xff, 0x8a, 0xe1, 0xff, 0xff, 0x04, 0x00, 0x00, 0x00,
  0x10, 0x00, 0x00, 0x00, 0x01, 0x00, 0x00, 0x00, 0x0c, 0x00, 0x00, 0x00,
  0x99, 0x00, 0x00, 0x00, 0x01, 0x00, 0x00, 0x00, 0xa6, 0xe1, 0xff, 0xff,
  0x04, 0x00, 0x00, 0x00, 0x00, 0x08, 0x00, 0x00, 0xc4, 0xf5, 0x0f, 0x4c,
  0xe9, 0x9a, 0xfa, 0xdd, 0x25, 0x17, 0x06, 0x13, 0x25, 0x1d, 0xbc, 0x7f,
  0x58, 0x33, 0x25, 0x3c, 0xd5, 0x83, 0x17, 0xdd, 0xa1, 0x3f, 0x0d, 0x22,
  0x2b, 0x49, 0xee, 0x1d, 0xa7, 0xfe, 0x56, 0x0e, 0xab, 0x10, 0x4b, 0x3d,
  0xe3, 0x43, 0x56, 0x31, 0x19, 0x29, 0xf9, 0x0c, 0x0a, 0x26, 0x5a, 0x1c,
  0x40, 0x4e, 0x8f, 0xa6, 0x0a, 0xb7, 0x99, 0xfc, 0xf7, 0x11, 0xf2, 0x0e,
  0x0d, 0xdf, 0xeb, 0x31, 0xea, 0xbc, 0xf3, 0x06, 0xe3, 0x11, 0x38, 0x15,
  0xf1, 0x20, 0xe2, 0x36, 0x4a, 0x32, 0x14, 0x3c, 0xe4, 0xae, 0x1b, 0xdc,
  0xbe, 0x38, 0x1b, 0x4e, 0x43, 0x36, 0x1f, 0x0b, 0xc6, 0xa1, 0x59, 0xfd,
  0xbe, 0xf0, 0x7f, 0x30, 0xf3, 0x37, 0x29, 0xec, 0x07, 0xf8, 0xfe, 0x04,
  0xe0, 0xf5, 0x24, 0xf9, 0x16, 0xe5, 0xbd, 0xc0, 0xfd, 0xe3, 0xbf, 0xe5,
  0xfa, 0x37, 0xaf, 0xfc, 0x33, 0xb2, 0xef, 0xf9, 0x50, 0x2f, 0xfc, 0x16,
  0x07, 0xdf, 0x06, 0x2c, 0x14, 0xbf, 0x10, 0x0f, 0x24, 0x5e, 0x24, 0x26,
  0x13, 0xe9, 0x03, 0x17, 0x18, 0x4e, 0x33, 0x10, 0x32, 0x2b, 0x20, 0x16,
  0xfa, 0xfd, 0x3a, 0x0e, 0xc7, 0x27, 0x2c, 0x36, 0x04, 0x40, 0x37, 0xfe,
  0x0b, 0x02, 0x18, 0xee, 0xd3, 0x30, 0x52, 0x22, 0x2e, 0xee, 0xca, 0x81,
  0xe1, 0xd9, 0xe1, 0xf0, 0xf1, 0x48, 0x0f, 0x09, 0x35, 0x4a, 0xb9, 0x4a,
  0x9e, 0x2b, 0x61, 0xf6, 0xee, 0x15, 0x02, 0xc0, 0xdb, 0xf2, 0xc1, 0xf4,
  0x24, 0xc8, 0xf2, 0xc0, 0x40, 0x20, 0x87, 0xe5, 0xe9, 0xd3, 0x34, 0x0a,
  0x27, 0x1e, 0xf5, 0x46, 0x3d, 0xbb, 0xd0, 0x81, 0x07, 0x40, 0xec, 0xc6,
  0x21, 0x53, 0xe8, 0xee, 0x45, 0x18, 0xbb, 0xb4, 0x31, 0x27, 0x27, 0x4e,
  0xc0, 0x58, 0x96, 0x5b, 0x52, 0x3b, 0x29, 0xd4, 0xaf, 0x3a, 0x5b, 0xf5,
  0x01, 0x02, 0xea, 0x1a, 0xfe, 0xd3, 0xf3, 0x05, 0x20, 0x0b, 0x08, 0x0a,
  0x19, 0x0b, 0xf2, 0x3a, 0x43, 0x39, 0x17, 0x23, 0xe6, 0x81, 0x19, 0x45,
  0xeb, 0x49, 0x08, 0x53, 0x30, 0x4d, 0x01, 0x1c, 0xa5, 0xe8, 0x34, 0xf4,
  0xb0, 0xe2, 0x7e, 0x1b, 0xfa, 0x31, 0x3f, 0xfe, 0x0e, 0xf8, 0xff, 0x16,
  0x00, 0xf5, 0x3f, 0x26, 0x2e, 0x24, 0xa6, 0x97, 0x07, 0xe8, 0xc3, 0xf2,
  0x0d, 0x0c, 0x04, 0x12, 0xfe, 0xc7, 0xe2, 0x2f, 0xfd, 0xbb, 0x21, 0x07,
  0x13, 0x01, 0x1b, 0x1b, 0x02, 0x0c, 0x05, 0x11, 0x2e, 0x3a, 0x04, 0x05,
  0xe7, 0xc9, 0x1c, 0xfd, 0xd7, 0x34, 0x03, 0x61, 0x5d, 0x1e, 0x18, 0xfa,
  0xac, 0x9e, 0x34, 0x26, 0xc4, 0x0b, 0x7f, 0x36, 0xf4, 0x41, 0x25, 0xe3,
  0x0a, 0xf0, 0x07, 0xe3, 0xed, 0x20, 0x5a, 0x0d, 0xe1, 0x00, 0xe4, 0x9f,
  0xfe, 0xfb, 0xd5, 0xb7, 0x07, 0x2a, 0xc3, 0xfa, 0xe5, 0xe3, 0xc4, 0x0a,
  0xec, 0xdb, 0xfd, 0xbe, 0xfa, 0xf5, 0x07, 0x12, 0xfd, 0xfc, 0xf0, 0x38,
  0xf2, 0x1b, 0xec, 0x22, 0xdf, 0xf7, 0x1e, 0xb8, 0x0a, 0x4b, 0xfb, 0x35,
  0x2d, 0x39, 0xe3, 0x1f, 0xc8, 0xe3, 0x4f, 0xed, 0xca, 0x00, 0x7f, 0x32,
  0x09, 0x12, 0x26, 0x34, 0x16, 0xbd, 0x11, 0x0c, 0xdf, 0xc1, 0x11, 0xb1,
  0x2a, 0xf4, 0xb8, 0x93, 0xe1, 0xd0, 0xbd, 0x1c, 0x1d, 0x15, 0x00, 0xdf,
  0x37, 0x9c, 0xf3, 0x01, 0x3e, 0x2b, 0x33, 0xf4, 0x29, 0xb1, 0x03, 0x3d,
  0x06, 0xae, 0x02, 0x30, 0xcb, 0x06, 0x2b, 0x0b, 0x05, 0x07, 0x0d, 0xda,
  0xb5, 0x32, 0x46, 0x1c, 0x29, 0xd4, 0x3b, 0x16, 0x06, 0xbc, 0x47, 0x55,
  0xd3, 0x29, 0x30, 0x4f, 0x45, 0x4b, 0x26, 0xfa, 0x2d, 0xe2, 0x06, 0xc3,
  0xc4, 0x4a, 0x50, 0x26, 0x28, 0xbe, 0xf4, 0xa2, 0xb7, 0x81, 0xe5, 0x04,
  0x0c, 0x4c, 0xe1, 0x33, 0x46, 0x32, 0x87, 0x46, 0xbd, 0x48, 0x4c, 0x1f,
  0xc7, 0x25, 0xfb, 0xd0, 0xf5, 0xe9, 0x82, 0xf5, 0xe9, 0xff, 0xec, 0xd2,
  0x41, 0x40, 0xae, 0xe7, 0xfa, 0xc5, 0x04, 0x03, 0x34, 0xe6, 0x3b, 0x43,
  0x4c, 0xcd, 0xeb, 0x9e, 0xfc, 0x3b, 0xd6, 0x81, 0x4d, 0x57, 0x0c, 0xea,
  0x60, 0x14, 0xe2, 0x89, 0x57, 0x34, 0x0f, 0x27, 0xde, 0x67, 0x83, 0x63,
  0x69, 0x1b, 0x2a, 0xec, 0x0a, 0x26, 0x68, 0x26, 0x15, 0x40, 0xbe, 0x5a,
  0xa7, 0x7f, 0x5a, 0xff, 0x05, 0x1a, 0x07, 0x9f, 0x04, 0x41, 0xb1, 0x02,
  0x1c, 0xf1, 0xf7, 0xd1, 0x51, 0x2c, 0x92, 0x32, 0xf5, 0xcd, 0x4a, 0x2d,
  0x2d, 0x19, 0x07, 0x54, 0x3f, 0xd9, 0xe5, 0x82, 0xf5, 0x6b, 0xc2, 0x84,
  0x5b, 0x54, 0xdb, 0xbb, 0x37, 0xd5, 0x8c, 0xb4, 0x4c, 0x33, 0xf5, 0x30,
  0x9b, 0x6a, 0x93, 0x61, 0x74, 0x2c, 0x2b, 0xc1, 0xbf, 0x26, 0x5d, 0xe8,
  0xd9, 0x16, 0xf9, 0x28, 0xdf, 0xee, 0xdf, 0xba, 0xfa, 0x35, 0xf3, 0x25,
  0xe0, 0xeb, 0x9b, 0x60, 0x7f, 0xd0, 0x4f, 0x1e, 0xee, 0xb1, 0x05, 0xda,
  0x85, 0x11, 0x2f, 0x02, 0xfc, 0x26, 0xc0, 0x0e, 0xe5, 0x43, 0x58, 0xed,
  0xb5, 0x15, 0x4b, 0x24, 0xee, 0x0e, 0x26, 0x66, 0x20, 0xf2, 0x09, 0x2e,
  0x23, 0x13, 0x04, 0x4e, 0xf3, 0xf9, 0xfc, 0xe9, 0x2b, 0xea, 0xd3, 0x18,
  0x0d, 0xf7, 0xf2, 0x4b, 0xea, 0xd3, 0xd0, 0x13, 0x12, 0xfc, 0xef, 0xb3,
  0x01, 0xef, 0xd6, 0x35, 0x07, 0xe6, 0xea, 0x5f, 0xd6, 0x1e, 0x0c, 0x3d,
  0xfa, 0xdc, 0x14, 0xab, 0xfd, 0x45, 0x21, 0x30, 0x41, 0x3f, 0xdf, 0x21,
  0xd1, 0xd5, 0x4d, 0x1b, 0xa1, 0x1e, 0x73, 0x68, 0x2d, 0x30, 0x2d, 0x0f,
  0xff, 0xa2, 0x17, 0x04, 0xdf, 0xf1, 0x7f, 0xb9, 0x3f, 0xef, 0xa5, 0xa2,
  0xd4, 0xac, 0xb9, 0x1b, 0x03, 0x3b, 0xee, 0xf7, 0x32, 0xbb, 0xdf, 0xfa,
  0x1b, 0xdf, 0x0d, 0xf6, 0x23, 0xc2, 0xe3, 0x32, 0x20, 0xe2, 0x32, 0x0b,
  0x34, 0x61, 0x20, 0x18, 0x1c, 0xe1, 0x00, 0xf4, 0x05, 0x36, 0x3b, 0x2c,
  0x18, 0x14, 0x19, 0x07, 0xe9, 0xce, 0x1f, 0x2d, 0xb9, 0x29, 0x41, 0x55,
  0x39, 0x22, 0x32, 0xfb, 0x0b, 0xcc, 0x10, 0xef, 0xf0, 0x14, 0x51, 0xfc,
  0x1e, 0x1e, 0xdc, 0x81, 0x01, 0x90, 0x03, 0xca, 0x03, 0x44, 0x15, 0x0c,
  0x4f, 0x4c, 0xab, 0x43, 0x95, 0x30, 0x5c, 0x37, 0xdd, 0x1d, 0xe1, 0xcf,
  0xbd, 0x0f, 0xb4, 0xeb, 0x22, 0xc2, 0x2d, 0xb9, 0x3c, 0x46, 0x8e, 0xf2,
  0xe5, 0xcc, 0x2c, 0xf8, 0x1e, 0x3d, 0xeb, 0x42, 0x31, 0xd5, 0xdf, 0x94,
  0x10, 0x52, 0xef, 0xd6, 0x04, 0x34, 0xcf, 0xca, 0x50, 0xd2, 0xd1, 0xa1,
  0x38, 0x4f, 0x3e, 0x4c, 0xfa, 0x56, 0xa3, 0x69, 0x47, 0x37, 0x30, 0xd3,
  0x81, 0x22, 0x55, 0xde, 0x22, 0x38, 0xb1, 0x47, 0xdd, 0x42, 0x3d, 0x0b,
  0xd9, 0x1a, 0x10, 0xcd, 0x1e, 0xde, 0xa8, 0xf0, 0xed, 0xfa, 0xf4, 0xc6,
  0x44, 0x47, 0xb1, 0xe8, 0xf3, 0xd4, 0x0d, 0xff, 0x2e, 0xee, 0x0d, 0x34,
  0x3c, 0xcf, 0xe3, 0xb2, 0x0c, 0x48, 0x00, 0x81, 0x32, 0x3d, 0xea, 0x1a,
  0x46, 0xd8, 0xc8, 0xbb, 0x4c, 0x35, 0xd6, 0x15, 0x0a, 0x62, 0xa6, 0x49,
  0x33, 0x20, 0x10, 0xe6, 0x16, 0x0f, 0x66, 0x1d, 0x18, 0x50, 0xa7, 0x50,
  0xdf, 0x5c, 0x4c, 0x27, 0xc5, 0x19, 0x1a, 0xbc, 0x27, 0xec, 0xa9, 0xf0,
  0xd9, 0xf4, 0xde, 0xc3, 0x43, 0x78, 0x97, 0xc4, 0xdb, 0xca, 0x0f, 0x23,
  0x3d, 0xf6, 0x34, 0x43, 0x45, 0xac, 0xe0, 0x81, 0x03, 0x1e, 0xf7, 0x9c,
  0x19, 0x59, 0xf5, 0xfc, 0x6f, 0x1d, 0xc3, 0xa3, 0x4a, 0x2e, 0x17, 0x1a,
  0xcb, 0x67, 0x90, 0x4c, 0x50, 0x34, 0x27, 0xeb, 0x08, 0x11, 0x6c, 0x4b,
  0xf9, 0x11, 0xee, 0x1c, 0xf1, 0xe6, 0x06, 0xf0, 0x2b, 0xee, 0x0d, 0x1b,
  0x12, 0x0c, 0x0f, 0xf9, 0x18, 0x0c, 0x12, 0xda, 0xdc, 0xfb, 0x1b, 0x20,
  0xe6, 0x05, 0x01, 0x3e, 0x07, 0x2e, 0x03, 0xf5, 0x81, 0xed, 0x0f, 0x0a,
  0xd8, 0x21, 0x4c, 0xfb, 0xea, 0x1b, 0x0b, 0x3a, 0xfe, 0x00, 0xf9, 0xff,
  0x00, 0x04, 0x48, 0xf9, 0x02, 0xf4, 0xcf, 0xf5, 0x1a, 0x09, 0xd2, 0xc0,
  0x24, 0x01, 0x09, 0x08, 0x0c, 0xcf, 0xe8, 0x0b, 0x1b, 0xf9, 0x1e, 0xd2,
  0x2f, 0xed, 0xe4, 0x14, 0x16, 0xce, 0x0b, 0x1f, 0x07, 0x29, 0x12, 0x11,
  0x06, 0x26, 0x03, 0xd0, 0x20, 0x3a, 0x16, 0x19, 0x1a, 0x1d, 0xd7, 0x0a,
  0xda, 0xd4, 0x1d, 0x1b, 0xcc, 0x08, 0x00, 0x46, 0x35, 0x18, 0x13, 0xf6,
  0x08, 0xfc, 0x1c, 0xef, 0xef, 0x11, 0x50, 0x02, 0x19, 0x0f, 0xd5, 0x81,
  0xde, 0xb3, 0xfd, 0xdf, 0x0c, 0x1d, 0xfe, 0x19, 0x28, 0xc3, 0xdf, 0x0c,
  0x2e, 0x2c, 0x26, 0xf0, 0x18, 0xca, 0xd3, 0x20, 0x14, 0xcc, 0x21, 0xf5,
  0xe5, 0x50, 0x19, 0x12, 0x22, 0x05, 0x02, 0xde, 0x0e, 0x23, 0x1b, 0x1c,
  0x1f, 0xf3, 0x23, 0xf8, 0xe9, 0xf6, 0x22, 0x0e, 0xeb, 0x1b, 0x0d, 0x49,
  0x36, 0x12, 0x1b, 0xf3, 0xf9, 0xd1, 0x03, 0xe9, 0xec, 0x1b, 0x3e, 0x21,
  0x19, 0xff, 0xec, 0x81, 0xec, 0xa8, 0x0e, 0xd4, 0xfd, 0x33, 0xfd, 0x02,
  0xf0, 0x1e, 0x01, 0x12, 0xd7, 0xe8, 0xfd, 0xd6, 0x01, 0x3a, 0x17, 0x02,
  0x0b, 0xf7, 0xba, 0x53, 0x5e, 0x1c, 0x30, 0x07, 0xb5, 0x81, 0x1b, 0x21,
  0xad, 0x1d, 0x06, 0x14, 0xf3, 0x47, 0xc6, 0x1b, 0xbc, 0xe7, 0x2b, 0xff,
  0xb3, 0x28, 0x77, 0x13, 0xe3, 0x14, 0x0a, 0x20, 0x10, 0xe5, 0xff, 0x27,
  0x26, 0x16, 0x32, 0x21, 0x02, 0x08, 0xbd, 0xd0, 0x0c, 0xeb, 0xcc, 0xff,
  0xec, 0xff, 0xf6, 0x2c, 0xff, 0xe5, 0xfa, 0xf8, 0x45, 0x3a, 0xe6, 0x09,
  0x46, 0xea, 0x8e, 0x4f, 0x30, 0xbd, 0x16, 0x2b, 0x1f, 0x55, 0x31, 0x36,
  0x41, 0xf7, 0xdb, 0xc8, 0x23, 0x31, 0x68, 0x26, 0x06, 0x0d, 0xe7, 0x05,
  0x16, 0x77, 0x2c, 0x31, 0xb3, 0x09, 0x03, 0x7a, 0x68, 0x07, 0x43, 0x31,
  0xec, 0xd2, 0x3f, 0x0b, 0xf9, 0x1c, 0x67, 0x1b, 0x0b, 0x39, 0x05, 0x81,
  0xfb, 0x9e, 0x18, 0xbc, 0xe0, 0x36, 0x00, 0x0f, 0xd4, 0x4f, 0xdb, 0x51,
  0xe0, 0x59, 0x48, 0xf3, 0xa9, 0xf2, 0x1b, 0xab, 0xff, 0xc5, 0xda, 0xf1,
  0xe5, 0xdf, 0xd3, 0xb8, 0x35, 0xf7, 0x90, 0xd9, 0xda, 0xb6, 0x13, 0x13,
  0x51, 0xd9, 0xe6, 0x51, 0x43, 0x81, 0xe1, 0x94, 0xfb, 0xd0, 0xf1, 0xb9,
  0xfb, 0x5d, 0xaa, 0x2a, 0x36, 0x3e, 0xb9, 0xc6, 0x49, 0x1e, 0xfb, 0x26,
  0xa0, 0x5a, 0x9d, 0x47, 0x2c, 0x47, 0x2e, 0xdb, 0x12, 0x2e, 0x69, 0x44,
  0xe9, 0x5d, 0xb3, 0x4a, 0xca, 0x21, 0x5b, 0xeb, 0xa1, 0x19, 0x07, 0xc4,
  0xf9, 0xa4, 0x9c, 0xe4, 0xdd, 0xdc, 0xe0, 0x9a, 0x5f, 0x2c, 0x83, 0xe3,
  0xe8, 0xb0, 0xef, 0x23, 0x3b, 0x29, 0x13, 0x47, 0x3e, 0x89, 0xe4, 0x9e,
  0x06, 0x2f, 0xd9, 0xa4, 0x0b, 0x67, 0xfb, 0x2d, 0x1e, 0x09, 0x91, 0xa3,
  0x44, 0x3b, 0x06, 0x2e, 0xf1, 0x70, 0x81, 0x4a, 0x10, 0x68, 0x34, 0xe8,
  0x09, 0x3a, 0x6d, 0x2b, 0x42, 0x38, 0xa2, 0x48, 0xcb, 0x5c, 0x33, 0x4a,
  0x09, 0x24, 0xf8, 0xd6, 0x2b, 0x3e, 0xac, 0x08, 0xfd, 0xf4, 0x02, 0xbe,
  0x2d, 0x66, 0xb4, 0x12, 0xfc, 0xc2, 0x1b, 0x15, 0x2f, 0x04, 0x1e, 0x3d,
  0x3b, 0xe0, 0xf7, 0xb7, 0xf8, 0xd2, 0xe7, 0x81, 0x22, 0x51, 0xfa, 0xa3,
  0x42, 0x1f, 0xec, 0xaa, 0x47, 0x21, 0x01, 0x32, 0x24, 0x62, 0xad, 0x50,
  0x76, 0x2d, 0x2a, 0xcc, 0xd8, 0x27, 0x6e, 0x01, 0xdc, 0xd9, 0xf7, 0x3a,
  0xec, 0xa2, 0x11, 0x0e, 0x0c, 0x0a, 0xfc, 0x27, 0x1b, 0x19, 0xef, 0x4b,
  0x47, 0x2e, 0x19, 0x1f, 0xe3, 0x81, 0x2c, 0x11, 0xb8, 0x2a, 0x17, 0x56,
  0x2b, 0x0f, 0x27, 0xe9, 0xac, 0xdf, 0x44, 0x02, 0xae, 0x05, 0x52, 0x33,
  0x01, 0x5e, 0x30, 0xea, 0x23, 0x33, 0xf2, 0xdd, 0xf6, 0x31, 0x1b, 0x11,
  0xfd, 0x1c, 0xe7, 0xca, 0x0a, 0xe6, 0xba, 0xa7, 0x14, 0x0b, 0xdf, 0x2d,
  0xf3, 0x49, 0x3a, 0x28, 0xca, 0x26, 0x33, 0xff, 0xd0, 0x09, 0xb4, 0xb0,
  0xff, 0xe2, 0x2c, 0x16, 0x39, 0xfb, 0xd9, 0xb8, 0x14, 0x2c, 0xdd, 0xea,
  0xe6, 0xe3, 0x27, 0xf1, 0x32, 0xca, 0xcb, 0x2b, 0x4f, 0xa1, 0xcd, 0xc2,
  0x06, 0xe6, 0x03, 0xc7, 0x07, 0x2f, 0x81, 0xda, 0xf2, 0x07, 0xa7, 0xff,
  0x41, 0xee, 0xe2, 0x2a, 0x8c, 0x29, 0xca, 0x2b, 0x29, 0x13, 0x0b, 0xcb,
  0xcb, 0x0e, 0x34, 0x01, 0x1a, 0x43, 0xd9, 0x46, 0xae, 0x3b, 0x5d, 0xfa,
  0xff, 0x15, 0xf0, 0xb5, 0x9c, 0x0c, 0xba, 0xfc, 0x0f, 0xe8, 0xe8, 0xe9,
  0x38, 0x2c, 0x92, 0xb6, 0xc9, 0xc5, 0x42, 0x0f, 0x3c, 0xfb, 0xce, 0x49,
  0x46, 0xd2, 0xf3, 0x9b, 0xfe, 0x3e, 0x08, 0xb3, 0x04, 0x5a, 0x9c, 0xea,
  0x41, 0x17, 0xbb, 0xbf, 0x40, 0x1c, 0x20, 0x44, 0xae, 0x62, 0xa2, 0x44,
  0x70, 0x28, 0x2c, 0xca, 0x81, 0x37, 0x5c, 0xfb, 0x31, 0x89, 0xee, 0x32,
  0x16, 0x0e, 0x19, 0x2d, 0x11, 0xcf, 0x10, 0x2f, 0x1f, 0xda, 0x20, 0x25,
  0x0f, 0x49, 0x2a, 0x11, 0x14, 0x09, 0x12, 0xdd, 0xc0, 0x42, 0x2a, 0x76,
  0x46, 0x0f, 0x40, 0xf2, 0xb7, 0x97, 0x5f, 0x0e, 0x95, 0xf6, 0x04, 0x7a,
  0x32, 0x62, 0x21, 0xf3, 0x17, 0x1e, 0x07, 0xca, 0xc3, 0x22, 0x7f, 0x04,
  0x38, 0xeb, 0xcf, 0x9a, 0x03, 0xc6, 0xc0, 0x98, 0x07, 0x4c, 0xbe, 0x10,
  0xe7, 0x21, 0x0f, 0x1c, 0xdc, 0xe6, 0xf7, 0xe3, 0x0a, 0x33, 0x34, 0x0d,
  0xf5, 0x05, 0xbc, 0x58, 0x4e, 0x0e, 0x33, 0x08, 0xbd, 0x94, 0x13, 0x05,
  0x81, 0x1e, 0x00, 0x12, 0xf0, 0x3e, 0xc0, 0x16, 0xc5, 0x03, 0x2e, 0x0a,
  0xb8, 0x24, 0x59, 0x1a, 0xf5, 0x18, 0x0b, 0x1e, 0x07, 0x04, 0xfc, 0x26,
  0x20, 0x13, 0x1e, 0x1c, 0xfa, 0xfd, 0xc6, 0xed, 0x0b, 0xf5, 0xc8, 0x04,
  0x00, 0x00, 0xe8, 0x3b, 0x22, 0xc1, 0xe1, 0xfd, 0x1a, 0x15, 0x15, 0xdb,
  0x2c, 0xc3, 0xe6, 0x33, 0x14, 0xd4, 0x24, 0x0b, 0x04, 0x1b, 0x18, 0x09,
  0x0c, 0xf3, 0xfe, 0xd3, 0xfb, 0x21, 0x30, 0x2c, 0x20, 0x01, 0x14, 0xf8,
  0xd0, 0xc0, 0x18, 0x34, 0xcc, 0x29, 0x33, 0x4b, 0x43, 0x14, 0x19, 0xf4,
  0x21, 0xc2, 0x08, 0xf2, 0xf8, 0x04, 0x45, 0x08, 0x16, 0x13, 0xe4, 0xb2,
  0x12, 0x81, 0x04, 0xc4, 0x0a, 0x3f, 0xf3, 0x19, 0x32, 0x3c, 0xa2, 0x36,
  0xe2, 0x3c, 0x4c, 0x17, 0xcf, 0x18, 0x0f, 0xd8, 0x02, 0xc0, 0x87, 0xf1,
  0xdc, 0xf7, 0x0f, 0xcf, 0x65, 0x53, 0xbf, 0xf8, 0xe0, 0xce, 0xc6, 0x0b,
  0x48, 0xe6, 0x36, 0x2c, 0x3d, 0xc6, 0xed, 0xa1, 0x0d, 0xe7, 0xf8, 0x9a,
  0x3a, 0x4b, 0x0d, 0x21, 0x48, 0x0c, 0xd8, 0x98, 0x4a, 0x2d, 0x1d, 0x0f,
  0xef, 0x7d, 0x81, 0x64, 0x51, 0x0e, 0x15, 0x01, 0xea, 0xf8, 0x67, 0x17,
  0x30, 0xb7, 0xe2, 0x1b, 0x22, 0xe5, 0x12, 0xdf, 0x2d, 0xbb, 0xd8, 0x3d,
  0x17, 0xdd, 0x2a, 0x0c, 0x1d, 0x20, 0x17, 0x07, 0x1a, 0xfb, 0xfe, 0xf7,
  0xf9, 0x32, 0x3d, 0x4e, 0x2c, 0xec, 0x2c, 0xfe, 0xb5, 0xbf, 0x24, 0x20,
  0xc7, 0x0c, 0x57, 0x53, 0x46, 0x20, 0x26, 0xe0, 0x24, 0xbf, 0x0b, 0xe2,
  0xee, 0x16, 0x36, 0xfa, 0x15, 0x26, 0xe0, 0xa3, 0x1c, 0x81, 0xff, 0xbf,
  0x02, 0x48, 0x02, 0x26, 0xb2, 0xe9, 0xff, 0xff, 0x04, 0x00, 0x00, 0x00,
  0x00, 0x09, 0x00, 0x00, 0xf4, 0xc5, 0xab, 0xbe, 0x02, 0xe4, 0x78, 0xbf,
  0xf5, 0xa5, 0xaa, 0xbc, 0x3a, 0xd2, 0x44, 0xbd, 0xb9, 0x6b, 0x46, 0xbf,
  0x40, 0x53, 0x81, 0x3e, 0x42, 0xfe, 0x79, 0x3f, 0xe8, 0x59, 0x48, 0xbd,
  0xa8, 0x17, 0x5d, 0xbe, 0xf7, 0x24, 0x14, 0x40, 0xea, 0x21, 0xb1, 0x3d,
  0x7a, 0x09, 0x3c, 0x40, 0xc3, 0x2c, 0x52, 0x3f, 0x7b, 0x1c, 0xde, 0xbf,
  0xf9, 0x1a, 0x4a, 0x3f, 0x46, 0x48, 0xf3, 0xbd, 0xe0, 0x47, 0xbc, 0xbf,
  0x74, 0x08, 0xca, 0xbf, 0x9c, 0x5f, 0x36, 0x3e, 0xe5, 0x71, 0xb0, 0xbd,
  0x1d, 0xdb, 0x98, 0x3e, 0x0c, 0xbf, 0x0f, 0x3f, 0xba, 0xf9, 0x7c, 0x40,
  0xe2, 0x27, 0x30, 0x3e, 0x4a, 0xb1, 0x86, 0x3f, 0xe3, 0xcc, 0x10, 0x40,
  0x88, 0xa1, 0x9b, 0xbe, 0x02, 0xf7, 0xdb, 0xbe, 0xec, 0x2d, 0x83, 0xbf,
  0xd3, 0x09, 0xd9, 0x3c, 0x5d, 0x25, 0x84, 0x3f, 0x8f, 0xcb, 0x21, 0xc0,
  0x80, 0xb0, 0x83, 0x3e, 0x44, 0x93, 0x31, 0xbe, 0x8c, 0xd9, 0x47, 0xc0,
  0x4b, 0x94, 0x76, 0xc0, 0x3a, 0xdc, 0x01, 0xbf, 0x6a, 0xe9, 0x17, 0xbd,
  0xfc, 0xcb, 0x5a, 0x3f, 0xeb, 0x5e, 0x32, 0x3f, 0x49, 0x44, 0x02, 0xbe,
  0xeb, 0x11, 0xd9, 0x3f, 0x5b, 0x71, 0xe5, 0x3e, 0x03, 0xab, 0x92, 0x3f,
  0x20, 0xd6, 0xda, 0x3e, 0x0e, 0x15, 0x61, 0xbe, 0xc0, 0xbf, 0x4a, 0x3f,
  0x9e, 0x70, 0x0a, 0x40, 0x42, 0x61, 0x98, 0x3f, 0x43, 0xe5, 0x51, 0x3e,
  0xc5, 0x97, 0xb9, 0x3d, 0xaf, 0xaa, 0xa0, 0x3e, 0xbd, 0x1d, 0x2d, 0xbe,
  0x65, 0xf8, 0x3e, 0x3e, 0x99, 0x8e, 0xec, 0x3f, 0xb5, 0x19, 0xaa, 0x3f,
  0xc6, 0x6f, 0xb3, 0xbf, 0x41, 0xa8, 0x4c, 0xbc, 0x44, 0x92, 0x14, 0xbf,
  0x3f, 0xf2, 0xbd, 0x3e, 0x60, 0x19, 0x86, 0x3f, 0x9a, 0x11, 0x0d, 0x3f,
  0xcd, 0xff, 0xb4, 0xbf, 0x05, 0x1e, 0x2b, 0x3f, 0x91, 0xfb, 0x46, 0xbe,
  0xc8, 0x4e, 0x0a, 0x3e, 0xc6, 0x50, 0x08, 0x3f, 0x50, 0x82, 0x1a, 0xbf,
  0x30, 0x61, 0xa9, 0xbe, 0x8e, 0xe1, 0xcf, 0xbd, 0x3e, 0xa3, 0xc5, 0x3f,
  0xb0, 0xb7, 0xdc, 0x3d, 0x94, 0x15, 0xb7, 0xbd, 0x68, 0xf4, 0xca, 0xbe,
  0xbb, 0x5b, 0xd3, 0xbd, 0xed, 0x58, 0x6d, 0x3f, 0x0e, 0x2e, 0x48, 0x3f,
  0xbe, 0x8c, 0x1d, 0xc0, 0x74, 0xe5, 0x34, 0xbf, 0xef, 0x31, 0x1a, 0xbd,
  0xcd, 0x80, 0x07, 0xbf, 0xd9, 0xeb, 0x40, 0x3f, 0x60, 0x9b, 0xb2, 0x3c,
  0x7f, 0xb6, 0xa2, 0xbd, 0xd4, 0x78, 0x15, 0x3f, 0xe4, 0xf1, 0x3b, 0xbe,
  0xac, 0x1a, 0x0d, 0x42, 0xb7, 0x31, 0xcf, 0x3f, 0xb5, 0x38, 0xfb, 0xbd,
  0xf3, 0x66, 0xfd, 0xc0, 0x91, 0x71, 0x75, 0x3e, 0x5e, 0x05, 0x69, 0x3d,
  0xd7, 0x7b, 0x6d, 0x3f, 0x56, 0x06, 0x12, 0xbf, 0x6a, 0x29, 0x5e, 0xbe,
  0xb1, 0xab, 0xb1, 0x3f, 0xcc, 0x56, 0xd5, 0xbe, 0x32, 0xc3, 0xd6, 0xbd,
  0xb9, 0xe5, 0x8a, 0xbc, 0x08, 0xc6, 0xab, 0x40, 0xfa, 0x6e, 0x44, 0x40,
  0x45, 0x9b, 0x4f, 0xbc, 0x65, 0xbb, 0x90, 0xbd, 0x3e, 0xc8, 0x20, 0x3f,
  0x20, 0xd6, 0x00, 0x3f, 0x92, 0x7b, 0x28, 0xc0, 0xad, 0x91, 0x7f, 0xc0,
  0x22, 0xe1, 0x6d, 0xbe, 0xff, 0xfd, 0x8e, 0xbf, 0xbf, 0xcc, 0x82, 0x3e,
  0xe4, 0x51, 0x0c, 0xbf, 0x5d, 0x5f, 0x9a, 0xbf, 0x95, 0xeb, 0x2b, 0xbf,
  0x0a, 0xeb, 0xca, 0xbc, 0xfd, 0x11, 0xc4, 0x3c, 0xe9, 0x31, 0x59, 0x3e,
  0x10, 0xda, 0x92, 0xbf, 0x85, 0xc1, 0x9e, 0x3f, 0xf9, 0xb6, 0xde, 0xbf,
  0xc9, 0x3d, 0x78, 0x3f, 0x06, 0x2e, 0xe1, 0xbf, 0x88, 0xe3, 0x22, 0xbf,
  0x94, 0x20, 0x2f, 0xbf, 0xf5, 0xcc, 0x24, 0x3f, 0xe9, 0xa2, 0x58, 0x3f,
  0xb0, 0x99, 0x0f, 0xbf, 0x6b, 0x6a, 0xe5, 0xbf, 0x3c, 0x4a, 0xa6, 0xbe,
  0x24, 0x75, 0xcc, 0x3c, 0x0c, 0xa7, 0xfd, 0x3e, 0x4b, 0x93, 0xdf, 0x3c,
  0x09, 0xc5, 0xda, 0x3e, 0x65, 0x42, 0x91, 0xbf, 0x74, 0xc4, 0x60, 0xbe,
  0xd6, 0xaa, 0x28, 0xc0, 0x3c, 0xf7, 0x9e, 0xbc, 0x41, 0x0a, 0x14, 0xbf,
  0xa7, 0x95, 0xd0, 0xbf, 0x31, 0x62, 0xf4, 0xbe, 0x59, 0xd5, 0xad, 0xbf,
  0x95, 0xa6, 0x91, 0x3e, 0x6f, 0x9b, 0xd9, 0x3e, 0x3d, 0x49, 0x04, 0x3e,
  0xcf, 0xc5, 0xaa, 0xbe, 0x69, 0xff, 0x03, 0xbf, 0xb9, 0x53, 0x69, 0xbc,
  0xdc, 0x33, 0x9c, 0x3a, 0xc4, 0x60, 0x9e, 0x3c, 0xd2, 0x64, 0x77, 0xbf,
  0x64, 0xb5, 0xef, 0xbe, 0xef, 0x35, 0x3a, 0x41, 0xf5, 0xb5, 0x05, 0x3f,
  0xc7, 0x18, 0x9e, 0xbe, 0xa5, 0x62, 0x97, 0x40, 0x70, 0x93, 0x92, 0xbe,
  0x53, 0x1e, 0x1f, 0x3d, 0xf7, 0xe9, 0xe3, 0xbf, 0x9f, 0xb3, 0x32, 0x3f,
  0x04, 0x3a, 0x5b, 0x3e, 0x70, 0xe8, 0xa8, 0x3f, 0xd6, 0x3e, 0x7e, 0xbe,
  0x83, 0x1c, 0x6b, 0x3e, 0x0d, 0x4e, 0x5b, 0x40, 0xd2, 0x53, 0x11, 0xc0,
  0x6a, 0x54, 0x1b, 0xc0, 0xc7, 0x6d, 0x0b, 0xbd, 0x40, 0xb6, 0x8e, 0xbf,
  0x82, 0x3c, 0x3e, 0x3e, 0xab, 0xc2, 0x19, 0xbf, 0x1d, 0x4b, 0x31, 0xbe,
  0x8c, 0xd4, 0xe5, 0x3f, 0x03, 0x2c, 0x1b, 0xbf, 0x7c, 0xe7, 0xb1, 0xbf,
  0x5a, 0xfe, 0x48, 0xbd, 0x78, 0x90, 0x98, 0xbe, 0xb9, 0x18, 0x20, 0xbf,
  0xcd, 0xb7, 0x08, 0xbf, 0xf4, 0x23, 0x3d, 0x3e, 0xe1, 0xd8, 0xe1, 0x3d,
  0x5b, 0x96, 0xc9, 0x3d, 0x7e, 0x22, 0x93, 0xbf, 0x82, 0x9a, 0xda, 0x3e,
  0x9e, 0xa9, 0x89, 0xbf, 0x23, 0x94, 0x38, 0xc0, 0xca, 0x71, 0xa3, 0xbf,
  0x95, 0x99, 0xcb, 0xbe, 0xe2, 0x6f, 0x91, 0x3f, 0x21, 0xc3, 0x7f, 0xbf,
  0xb6, 0x84, 0x48, 0x3f, 0x04, 0x93, 0xd8, 0x3d, 0xf2, 0x71, 0x04, 0x3f,
  0x30, 0x5e, 0xf7, 0x3e, 0x79, 0x66, 0xd6, 0xbd, 0xab, 0x0a, 0x07, 0x3f,
  0xcc, 0x3c, 0x92, 0xbe, 0xa4, 0xe2, 0x68, 0xbf, 0x68, 0x0e, 0x2a, 0xbf,
  0x1a, 0xa0, 0x08, 0x3f, 0x1f, 0x74, 0x3b, 0x40, 0x26, 0x78, 0xc7, 0xbe,
  0x2d, 0xcb, 0x2f, 0xbf, 0xad, 0x3b, 0x78, 0xbd, 0xdd, 0xb7, 0xc2, 0x3f,
  0xf2, 0x57, 0x01, 0x40, 0x7c, 0x09, 0xa1, 0x3e, 0x87, 0xf4, 0x86, 0x40,
  0x5c, 0x6c, 0x04, 0xbf, 0x2e, 0x1b, 0x02, 0xbf, 0x8f, 0x7f, 0xae, 0xbf,
  0xf2, 0xa3, 0x20, 0x3e, 0x43, 0x7e, 0x39, 0xbc, 0x96, 0x3a, 0x93, 0x3e,
  0xc0, 0x68, 0xf4, 0xbe, 0x43, 0x49, 0x11, 0x3f, 0x97, 0x17, 0xde, 0x40,
  0xe7, 0xdc, 0x86, 0x3e, 0xd7, 0x60, 0x2b, 0x3f, 0x73, 0x9a, 0xd1, 0xc0,
  0x0e, 0xed, 0xa9, 0x3d, 0xf4, 0x70, 0x12, 0xbf, 0xcd, 0xbc, 0xae, 0xbf,
  0xc7, 0x77, 0xbf, 0x3e, 0xde, 0xc7, 0x49, 0xbf, 0x63, 0xc4, 0x0c, 0x40,
  0x64, 0x92, 0x88, 0xbf, 0xf2, 0x5d, 0x1e, 0x3e, 0xc9, 0x68, 0x9b, 0x40,
  0x0f, 0x6a, 0xdd, 0x3f, 0x86, 0x39, 0xc8, 0x3f, 0xa7, 0x10, 0xc5, 0xbc,
  0xa9, 0xd5, 0x24, 0xbe, 0xee, 0xcf, 0xc4, 0xbf, 0x73, 0xd2, 0x1a, 0x3f,
  0xda, 0xcd, 0x01, 0xc0, 0x28, 0x66, 0xe9, 0xbe, 0x26, 0x0f, 0x07, 0x3f,
  0xc8, 0xf7, 0x29, 0x3f, 0x84, 0xc1, 0x07, 0xbe, 0xde, 0x67, 0x71, 0xbe,
  0xed, 0x38, 0x84, 0xbf, 0x37, 0xd4, 0x9e, 0xbf, 0xbf, 0x0c, 0x21, 0x3d,
  0xb7, 0x78, 0xd6, 0x3d, 0xbe, 0x68, 0x1f, 0x3e, 0xe0, 0xdb, 0xde, 0xbf,
  0xad, 0x0d, 0x6b, 0xbf, 0x8f, 0x87, 0x71, 0xbf, 0x0e, 0x9a, 0xe9, 0x3e,
  0x04, 0x72, 0x33, 0xbe, 0x34, 0x6c, 0xc4, 0x3d, 0xb1, 0x8a, 0x89, 0xbf,
  0xc0, 0x77, 0x98, 0xbf, 0x59, 0xa3, 0x89, 0xbf, 0x50, 0xb9, 0x67, 0x3f,
  0xeb, 0x4f, 0x1b, 0x3f, 0xb3, 0xc6, 0x81, 0x3f, 0xc8, 0x78, 0x0f, 0xbc,
  0x8e, 0xaa, 0xa9, 0xbf, 0x11, 0xa4, 0xac, 0x3f, 0xf2, 0x9b, 0xa0, 0xbd,
  0xf2, 0xb6, 0x47, 0xbf, 0xd5, 0xc0, 0x28, 0xbe, 0x8b, 0xe7, 0xdf, 0x3e,
  0x4e, 0x1b, 0x62, 0xbe, 0xc4, 0x46, 0x97, 0x3e, 0x77, 0x67, 0xa9, 0x3f,
  0xa5, 0xba, 0x8d, 0xbd, 0x8d, 0xfa, 0x8f, 0xbf, 0x0a, 0xca, 0x41, 0xbf,
  0x3e, 0x09, 0xdb, 0x3f, 0xa3, 0xea, 0x38, 0xbf, 0x9c, 0x89, 0x70, 0x3e,
  0xa4, 0x09, 0x3d, 0xbf, 0xbd, 0xc4, 0x69, 0x3d, 0x22, 0x5b, 0x81, 0x3f,
  0x8f, 0x3f, 0x1f, 0x3f, 0x7d, 0x79, 0x4c, 0xbe, 0x58, 0x11, 0xee, 0x3e,
  0x38, 0xd2, 0xfb, 0x41, 0x2c, 0x5f, 0x26, 0xbf, 0x31, 0xae, 0x62, 0x3e,
  0x19, 0xa0, 0x0e, 0xbf, 0xce, 0xe8, 0x00, 0x3e, 0xd4, 0xef, 0xaa, 0x3e,
  0xc7, 0xc5, 0x2f, 0xbf, 0xff, 0xb6, 0x38, 0xbf, 0x2f, 0x72, 0x02, 0xbe,
  0xcd, 0xaf, 0x20, 0xc0, 0x2f, 0x66, 0x1d, 0xbf, 0xe5, 0xb6, 0x52, 0x3e,
  0x12, 0x59, 0x0f, 0xc0, 0xfb, 0xae, 0x83, 0xbf, 0xf9, 0xdd, 0x28, 0xbf,
  0x06, 0x6f, 0x5b, 0xbb, 0x1a, 0x2a, 0x0a, 0x3f, 0x8b, 0x62, 0x27, 0xbf,
  0xb3, 0x29, 0x38, 0xbd, 0xae, 0x50, 0xf1, 0x3e, 0x88, 0x37, 0x8b, 0xbf,
  0x42, 0x75, 0x40, 0x3d, 0x42, 0xdb, 0x89, 0xbe, 0x8e, 0xb8, 0x68, 0xbe,
  0x9b, 0x81, 0xce, 0xbf, 0x63, 0x71, 0xb5, 0xbf, 0x35, 0x5e, 0x1b, 0xbf,
  0xfb, 0xac, 0x03, 0x3e, 0xdf, 0x5f, 0x04, 0x3e, 0x2b, 0xd4, 0x41, 0x3e,
  0xb8, 0x72, 0x9c, 0xbb, 0x5d, 0xac, 0x9e, 0xbf, 0x28, 0xcd, 0x87, 0x3f,
  0xad, 0x36, 0xdf, 0x3f, 0xa7, 0x8f, 0x6d, 0x3f, 0xb5, 0xc0, 0x05, 0x3f,
  0xce, 0xb8, 0x22, 0xbe, 0xb9, 0xfc, 0x11, 0xbd, 0xa0, 0x93, 0xf3, 0xbf,
  0xb8, 0xbb, 0x2f, 0xbe, 0x95, 0x05, 0x72, 0x3e, 0xd7, 0x49, 0x18, 0x3e,
  0x1e, 0xf0, 0x08, 0x3e, 0xa9, 0x39, 0x93, 0xbe, 0xb6, 0x06, 0x97, 0xbe,
  0x82, 0xfe, 0xc5, 0x3f, 0x4c, 0xd9, 0xaa, 0xbf, 0x5f, 0x1f, 0x38, 0xbf,
  0x7a, 0xd1, 0x20, 0xbf, 0x09, 0x87, 0xc1, 0xbe, 0xf8, 0x12, 0x01, 0xbf,
  0xec, 0x5a, 0x2b, 0xbf, 0xcf, 0xf0, 0x73, 0x3d, 0x52, 0x60, 0x0b, 0x3f,
  0xf5, 0x89, 0x54, 0xbf, 0xac, 0x19, 0x88, 0xbf, 0xb2, 0xbf, 0xd2, 0x3f,
  0x3d, 0x05, 0x1d, 0x3e, 0x55, 0xde, 0xed, 0xbe, 0x9b, 0x5e, 0xcf, 0xbe,
  0xdd, 0x0b, 0x10, 0x3f, 0x5a, 0xe8, 0x82, 0xbf, 0xf1, 0x14, 0x79, 0xbf,
  0xbf, 0xe3, 0x23, 0xbf, 0xe5, 0x2f, 0xf4, 0x41, 0x60, 0x3e, 0x03, 0x3e,
  0x41, 0xe8, 0x5e, 0xbf, 0x71, 0x25, 0xe0, 0x40, 0x20, 0x1d, 0x90, 0xbe,
  0x4f, 0x46, 0x36, 0x3e, 0x1f, 0x0f, 0x7b, 0x3f, 0xb4, 0x83, 0x33, 0xbf,
  0xa8, 0x33, 0x27, 0x3f, 0x09, 0x3b, 0x23, 0xbf, 0xec, 0x92, 0x88, 0x3f,
  0x06, 0x99, 0x15, 0xbe, 0x26, 0xd3, 0x48, 0xc0, 0xf4, 0x50, 0xeb, 0xbf,
  0xb8, 0xf0, 0xa5, 0xc0, 0x33, 0x20, 0x60, 0x3e, 0x8f, 0x24, 0xcb, 0xbe,
  0x6d, 0xa5, 0x09, 0xbf, 0xce, 0x79, 0xaf, 0x3d, 0xc2, 0xb5, 0x86, 0xbf,
  0x16, 0xde, 0x8c, 0x40, 0xa0, 0x64, 0x97, 0x3e, 0x76, 0xc4, 0xcd, 0xbd,
  0xd6, 0x31, 0xba, 0xbd, 0xb0, 0x88, 0xc0, 0x3e, 0x2b, 0x2e, 0xe3, 0x3c,
  0x8e, 0x6d, 0xce, 0x3f, 0xcd, 0x9e, 0x63, 0xbd, 0xdc, 0xad, 0xe8, 0x3c,
  0x4d, 0x17, 0x7f, 0x3e, 0xbb, 0x20, 0x7f, 0x3f, 0xec, 0x1b, 0xba, 0xbf,
  0xa0, 0x27, 0xbe, 0xbf, 0x71, 0xc3, 0x2a, 0xc0, 0x9f, 0xb3, 0x13, 0x3f,
  0x81, 0x39, 0x4c, 0xbc, 0xb1, 0x2b, 0x22, 0x3f, 0x19, 0x7d, 0x98, 0x3f,
  0xca, 0x1e, 0x84, 0xbf, 0xeb, 0x00, 0x33, 0xbf, 0x52, 0xc3, 0xbe, 0xbe,
  0x65, 0xfe, 0x8e, 0x3e, 0xf6, 0x08, 0xb3, 0x3d, 0x1a, 0x69, 0xca, 0x3f,
  0xa1, 0xdf, 0xca, 0xbd, 0x6e, 0x42, 0x1e, 0xbe, 0x4d, 0x09, 0x78, 0x3d,
  0x3d, 0xf1, 0x90, 0x3e, 0xdd, 0x98, 0xa9, 0xc0, 0x05, 0x25, 0x4c, 0xbd,
  0x94, 0x4a, 0x25, 0xbf, 0x10, 0x37, 0x84, 0x3f, 0xf3, 0x63, 0x20, 0xbf,
  0x3e, 0x84, 0xb2, 0x40, 0xac, 0x53, 0x01, 0x3f, 0x56, 0xa2, 0x4f, 0x3f,
  0x10, 0x88, 0x92, 0x3e, 0xa6, 0xe3, 0xd4, 0x3e, 0xcc, 0x8f, 0x5d, 0x3e,
  0xea, 0xe0, 0x9f, 0x40, 0x64, 0x62, 0x20, 0xbf, 0xb2, 0x7b, 0x20, 0xc0,
  0xa3, 0x41, 0xee, 0x3f, 0x33, 0x31, 0x3f, 0x3e, 0xcd, 0x83, 0xc5, 0x41,
  0xd4, 0x9b, 0xb0, 0x3d, 0xd9, 0x3d, 0x14, 0xbf, 0x1e, 0xca, 0x59, 0xbf,
  0x43, 0xaf, 0xc8, 0xbf, 0x93, 0x7b, 0x59, 0xbf, 0x92, 0xe8, 0xdb, 0x3e,
  0x2b, 0x81, 0x2b, 0x3f, 0x20, 0xe3, 0xf0, 0xbd, 0xb5, 0x4f, 0x56, 0xc0,
  0xb7, 0x52, 0x8d, 0x3f, 0xe9, 0x21, 0x59, 0xbe, 0x6e, 0x53, 0x9b, 0x3f,
  0xd8, 0x6c, 0x54, 0x41, 0xe1, 0x21, 0x9b, 0xbf, 0x94, 0x04, 0x9c, 0xbd,
  0x33, 0xac, 0xa9, 0xbf, 0x3a, 0x76, 0x92, 0x3f, 0x19, 0x79, 0x16, 0xbf,
  0x78, 0x38, 0xc6, 0xc0, 0x1c, 0x52, 0x8b, 0x40, 0x1f, 0x73, 0x82, 0x3f,
  0x9e, 0x3e, 0x01, 0x3f, 0x7d, 0x3d, 0xa9, 0xbe, 0xc1, 0x87, 0xce, 0x3e,
  0xd9, 0x20, 0x21, 0xc0, 0xca, 0x4a, 0xc2, 0xbf, 0x84, 0xf5, 0x07, 0xbe,
  0x2f, 0x77, 0xe8, 0x3d, 0x13, 0x43, 0x42, 0x3f, 0x81, 0xd2, 0xb6, 0x3f,
  0xe6, 0x25, 0xaa, 0x3e, 0x92, 0xd0, 0x1c, 0xbf, 0x6d, 0xbd, 0x41, 0xbf,
  0x45, 0x17, 0xe1, 0xbe, 0x69, 0xdb, 0x37, 0xc1, 0xaf, 0x5b, 0x08, 0xc0,
  0xaf, 0xfc, 0xf2, 0xbf, 0x86, 0x4c, 0x10, 0xc0, 0xef, 0x18, 0xb4, 0x3e,
  0x57, 0x06, 0xdc, 0xbf, 0x59, 0x40, 0x20, 0x3f, 0xe2, 0x04, 0x84, 0xbe,
  0x3d, 0x65, 0xe2, 0xbe, 0xb8, 0xfb, 0x81, 0x3f, 0x99, 0x1f, 0x15, 0x40,
  0x93, 0xbd, 0x65, 0x3f, 0xbc, 0x7f, 0x40, 0xbe, 0x76, 0xd6, 0xcb, 0x3f,
  0x7b, 0x11, 0x1d, 0x3d, 0xb6, 0x84, 0x99, 0x3c, 0x8f, 0xb1, 0xe6, 0xbe,
  0x8e, 0x0f, 0x81, 0x3f, 0xc4, 0xba, 0x70, 0x3e, 0x18, 0x08, 0x5c, 0xbf,
  0x9f, 0x00, 0x27, 0xbe, 0xb7, 0x03, 0xab, 0x3f, 0xd8, 0x39, 0x18, 0xbf,
  0xcf, 0xc5, 0x84, 0x3f, 0x06, 0x59, 0xc6, 0x40, 0x80, 0xdc, 0x17, 0x3d,
  0x96, 0x69, 0xcf, 0x3f, 0xb3, 0xd1, 0xaf, 0x3f, 0x9a, 0x2d, 0x21, 0xbf,
  0x31, 0x1d, 0x12, 0x42, 0x36, 0x43, 0x79, 0xbd, 0x3f, 0x89, 0xd1, 0x3e,
  0xc7, 0xf2, 0xdf, 0x40, 0x82, 0x01, 0x65, 0xbe, 0x72, 0x08, 0x6e, 0x3e,
  0xc3, 0x7b, 0x93, 0xbf, 0x05, 0x8b, 0xa1, 0xbe, 0xeb, 0x36, 0x28, 0x3f,
  0x96, 0x18, 0x9e, 0xc0, 0xf8, 0xb1, 0xb4, 0x3f, 0xd4, 0xb2, 0x04, 0xbf,
  0x4a, 0x68, 0x6f, 0xbe, 0xad, 0xaa, 0x28, 0x41, 0x0c, 0x2a, 0x2c, 0x40,
  0x33, 0xdb, 0xec, 0xbb, 0xf8, 0x3f, 0x9f, 0x3f, 0xcb, 0x58, 0x11, 0x3c,
  0x97, 0xd0, 0xcc, 0x3e, 0x43, 0x53, 0xa2, 0xc0, 0x96, 0xf4, 0x8a, 0x3f,
  0x76, 0x12, 0x1d, 0x3f, 0xdd, 0x8c, 0xcd, 0xbe, 0xac, 0x16, 0x62, 0xbf,
  0xad, 0x09, 0x8c, 0xbf, 0x2d, 0x44, 0xae, 0x3f, 0x8b, 0x31, 0x11, 0x40,
  0x5d, 0x94, 0x9e, 0x3c, 0x1c, 0xa7, 0x45, 0x3e, 0x85, 0x44, 0xe4, 0x3e,
  0xf8, 0x77, 0xe5, 0x3f, 0x91, 0x56, 0x78, 0x3d, 0xbf, 0xa8, 0x3d, 0xc0,
  0xea, 0x3c, 0x74, 0x3f, 0xec, 0x10, 0x32, 0x3f, 0xd6, 0x78, 0x1d, 0xc1,
  0x67, 0x4a, 0x58, 0x3f, 0x36, 0x4b, 0x03, 0xbf, 0x25, 0xaa, 0x69, 0x3f,
  0xb2, 0xe1, 0x3f, 0xbf, 0x72, 0x5f, 0x11, 0xbf, 0x91, 0x79, 0x05, 0x3e,
  0x2e, 0x00, 0xab, 0xbd, 0x71, 0xab, 0xeb, 0xbe, 0xd6, 0xef, 0xe7, 0xbe,
  0x26, 0x98, 0xa5, 0xbf, 0xca, 0x53, 0xa8, 0x3e, 0xcc, 0xb5, 0x2a, 0x3e,
  0xff, 0xa6, 0x67, 0xc0, 0x8e, 0x62, 0x97, 0x3e, 0x0b, 0x9e, 0x58, 0xbf,
  0xca, 0x3a, 0x56, 0xbe, 0x13, 0xa7, 0xae, 0xbc, 0xd1, 0xa9, 0x3b, 0xc0,
  0x33, 0xde, 0xfe, 0x3e, 0xf0, 0xe9, 0x02, 0x3e, 0xd6, 0x0f, 0x21, 0x40,
  0xe9, 0xe4, 0x55, 0x3e, 0xcb, 0xf3, 0x23, 0xbf, 0x19, 0xae, 0xcf, 0x40,
  0x68, 0x23, 0x2b, 0xbf, 0xf8, 0x7b, 0xd4, 0xbf, 0x09, 0x43, 0xb0, 0x3e,
  0xef, 0x64, 0x62, 0xbf, 0x2e, 0xfd, 0x11, 0x42, 0x73, 0xeb, 0x83, 0xbe,
  0x1c, 0xfe, 0x10, 0x3e, 0x37, 0xa9, 0x00, 0xc0, 0xf8, 0x66, 0xca, 0xbf,
  0x94, 0x19, 0x17, 0x3f, 0x9e, 0xb5, 0x9f, 0x3f, 0x88, 0x6b, 0x30, 0xbe,
  0x01, 0xc3, 0xd0, 0x3d, 0xfb, 0x23, 0x87, 0xc0, 0xdd, 0x62, 0x73, 0x40,
  0x0f, 0xcf, 0x12, 0xbe, 0x46, 0xce, 0xfa, 0x3f, 0x9f, 0x75, 0x41, 0x41,
  0xd7, 0x2e, 0xaf, 0x3f, 0xc0, 0x0b, 0x57, 0x3c, 0x4d, 0x21, 0x9a, 0xbe,
  0xa7, 0x0c, 0xcc, 0xbe, 0x94, 0x0b, 0x4f, 0xbf, 0xeb, 0x88, 0x30, 0x40,
  0xe2, 0x1f, 0x8c, 0xc0, 0x02, 0x7a, 0xf6, 0x3f, 0x8e, 0xc1, 0x84, 0xbf,
  0x8a, 0x34, 0x17, 0x3f, 0x82, 0xe1, 0x9d, 0xbe, 0x3d, 0x21, 0xea, 0x3f,
  0x0b, 0x5e, 0x63, 0xbd, 0xfc, 0x85, 0x5e, 0x3c, 0x05, 0x9f, 0x92, 0x3c,
  0x6e, 0x8f, 0x34, 0x3f, 0xe3, 0x8a, 0x89, 0x3f, 0x03, 0x57, 0x82, 0x3f,
  0xe5, 0x53, 0x3e, 0x3f, 0xaa, 0x88, 0x35, 0xc0, 0x17, 0x27, 0x6b, 0x3f,
  0xec, 0xc5, 0x80, 0xc1, 0x86, 0x95, 0xfa, 0x3f, 0xed, 0xfe, 0x81, 0xbf,
  0x4c, 0xda, 0x54, 0x3e, 0x93, 0x45, 0x0d, 0x3e, 0x2c, 0x7a, 0xdd, 0xbe,
  0xc5, 0xff, 0xbe, 0x3f, 0xbe, 0xf2, 0xff, 0xff, 0x04, 0x00, 0x00, 0x00,
  0x00, 0x09, 0x00, 0x00, 0xd1, 0x94, 0xf4, 0xbb, 0xda, 0x46, 0x2b, 0xbd,
  0x26, 0xfc, 0xc4, 0x3c, 0xe2, 0x82, 0x0c, 0xbc, 0xcc, 0x5d, 0x00, 0xbc,
  0x53, 0xc8, 0x2d, 0xbc, 0xcc, 0x0c, 0x99, 0x3c, 0x5c, 0x98, 0xb4, 0xbc,
  0x53, 0x6c, 0xb7, 0x3b, 0x68, 0xb5, 0x95, 0xbc, 0xde, 0xa2, 0xc9, 0xbc,
  0x71, 0x1b, 0x31, 0x3c, 0xfb, 0x77, 0x9b, 0x3b, 0x5f, 0x11, 0x09, 0x3d,
  0x6a, 0xc5, 0x6b, 0xbc, 0x26, 0x42, 0xf1, 0xbc, 0x7e, 0xd7, 0xfb, 0x3b,
  0xc0, 0x75, 0x45, 0x3c, 0x5c, 0x8f, 0x61, 0x3c, 0x67, 0x39, 0x9e, 0x3c,
  0x3e, 0x47, 0xb9, 0x3b, 0x6e, 0xfe, 0xb2, 0x3b, 0x92, 0x55, 0xd6, 0x3b,
  0x28, 0x2a, 0x4a, 0x3b, 0x2f, 0xe3, 0x7f, 0x3c, 0xa6, 0x3e, 0xdd, 0x3b,
  0x5f, 0x02, 0x13, 0x3c, 0xb1, 0x0d, 0x04, 0x3b, 0x26, 0xab, 0x62, 0x3c,
  0xab, 0xb4, 0xb9, 0x3b, 0x51, 0x1f, 0x83, 0x3b, 0xee, 0x40, 0xe5, 0xbb,
  0x69, 0x76, 0x16, 0xbc, 0x03, 0x60, 0xa3, 0x3a, 0x56, 0x86, 0x19, 0x3c,
  0x52, 0x14, 0x3e, 0x3c, 0xd1, 0xc3, 0xd2, 0x3b, 0x5b, 0x9e, 0x08, 0xbb,
  0xf3, 0xf4, 0x77, 0xbc, 0xa7, 0x13, 0x03, 0xbb, 0x24, 0x55, 0x6a, 0xbc,
  0xfa, 0x70, 0xaf, 0x3b, 0x51, 0x5c, 0xfc, 0x3b, 0x24, 0xc5, 0x91, 0xbc,
  0x4c, 0xfd, 0x02, 0xbd, 0x3c, 0xe7, 0x11, 0xbc, 0x97, 0xda, 0x8f, 0xbd,
  0x3f, 0xb2, 0x8d, 0xbd, 0xcb, 0x30, 0x2e, 0xbc, 0xa9, 0x8f, 0x9e, 0x3b,
  0xeb, 0xae, 0xf5, 0x37, 0x57, 0x82, 0x0a, 0xbc, 0x2a, 0xc5, 0x1f, 0xbd,
  0xb5, 0x3c, 0x15, 0xbd, 0x06, 0xd7, 0x78, 0xbb, 0x13, 0x52, 0x2a, 0x3c,
  0x1a, 0x02, 0xee, 0x3b, 0xa0, 0x39, 0xa0, 0xbb, 0x6c, 0xaa, 0x66, 0x3c,
  0x33, 0xd8, 0xd3, 0xbb, 0x81, 0x9e, 0x51, 0xba, 0xa7, 0x9c, 0x47, 0x3c,
  0x72, 0x1f, 0x4b, 0xba, 0xdf, 0x8b, 0x00, 0xbb, 0xef, 0x93, 0x83, 0xbb,
  0xfe, 0x36, 0x49, 0xbb, 0x76, 0xaa, 0xcd, 0xb9, 0xba, 0xad, 0x88, 0xbb,
  0xc1, 0xdc, 0x73, 0xbb, 0xcb, 0xbe, 0xcf, 0x3a, 0x4f, 0xca, 0x3c, 0xba,
  0xee, 0x60, 0x5b, 0x3a, 0x0e, 0x77, 0xd6, 0x3c, 0x12, 0x4d, 0x09, 0xb8,
  0xa3, 0xab, 0x07, 0x3d, 0x52, 0xe3, 0x1c, 0x3b, 0x2d, 0xd9, 0x5c, 0xbc,
  0xc1, 0xb2, 0xc8, 0xb9, 0xbf, 0xc0, 0x7e, 0xbc, 0xe4, 0xc3, 0xab, 0xbc,
  0x0c, 0x00, 0x72, 0xbc, 0x9d, 0xdd, 0x68, 0x3b, 0xd1, 0x22, 0x89, 0xbb,
  0x28, 0x4c, 0xa6, 0xbb, 0x53, 0x90, 0x76, 0x3b, 0xf6, 0x57, 0xcc, 0x3b,
  0x0e, 0xff, 0xa6, 0x3b, 0x89, 0x07, 0x0a, 0x3c, 0xd2, 0xf8, 0xbe, 0x3b,
  0xc9, 0xdb, 0x0c, 0x3c, 0x93, 0x68, 0x83, 0x3b, 0x27, 0x14, 0x9f, 0x3a,
  0xca, 0x80, 0x20, 0xba, 0xcf, 0x33, 0x80, 0x3b, 0xaf, 0xd1, 0xac, 0x3b,
  0xb9, 0x1a, 0x35, 0x3b, 0x71, 0xe5, 0xda, 0xbb, 0x2b, 0x50, 0xcb, 0x3a,
  0x2d, 0x91, 0xa2, 0xbb, 0x5c, 0xaa, 0x26, 0x3b, 0xea, 0x8d, 0x49, 0x3c,
  0x8c, 0xf7, 0x84, 0x3b, 0x7e, 0x07, 0xc2, 0x3b, 0xa0, 0x11, 0x3c, 0xbc,
  0x2c, 0x8d, 0xfe, 0x3b, 0xd3, 0x93, 0x8d, 0xbb, 0xef, 0x28, 0x71, 0xbc,
  0x4b, 0xba, 0xfa, 0xbb, 0x61, 0xd6, 0x76, 0xbb, 0x81, 0x7f, 0x82, 0xbb,
  0x70, 0x34, 0x0a, 0x3b, 0x67, 0x4e, 0x91, 0x3b, 0xd3, 0x56, 0xf0, 0xba,
  0x92, 0x08, 0x63, 0x3a, 0xb3, 0x5f, 0x09, 0xbc, 0xba, 0xe3, 0x42, 0xbb,
  0x48, 0x23, 0x53, 0xbb, 0xc8, 0x7a, 0x71, 0xbb, 0x3a, 0x33, 0x03, 0x3b,
  0x35, 0x8f, 0xd2, 0xbb, 0x93, 0xa2, 0x7c, 0x3b, 0xb6, 0x43, 0x0b, 0xba,
  0xea, 0x88, 0x94, 0x3b, 0x9d, 0xe5, 0x25, 0xbc, 0x80, 0x54, 0x55, 0xbc,
  0xd3, 0xd2, 0x0b, 0xbc, 0x95, 0xde, 0xbb, 0xba, 0xbd, 0x00, 0xb4, 0xba,
  0xc0, 0xbd, 0x1d, 0xba, 0xbe, 0x2d, 0x08, 0x3c, 0xda, 0x35, 0x81, 0x3b,
  0x2e, 0x0c, 0x0e, 0x3c, 0xc5, 0xe8, 0xdf, 0x3b, 0x92, 0x6e, 0x4e, 0x3c,
  0x18, 0x3d, 0xc3, 0xba, 0x86, 0xba, 0xeb, 0xbd, 0x10, 0xd6, 0x7c, 0xbc,
  0xca, 0x4a, 0x81, 0x3c, 0xe9, 0x52, 0x98, 0x3c, 0xa1, 0x33, 0x00, 0x3d,
  0x17, 0xbe, 0xd1, 0x3a, 0x08, 0x96, 0xef, 0x3d, 0x8e, 0xff, 0xf2, 0x3c,
  0x4a, 0xe8, 0xba, 0xbc, 0x09, 0x31, 0x8e, 0xbc, 0x39, 0x87, 0x63, 0xbc,
  0x72, 0xbc, 0x74, 0xbc, 0x85, 0xa1, 0xd4, 0x3b, 0xc4, 0x5e, 0x0d, 0xbb,
  0x4b, 0x64, 0xc3, 0x3b, 0x5c, 0x4d, 0x55, 0x3b, 0x3f, 0x33, 0x2a, 0x3c,
  0x6b, 0x3f, 0x88, 0x39, 0x75, 0x5a, 0xf7, 0xb7, 0x1c, 0x10, 0x55, 0xbd,
  0x3b, 0x13, 0x04, 0x3c, 0xd4, 0xbe, 0x10, 0xbc, 0x67, 0x79, 0xef, 0x3a,
  0x2d, 0x7a, 0x39, 0x3c, 0x64, 0x3a, 0x6a, 0x3c, 0xa6, 0x70, 0x5b, 0x3d,
  0x6b, 0x47, 0x69, 0xbc, 0xca, 0x71, 0xb4, 0x3b, 0xbc, 0xcc, 0xb2, 0xbb,
  0x32, 0x4c, 0x30, 0x3b, 0x76, 0x94, 0xf3, 0xbb, 0x59, 0xce, 0xef, 0x3b,
  0xb1, 0x3c, 0xfc, 0xbb, 0xaf, 0x4d, 0xad, 0xbb, 0xc9, 0x70, 0x23, 0xbb,
  0x3b, 0xf0, 0x62, 0x39, 0x86, 0x19, 0x0b, 0x3d, 0x6d, 0xf8, 0x54, 0xbd,
  0x82, 0xdf, 0x7f, 0xbc, 0x72, 0x0c, 0xe8, 0xba, 0xe6, 0xc0, 0x49, 0xbb,
  0x23, 0x40, 0x1b, 0xbc, 0xe3, 0xbf, 0xb9, 0xbb, 0x54, 0xbe, 0xc6, 0xbc,
  0x4f, 0x9c, 0x07, 0x3d, 0x02, 0x02, 0x88, 0xbb, 0xed, 0x82, 0xf9, 0xba,
  0x40, 0x7e, 0xf2, 0xbb, 0xb4, 0xc4, 0xc6, 0x3b, 0x9a, 0xa4, 0x9d, 0xbc,
  0x45, 0xf8, 0xe8, 0x3b, 0xf8, 0xc8, 0x8f, 0x3b, 0x88, 0x45, 0xaa, 0xbc,
  0x88, 0xda, 0x95, 0x3c, 0xca, 0x99, 0xfa, 0x3b, 0x01, 0x57, 0x4b, 0x3b,
  0xe5, 0xf7, 0x18, 0x3c, 0x98, 0xb2, 0xa2, 0x3b, 0x48, 0x06, 0x86, 0x3a,
  0x3c, 0x00, 0x00, 0x3c, 0xfe, 0x8c, 0x31, 0x3b, 0x2d, 0x71, 0x89, 0x3b,
  0xaa, 0xdc, 0xb4, 0xba, 0x4e, 0x1a, 0x6f, 0x3c, 0x2e, 0x9c, 0xe2, 0x35,
  0xfe, 0xc8, 0x84, 0x39, 0xa7, 0x05, 0xab, 0xbb, 0xd4, 0x21, 0x24, 0x3b,
  0xcc, 0x9d, 0x31, 0x3b, 0xbb, 0x27, 0x41, 0xbc, 0x3c, 0xd1, 0x1c, 0xbb,
  0x93, 0x57, 0xbe, 0xba, 0x51, 0x19, 0xde, 0xb8, 0x51, 0x19, 0x8c, 0xba,
  0x47, 0x72, 0x12, 0xbb, 0x4a, 0xfd, 0x1a, 0xbb, 0xcd, 0x67, 0x42, 0x3c,
  0x8f, 0x69, 0x5f, 0x3b, 0x2a, 0x32, 0x0e, 0xbc, 0x22, 0x3b, 0x46, 0xbb,
  0x42, 0x9d, 0x19, 0xbc, 0x5d, 0x57, 0xfb, 0xb9, 0x79, 0x62, 0xe9, 0x3b,
  0xd2, 0x4a, 0xd7, 0x3a, 0x9c, 0x08, 0x40, 0x3c, 0x82, 0xbf, 0x5a, 0x3c,
  0xf7, 0xfd, 0x89, 0xbc, 0x55, 0x5d, 0x34, 0xbc, 0x45, 0xe4, 0x4f, 0x3c,
  0x7c, 0x6d, 0xc9, 0xbb, 0x0d, 0x4c, 0x82, 0xbb, 0xf2, 0xb3, 0xf6, 0x3b,
  0x54, 0xa7, 0xb3, 0x3b, 0x05, 0xeb, 0x63, 0x3b, 0xfd, 0xb5, 0x98, 0x3b,
  0x78, 0x75, 0xb3, 0xba, 0xe8, 0xca, 0xef, 0xbb, 0x9c, 0xed, 0x4f, 0x3b,
  0x43, 0x68, 0x98, 0xba, 0x31, 0x7e, 0x1f, 0xbb, 0x19, 0x41, 0x2d, 0x3c,
  0xdf, 0x02, 0x81, 0x3c, 0x48, 0x74, 0xab, 0xbc, 0xcf, 0xd4, 0xd2, 0xbc,
  0xfd, 0x32, 0x9f, 0x3c, 0x80, 0xde, 0x38, 0xbd, 0x38, 0x15, 0x60, 0xbb,
  0xa0, 0xd7, 0xc0, 0x3b, 0x5a, 0x8a, 0x44, 0x3c, 0x24, 0x33, 0x6b, 0x3c,
  0x44, 0x8a, 0xe0, 0xbb, 0x54, 0x06, 0xb9, 0x3c, 0x26, 0xb8, 0x54, 0x3b,
  0xcb, 0xd3, 0xb1, 0xbc, 0x8b, 0xdd, 0xaf, 0x3d, 0xea, 0x9f, 0x5a, 0x3d,
  0x61, 0xdc, 0xc9, 0xbc, 0x93, 0x50, 0xbf, 0xba, 0x51, 0x7e, 0xaf, 0xbb,
  0xbc, 0xbc, 0x08, 0x3b, 0x95, 0xd9, 0x0f, 0xbc, 0x93, 0xed, 0x55, 0xbb,
  0x59, 0x83, 0x18, 0xba, 0xc7, 0x7b, 0x72, 0xbc, 0xb3, 0x10, 0x15, 0xbb,
  0x9b, 0x93, 0xd5, 0xba, 0xc9, 0xd9, 0xb2, 0x3b, 0x35, 0xaa, 0x44, 0xbb,
  0xfb, 0xdf, 0x3d, 0xb8, 0x1c, 0x9f, 0x6f, 0x3b, 0x1c, 0x27, 0xb7, 0x3b,
  0x80, 0xcf, 0x4c, 0xbc, 0xd1, 0x59, 0x10, 0x39, 0x36, 0x0e, 0x58, 0x3c,
  0xcb, 0xda, 0x82, 0xbb, 0x37, 0x1a, 0x9f, 0x3b, 0x36, 0xf7, 0x19, 0x3c,
  0xae, 0x39, 0x76, 0xbc, 0x46, 0x6d, 0xb5, 0x3c, 0x0c, 0xa2, 0x6f, 0xbb,
  0xa1, 0x92, 0x03, 0x3b, 0xe5, 0x7a, 0x8d, 0xba, 0x69, 0x2b, 0x50, 0xbb,
  0x4b, 0x1d, 0xa5, 0xbc, 0x1a, 0xc3, 0xf7, 0x3b, 0x3c, 0x4f, 0x19, 0xba,
  0xa8, 0x5f, 0x7a, 0xbc, 0x8d, 0x8a, 0x8e, 0x3c, 0xdf, 0x24, 0xf9, 0xbb,
  0xfb, 0x70, 0x00, 0x3a, 0xea, 0x6e, 0xad, 0xbb, 0x34, 0x81, 0x81, 0x3b,
  0xe0, 0xf3, 0xcf, 0x3b, 0x40, 0x00, 0xbf, 0x3b, 0xfe, 0x57, 0x3b, 0x3c,
  0x10, 0x47, 0x0e, 0xbc, 0x7f, 0xf6, 0x51, 0xbc, 0x4d, 0x03, 0xe0, 0xbb,
  0x92, 0x7d, 0x31, 0xbb, 0xd7, 0x49, 0xf3, 0xbb, 0x13, 0x81, 0xf6, 0x3b,
  0x22, 0x18, 0xa4, 0x3a, 0xa0, 0xf8, 0xbd, 0x3c, 0xec, 0xe0, 0x31, 0x3c,
  0xb6, 0x7e, 0x5b, 0xbb, 0xcb, 0xac, 0x86, 0x3c, 0x6e, 0xe7, 0x80, 0x3c,
  0x73, 0xa6, 0xfb, 0xba, 0xda, 0x32, 0x76, 0x3a, 0x88, 0x96, 0xdf, 0x3c,
  0x59, 0x3e, 0x99, 0xba, 0xd2, 0xb8, 0x06, 0x3a, 0x9c, 0x24, 0xf0, 0x3b,
  0x00, 0xbe, 0x59, 0x3c, 0x26, 0x04, 0xef, 0x3a, 0x18, 0xf7, 0xe2, 0x3b,
  0xa9, 0x6b, 0xb1, 0xbb, 0x9c, 0x43, 0x8e, 0xbc, 0xd7, 0x3f, 0xa6, 0xbb,
  0xad, 0x20, 0x42, 0xbc, 0x68, 0x06, 0x43, 0xbb, 0x28, 0x9f, 0x92, 0xb9,
  0xe5, 0x3b, 0xb6, 0x3b, 0xa8, 0xa2, 0x96, 0x3b, 0x65, 0xce, 0x86, 0x37,
  0x1a, 0xf1, 0x48, 0x3b, 0xe0, 0x38, 0x4e, 0xbb, 0xe0, 0x77, 0xe8, 0xbb,
  0x3d, 0x28, 0x61, 0x38, 0x41, 0x6d, 0x6f, 0x3c, 0xf7, 0xb5, 0xc3, 0xbb,
  0xdc, 0x1e, 0x3a, 0x3b, 0x76, 0x78, 0xbc, 0x3b, 0xa9, 0x7b, 0x3c, 0xbb,
  0xdc, 0x8d, 0xa0, 0x3b, 0xfc, 0x56, 0x56, 0x3b, 0x3d, 0x99, 0xbc, 0xbc,
  0xc8, 0xcf, 0x64, 0x3c, 0x48, 0x50, 0x63, 0xbb, 0x83, 0x15, 0x3c, 0xbb,
  0xa3, 0xa1, 0x74, 0x3b, 0x03, 0x81, 0x00, 0xba, 0xb9, 0x9f, 0x06, 0xbc,
  0x36, 0x10, 0xf1, 0xbb, 0xce, 0x33, 0xf6, 0x3b, 0xf3, 0x9b, 0xd9, 0x3b,
  0xf5, 0xe3, 0xdf, 0xbb, 0xd4, 0xab, 0x1f, 0xbc, 0xd4, 0xc6, 0xda, 0xbc,
  0x17, 0x61, 0xaf, 0xba, 0x4c, 0xf2, 0x1a, 0x3b, 0x41, 0x7e, 0x09, 0x3c,
  0x0c, 0xcf, 0x58, 0xbc, 0x01, 0x12, 0x8c, 0xbb, 0xdf, 0xab, 0x03, 0x3c,
  0xbe, 0x34, 0xa9, 0xbb, 0xfa, 0x79, 0x27, 0xbb, 0x44, 0xd9, 0xb2, 0xbc,
  0xf0, 0x9a, 0x37, 0x3d, 0xe3, 0xa1, 0x4c, 0xbc, 0xbe, 0x6e, 0x01, 0x3d,
  0xf8, 0x54, 0x50, 0xbc, 0x02, 0x0d, 0x2f, 0xbd, 0xb0, 0x76, 0x31, 0x3c,
  0xd4, 0x18, 0x09, 0xbd, 0xdc, 0x35, 0x80, 0xbc, 0x47, 0x52, 0x95, 0xbc,
  0x2f, 0x20, 0xc3, 0xbb, 0x3d, 0x44, 0x10, 0x3c, 0xf9, 0x28, 0x5b, 0xba,
  0xf9, 0x3c, 0xfd, 0x3a, 0x66, 0xbe, 0xfe, 0x3a, 0x3e, 0xd7, 0x7c, 0x3c,
  0xa6, 0xb5, 0x11, 0x3c, 0x00, 0x85, 0x96, 0xb9, 0xe3, 0xbe, 0x97, 0xba,
  0xc7, 0xcb, 0xd2, 0x3b, 0xf2, 0x4a, 0x11, 0xbc, 0xd5, 0x75, 0x5e, 0xbb,
  0x38, 0xac, 0xc0, 0x3b, 0x75, 0xf7, 0xd8, 0xbb, 0x23, 0x8a, 0x8b, 0xbb,
  0x2c, 0xa7, 0x8d, 0x3c, 0x7c, 0x3d, 0xd7, 0x3b, 0x02, 0xb3, 0x6c, 0xbb,
  0xfc, 0x66, 0x97, 0x39, 0x01, 0xfe, 0x8a, 0x39, 0xbc, 0x38, 0xac, 0x3a,
  0xfe, 0xc2, 0xb0, 0x3b, 0x51, 0xd6, 0x1c, 0xbc, 0xd7, 0x25, 0x11, 0xbc,
  0x04, 0x01, 0x16, 0xbc, 0x77, 0x73, 0xc8, 0x3a, 0x62, 0x61, 0x28, 0x3a,
  0x73, 0xbd, 0x3c, 0xba, 0x39, 0xc8, 0x8a, 0xbb, 0x3e, 0x46, 0x63, 0xbb,
  0x8e, 0x30, 0x06, 0xbb, 0x39, 0xa6, 0x9f, 0xba, 0xed, 0x34, 0x43, 0xbb,
  0x59, 0x0e, 0xc3, 0xbb, 0x2d, 0xcf, 0xb3, 0x3a, 0xb0, 0xbe, 0x4b, 0xbc,
  0x1f, 0x49, 0x30, 0xbc, 0x99, 0x2b, 0x65, 0x3b, 0xbb, 0xd0, 0x55, 0x3a,
  0x56, 0x57, 0xcb, 0x3b, 0xe3, 0x33, 0x60, 0xbc, 0xd2, 0xbc, 0x76, 0x3c,
  0x3f, 0x0c, 0xa3, 0xbc, 0xda, 0x5c, 0xaa, 0xbc, 0xde, 0xfd, 0xc7, 0xbc,
  0x20, 0x8f, 0x9f, 0x3c, 0xf0, 0xc4, 0xd4, 0xbc, 0x13, 0xec, 0x72, 0x3c,
  0xf5, 0xd6, 0xa0, 0xbb, 0xea, 0xc3, 0xc1, 0x3b, 0x66, 0xe9, 0x87, 0xb9,
  0x3e, 0xac, 0x88, 0x3c, 0x92, 0x45, 0x70, 0xbc, 0x6e, 0x38, 0x4d, 0xbb,
  0x50, 0x5c, 0x56, 0x3b, 0xb9, 0x5c, 0x3f, 0x3c, 0xb8, 0x61, 0x92, 0xbc,
  0x19, 0x74, 0xd2, 0x3b, 0x0d, 0x56, 0xc3, 0xbc, 0x80, 0xa1, 0xbe, 0xbb,
  0x93, 0xeb, 0x59, 0x3d, 0x9b, 0x2d, 0x59, 0x3c, 0xbf, 0xcc, 0x1f, 0x3b,
  0xf9, 0x56, 0xda, 0x3b, 0x55, 0x5f, 0xdd, 0xbb, 0xb8, 0xef, 0xe1, 0xba,
  0xce, 0x49, 0x8f, 0x3b, 0x56, 0x88, 0xb8, 0xba, 0x6c, 0x90, 0x84, 0x3c,
  0x3f, 0x9d, 0xb6, 0x3c, 0x47, 0x39, 0x9e, 0xba, 0x4a, 0x70, 0x8c, 0xba,
  0xbf, 0xe4, 0xa6, 0xbc, 0xbf, 0x25, 0x83, 0x3c, 0x7b, 0xef, 0xe9, 0x3a,
  0x6b, 0xf1, 0x5b, 0x3b, 0xe9, 0xc8, 0xe6, 0x3a, 0xc2, 0x9d, 0x57, 0x3c,
  0x99, 0x1e, 0x18, 0xbb, 0x2d, 0x68, 0x6e, 0xbb, 0x93, 0x44, 0xd7, 0xbb,
  0xe4, 0x3e, 0x32, 0x3b, 0x4e, 0xb0, 0x9a, 0x3b, 0x0f, 0x2b, 0x4d, 0xbb,
  0x61, 0xe6, 0x88, 0xbc, 0xd8, 0xa4, 0x25, 0x3d, 0xce, 0x7f, 0xa3, 0xbc,
  0xac, 0x6b, 0x6a, 0xbb, 0xa0, 0x4e, 0xa2, 0x3c, 0x99, 0x29, 0x9a, 0x3c,
  0x75, 0x18, 0xa1, 0x3c, 0xe2, 0x7c, 0xcc, 0xba, 0x6a, 0x2b, 0xc5, 0xbb,
  0xcd, 0x36, 0x0a, 0xbc, 0xbe, 0x10, 0x9d, 0x3c, 0xfa, 0x71, 0x8e, 0x3c,
  0xd6, 0xa2, 0xc4, 0x3c, 0x37, 0x6c, 0x72, 0x3b, 0x29, 0x10, 0xc7, 0x3b,
  0x2b, 0x28, 0x2f, 0xbb, 0x19, 0x4c, 0x27, 0xbb, 0x98, 0xbc, 0x90, 0xbc,
  0x2e, 0x9a, 0x7c, 0x3b, 0x56, 0x3d, 0xa1, 0xbb, 0x63, 0x9e, 0xcc, 0xba,
  0x72, 0x70, 0x11, 0xbc, 0xf0, 0x37, 0x14, 0x3b, 0xac, 0xfd, 0xb0, 0xbc,
  0x38, 0x96, 0x9b, 0x3b, 0xad, 0x98, 0x98, 0xbb, 0x9f, 0xa4, 0x2c, 0x3c,
  0x10, 0xd7, 0xc8, 0x3b, 0x76, 0xe6, 0xbb, 0xbc, 0xfa, 0x2d, 0x0b, 0x3d,
  0x68, 0x2f, 0xfd, 0x3b, 0x6e, 0x04, 0x9b, 0x3c, 0xfb, 0x04, 0x25, 0xbc,
  0x36, 0x40, 0x9e, 0x3c, 0x8e, 0xe8, 0xa0, 0xba, 0x0b, 0xb7, 0xc4, 0xba,
  0x25, 0x30, 0x93, 0x3a, 0x4d, 0xf5, 0x82, 0xbc, 0x68, 0xbf, 0x16, 0xbc,
  0x31, 0xdd, 0xbd, 0xbc, 0x8f, 0xe0, 0xd5, 0x3b, 0x8a, 0x38, 0x0a, 0xb9,
  0x0d, 0x57, 0x81, 0x3b, 0x58, 0xf3, 0x13, 0xbc, 0x3c, 0x8d, 0xb2, 0x3b,
  0x2c, 0xf1, 0x53, 0xbc, 0xf0, 0xd6, 0x05, 0xbc, 0xbf, 0xab, 0x99, 0x39,
  0xf3, 0x95, 0x81, 0x3b, 0xfa, 0xfc, 0xf6, 0x3b, 0xb6, 0x55, 0xe2, 0x3b,
  0x07, 0x6f, 0x18, 0x3c, 0x15, 0x76, 0xbd, 0xba, 0xa6, 0x97, 0x28, 0x3c,
  0xe7, 0x1e, 0x05, 0xbc, 0x74, 0x12, 0x5e, 0xbc, 0xfd, 0xfd, 0xd6, 0x3c,
  0x91, 0xb8, 0x2f, 0x3c, 0x2e, 0x7d, 0x7d, 0x3c, 0x49, 0x19, 0x31, 0x3c,
  0x4a, 0x3d, 0x98, 0xba, 0xbc, 0x09, 0xec, 0x3a, 0xbd, 0xea, 0xc7, 0x3a,
  0x87, 0xe0, 0x04, 0xbb, 0x5d, 0xeb, 0x29, 0xbc, 0xfb, 0xc0, 0x75, 0xbc,
  0x93, 0xdc, 0x6c, 0xbc, 0x04, 0xb9, 0x59, 0xbd, 0xe8, 0x87, 0xb3, 0x3a,
  0xb7, 0xba, 0x8e, 0xba, 0xb2, 0x88, 0x9c, 0x3b, 0x07, 0x47, 0x7d, 0xbb,
  0xec, 0xd6, 0x3b, 0x38, 0x04, 0x25, 0x4f, 0x3d, 0xb1, 0xe0, 0xc2, 0x3b,
  0x68, 0x51, 0xe6, 0x3a, 0x02, 0x8f, 0x86, 0xba, 0xd8, 0xdb, 0xf7, 0x3b,
  0xf7, 0x3c, 0x9d, 0xbb, 0x25, 0xe0, 0xe3, 0x3b, 0x79, 0xd1, 0x3e, 0x3b,
  0x1d, 0x4b, 0x24, 0x3c, 0x35, 0xcd, 0xcc, 0x3b, 0x8e, 0xee, 0x14, 0x3d,
  0x69, 0x4d, 0x1a, 0x3d, 0xb5, 0x91, 0x99, 0xbc, 0x8e, 0x06, 0xa7, 0xbc,
  0xa7, 0x2f, 0xf4, 0xbb, 0xec, 0x29, 0xdb, 0x3b, 0x45, 0x08, 0x64, 0x3c,
  0x1b, 0x1a, 0x9e, 0x3b, 0xff, 0x26, 0x3b, 0x3b, 0x72, 0x25, 0xbb, 0x3b,
  0xed, 0x33, 0x06, 0x3c, 0x3f, 0x91, 0xe5, 0x3a, 0xa2, 0x3d, 0x77, 0xba,
  0xbb, 0xf7, 0xa0, 0x3a, 0x65, 0xa9, 0x83, 0x3b, 0x8f, 0x15, 0xf2, 0x3b,
  0x0a, 0x01, 0x09, 0x3b, 0xa9, 0x01, 0x3a, 0xbb, 0x2e, 0x92, 0x50, 0xba,
  0x80, 0x0f, 0x0a, 0xbc, 0xf2, 0x82, 0xae, 0xbc, 0x07, 0xa9, 0x0e, 0x3c,
  0xeb, 0x62, 0xd6, 0x3b, 0xe2, 0xb3, 0x65, 0xbb, 0xbb, 0x08, 0x92, 0xba,
  0x71, 0xb9, 0xcd, 0x3a, 0x34, 0x80, 0x44, 0xbc, 0xc4, 0x35, 0x21, 0xbc,
  0x03, 0x0a, 0x1e, 0x3c, 0xe0, 0xd4, 0x2f, 0xbb, 0x55, 0x5b, 0xa4, 0xbb,
  0xd3, 0x82, 0xc9, 0x3a, 0x7f, 0x76, 0x80, 0x3c, 0x2b, 0x95, 0xef, 0xbb,
  0x96, 0x61, 0x1a, 0x3c, 0xbb, 0x3d, 0x8c, 0xbc, 0x7a, 0x66, 0xcb, 0xbb,
  0xb2, 0xa3, 0x30, 0x3b, 0x2d, 0x13, 0x90, 0xba, 0xaa, 0xe7, 0xdd, 0x3a,
  0x8a, 0x7d, 0xa4, 0xba, 0xc7, 0x11, 0x8f, 0xbb, 0xa3, 0x69, 0xbf, 0xba,
  0x6b, 0xcf, 0x2d, 0xbb, 0xd6, 0x27, 0x78, 0xbb, 0x5c, 0xba, 0x9d, 0xbb,
  0x98, 0xdb, 0x6e, 0xbb, 0xca, 0xfb, 0xff, 0xff, 0x04, 0x00, 0x00, 0x00,
  0x00, 0x01, 0x00, 0x00, 0x23, 0x96, 0xaf, 0x3f, 0x7b, 0x56, 0x8a, 0x3f,
  0x27, 0x2a, 0x64, 0x3f, 0x3f, 0x5e, 0xbf, 0xbf, 0xb7, 0xcd, 0xa5, 0x3f,
  0xb3, 0x26, 0x8c, 0x3f, 0x46, 0x6f, 0x78, 0x3f, 0xd2, 0xc6, 0x9e, 0x3f,
  0x3d, 0x88, 0xb4, 0xbf, 0x3e, 0x9d, 0xab, 0xbf, 0xc3, 0xda, 0x06, 0x40,
  0xe8, 0x8c, 0x3e, 0x3f, 0x6b, 0xdf, 0x7b, 0x3f, 0x76, 0xc1, 0xb6, 0xbf,
  0x44, 0x63, 0xc4, 0xbf, 0x9d, 0x2b, 0xa8, 0xbf, 0xfd, 0x9f, 0x94, 0x3f,
  0x38, 0xda, 0xa6, 0x3f, 0x69, 0xd8, 0x5e, 0x3f, 0x0f, 0x88, 0xee, 0x3f,
  0x6f, 0xd8, 0x8e, 0x3f, 0xf8, 0xfc, 0xad, 0xbf, 0x3f, 0x81, 0xac, 0xbf,
  0xcc, 0x51, 0xac, 0xbf, 0x37, 0xa0, 0x99, 0x3f, 0xb2, 0x0c, 0x8a, 0xbf,
  0x8a, 0xe3, 0x99, 0xbf, 0xc2, 0xea, 0x96, 0x3f, 0xa9, 0x6e, 0xeb, 0x3f,
  0xca, 0x83, 0x86, 0x3f, 0xe7, 0xd6, 0xbd, 0xbf, 0x2a, 0xcc, 0x71, 0x3f,
  0x64, 0xe8, 0x8e, 0xbf, 0xb3, 0xb7, 0x87, 0xbf, 0x6f, 0xac, 0x76, 0xbf,
  0xe7, 0xc0, 0xaa, 0x3f, 0xa1, 0x75, 0xa0, 0xbf, 0x0a, 0xe2, 0x88, 0xbf,
  0x33, 0x15, 0x8e, 0xbf, 0x91, 0x7d, 0x8e, 0xbf, 0x1d, 0x6c, 0xc1, 0x3f,
  0xed, 0xb4, 0xb8, 0x3f, 0xd2, 0x02, 0x0b, 0xc0, 0x9a, 0xa9, 0x74, 0xbf,
  0xed, 0x9a, 0x91, 0xbf, 0xf3, 0x6a, 0xb1, 0x3f, 0x18, 0x60, 0xc8, 0x3f,
  0x6e, 0xfc, 0xb4, 0x3f, 0xac, 0x9b, 0xb1, 0xbf, 0xbd, 0xac, 0x86, 0xbf,
  0xc5, 0xe2, 0x82, 0xbf, 0x80, 0xb1, 0xf5, 0xbf, 0xea, 0xd6, 0x9a, 0xbf,
  0x12, 0x07, 0xb2, 0x3f, 0x11, 0x57, 0xa6, 0x3f, 0xbd, 0xa7, 0xc1, 0x3f,
  0xc0, 0xc8, 0x98, 0xbf, 0x36, 0x90, 0xab, 0x3f, 0xde, 0xc5, 0xbe, 0x3f,
  0xef, 0x04, 0x89, 0xbf, 0x61, 0xd3, 0xdb, 0xbf, 0x5d, 0xc3, 0x87, 0xbf,
  0x2a, 0xb9, 0xaa, 0x3f, 0x19, 0xe6, 0x95, 0xbf, 0xd6, 0xfc, 0xff, 0xff,
  0x04, 0x00, 0x00, 0x00, 0x08, 0x00, 0x00, 0x00, 0x66, 0x65, 0x9f, 0xbe,
  0x69, 0x9a, 0xa1, 0x3e, 0xea, 0xfc, 0xff, 0xff, 0x04, 0x00, 0x00, 0x00,
  0x80, 0x00, 0x00, 0x00, 0x73, 0x54, 0xc8, 0xbf, 0xef, 0x08, 0x92, 0xbf,
  0x06, 0x11, 0x8a, 0xc0, 0x73, 0x4f, 0x0b, 0xc0, 0x82, 0x84, 0x3e, 0xc0,
  0xca, 0x7c, 0x0b, 0xc0, 0x3f, 0x47, 0xd4, 0x3f, 0xe0, 0x01, 0x80, 0xbf,
  0x6e, 0x25, 0x46, 0xc0, 0xea, 0xa7, 0x0d, 0xc0, 0x52, 0xc7, 0xfc, 0xbf,
  0x14, 0xf9, 0x33, 0x3f, 0x48, 0xf8, 0x31, 0xc0, 0xf4, 0x57, 0xd6, 0xbf,
  0xa3, 0xf6, 0x48, 0xc0, 0x1f, 0x91, 0x70, 0xc0, 0xb8, 0x15, 0x04, 0xbf,
  0x5c, 0x70, 0x85, 0xbf, 0x5b, 0xc5, 0x8e, 0xbf, 0x1c, 0xb9, 0xa8, 0xbd,
  0xca, 0x04, 0x90, 0xc0, 0x22, 0x2a, 0x20, 0xc0, 0x93, 0x80, 0xb7, 0xbf,
  0xcd, 0x4c, 0x9e, 0xc0, 0xf2, 0x82, 0x20, 0xc0, 0xce, 0x13, 0x56, 0xbf,
  0x0e, 0x26, 0x10, 0xc0, 0x32, 0x31, 0x24, 0xc0, 0xa6, 0x42, 0x82, 0xbe,
  0xc0, 0xdd, 0x77, 0xbf, 0xdb, 0xcd, 0x34, 0xc0, 0x99, 0xbe, 0x17, 0xc0,
  0x76, 0xfd, 0xff, 0xff, 0x04, 0x00, 0x00, 0x00, 0x00, 0x01, 0x00, 0x00,
  0x36, 0x93, 0xd1, 0x3e, 0x88, 0x0b, 0x13, 0xbd, 0x20, 0x6d, 0xfc, 0xbf,
  0x0c, 0x08, 0x77, 0xbf, 0x4f, 0x95, 0x47, 0x3f, 0x66, 0xa7, 0xfe, 0xbe,
  0xc9, 0x3e, 0x9c, 0xbe, 0xbb, 0x84, 0x16, 0x3f, 0x2c, 0x02, 0x8e, 0x3f,
  0x67, 0x8b, 0x3d, 0xbf, 0xe7, 0xb0, 0x61, 0xbf, 0x3c, 0x8a, 0xb8, 0xbf,
  0xc3, 0x88, 0x24, 0xbe, 0x7a, 0xa2, 0xa1, 0xbf, 0x79, 0xab, 0xb1, 0xbf,
  0x5c, 0x92, 0xc4, 0x3e, 0xa0, 0x32, 0x1a, 0x3f, 0xc6, 0x5f, 0x61, 0xbe,
  0x88, 0xee, 0x6f, 0xbf, 0xca, 0x4c, 0x20, 0xbe, 0x67, 0xea, 0xec, 0x3e,
  0x30, 0xef, 0x45, 0xbd, 0x7a, 0x5c, 0xaf, 0xbf, 0x6e, 0xc8, 0xa1, 0xbf,
  0xbc, 0xe0, 0x52, 0xbf, 0xb2, 0x94, 0xd0, 0xbe, 0x70, 0x69, 0x41, 0x3f,
  0x12, 0x32, 0x9b, 0xbe, 0xc5, 0x96, 0x59, 0x3f, 0x00, 0x7d, 0x41, 0x3e,
  0xd3, 0x29, 0x8e, 0xbf, 0xb2, 0x48, 0xa5, 0xbe, 0x38, 0xa4, 0x73, 0x3e,
  0xa0, 0x8d, 0x94, 0xbc, 0x03, 0x4d, 0x93, 0xbf, 0x94, 0x72, 0x97, 0xbf,
  0xa0, 0xfc, 0x46, 0xbd, 0x0e, 0x42, 0xb2, 0xbe, 0x90, 0x3f, 0xea, 0xbe,
  0x40, 0x97, 0x1a, 0xbe, 0x32, 0xf5, 0x09, 0xbf, 0x10, 0xb2, 0x7b, 0x3f,
  0x73, 0xe6, 0x10, 0xc0, 0x4a, 0xfb, 0xe6, 0xbf, 0x26, 0xf8, 0x4d, 0x3f,
  0xae, 0x71, 0xf9, 0x3d, 0x3c, 0x9d, 0x12, 0x3f, 0xc8, 0x6e, 0xa8, 0x3e,
  0x35, 0xcf, 0xcf, 0xbe, 0xda, 0x88, 0x15, 0xbf, 0x10, 0x45, 0xc4, 0xbf,
  0x11, 0xe3, 0x1e, 0xbf, 0x14, 0xd2, 0x32, 0xbe, 0xfc, 0xfe, 0x27, 0x3e,
  0x44, 0xc6, 0x94, 0x3e, 0xfc, 0x10, 0x53, 0xbf, 0x66, 0xd3, 0x33, 0x3e,
  0x29, 0xa4, 0xf9, 0x3e, 0x30, 0xed, 0x8e, 0x3e, 0xc2, 0xe0, 0x00, 0x3f,
  0x88, 0x00, 0xa4, 0x3e, 0x38, 0xc7, 0xd5, 0xbe, 0xd5, 0x65, 0x05, 0x40,
  0x79, 0x56, 0x21, 0xc0, 0x82, 0xfe, 0xff, 0xff, 0x04, 0x00, 0x00, 0x00,
  0x00, 0x01, 0x00, 0x00, 0xe4, 0x62, 0x19, 0x3f, 0x62, 0x43, 0xa2, 0x3f,
  0x5f, 0x82, 0x00, 0xc0, 0xd1, 0xc5, 0x9a, 0xbf, 0xee, 0x9e, 0x90, 0x3f,
  0xab, 0x3d, 0xd0, 0x40, 0xba, 0xbe, 0xb0, 0xbf, 0x0f, 0x16, 0x15, 0x3f,
  0xf2, 0xf6, 0x5b, 0x3d, 0x00, 0x2b, 0x32, 0xbf, 0x78, 0xb6, 0x8e, 0x3e,
  0x40, 0xb8, 0x7b, 0xbc, 0x26, 0xd1, 0xa6, 0x3f, 0x14, 0x30, 0x7f, 0x3f,
  0xfe, 0x9a, 0x0a, 0xbf, 0xe3, 0xdf, 0xc7, 0xbe, 0x7e, 0x33, 0x0e, 0x3f,
  0x4a, 0x77, 0x9c, 0xbe, 0x16, 0xdc, 0x41, 0x3f, 0x2d, 0x6f, 0x88, 0x3f,
  0x80, 0x4b, 0x73, 0xbb, 0x18, 0x35, 0x09, 0xbf, 0x75, 0xf2, 0x19, 0xbf,
  0xe1, 0x39, 0x26, 0x3f, 0x9e, 0x5f, 0x1b, 0x3e, 0xf0, 0xce, 0x01, 0xbf,
  0xd6, 0xc4, 0x22, 0x3f, 0xa5, 0xee, 0x96, 0xc0, 0x74, 0xcd, 0xd6, 0x3e,
  0x12, 0xe8, 0x95, 0x3e, 0x3e, 0x2d, 0x5b, 0x3f, 0x9b, 0x5f, 0x7a, 0xbe,
  0x07, 0x2b, 0x8a, 0xbe, 0x8f, 0xb9, 0xcb, 0xbf, 0x82, 0x4c, 0x47, 0x3e,
  0x88, 0xa1, 0x1d, 0xbe, 0x3a, 0x77, 0xf3, 0xbe, 0x4c, 0x91, 0x27, 0x3e,
  0x33, 0x66, 0xb3, 0x3f, 0x2e, 0x96, 0xb5, 0x3f, 0x38, 0x50, 0x53, 0x3f,
  0x0a, 0xda, 0x51, 0xbf, 0x66, 0x15, 0x91, 0x3f, 0x62, 0x39, 0x43, 0x3f,
  0xbd, 0xdc, 0xbc, 0x3f, 0xa0, 0x33, 0x84, 0xbe, 0x81, 0x27, 0x3f, 0xbf,
  0x5e, 0x3e, 0x08, 0xc0, 0xca, 0x13, 0x05, 0x3f, 0x92, 0x68, 0x9d, 0xbe,
  0xfc, 0x84, 0x70, 0xc0, 0x64, 0x87, 0xbd, 0xbe, 0x77, 0x11, 0x0e, 0xbf,
  0xd8, 0x70, 0x0a, 0x3f, 0x1b, 0xb0, 0x07, 0xbf, 0x63, 0x8c, 0x02, 0xc0,
  0x4a, 0x66, 0x09, 0x3e, 0x28, 0x0f, 0x6a, 0xbd, 0x85, 0x75, 0x27, 0xc0,
  0x6a, 0x41, 0x33, 0x3f, 0x70, 0xa9, 0xaa, 0xbc, 0x20, 0x02, 0xa2, 0x3f,
  0x1a, 0xef, 0x75, 0x3f, 0x30, 0xaf, 0x7b, 0x3f, 0x8e, 0xff, 0xff, 0xff,
  0x04, 0x00, 0x00, 0x00, 0x20, 0x00, 0x00, 0x00, 0x00, 0x00, 0x00, 0x00,
  0x00, 0x00, 0x00, 0x00, 0x00, 0x00, 0x00, 0x00, 0x00, 0x00, 0x00, 0x00,
  0x01, 0x00, 0x00, 0x00, 0x01, 0x00, 0x00, 0x00, 0x01, 0x00, 0x00, 0x00,
  0x01, 0x00, 0x00, 0x00, 0xba, 0xff, 0xff, 0xff, 0x04, 0x00, 0x00, 0x00,
  0x08, 0x00, 0x00, 0x00, 0xff, 0xff, 0xff, 0xff, 0x20, 0x00, 0x00, 0x00,
  0xce, 0xff, 0xff, 0xff, 0x04, 0x00, 0x00, 0x00, 0x08, 0x00, 0x00, 0x00,
  0x02, 0x00, 0x00, 0x00, 0x03, 0x00, 0x00, 0x00, 0xe2, 0xff, 0xff, 0xff,
  0x04, 0x00, 0x00, 0x00, 0x10, 0x00, 0x00, 0x00, 0x00, 0x00, 0x00, 0x00,
  0x02, 0x00, 0x00, 0x00, 0x03, 0x00, 0x00, 0x00, 0x01, 0x00, 0x00, 0x00,
  0x00, 0x00, 0x06, 0x00, 0x08, 0x00, 0x04, 0x00, 0x06, 0x00, 0x00, 0x00,
  0x04, 0x00, 0x00, 0x00, 0x10, 0x00, 0x00, 0x00, 0x00, 0x00, 0x00, 0x00,
  0x03, 0x00, 0x00, 0x00, 0x01, 0x00, 0x00, 0x00, 0x02, 0x00, 0x00, 0x00,
  0x44, 0xf3, 0xff, 0xff, 0x48, 0xf3, 0xff, 0xff, 0x0f, 0x00, 0x00, 0x00,
  0x4d, 0x4c, 0x49, 0x52, 0x20, 0x43, 0x6f, 0x6e, 0x76, 0x65, 0x72, 0x74,
  0x65, 0x64, 0x2e, 0x00, 0x01, 0x00, 0x00, 0x00, 0x14, 0x00, 0x00, 0x00,
  0x00, 0x00, 0x0e, 0x00, 0x18, 0x00, 0x14, 0x00, 0x10, 0x00, 0x0c, 0x00,
  0x08, 0x00, 0x04, 0x00, 0x0e, 0x00, 0x00, 0x00, 0x14, 0x00, 0x00, 0x00,
  0x1c, 0x00, 0x00, 0x00, 0xe0, 0x02, 0x00, 0x00, 0xe4, 0x02, 0x00, 0x00,
  0xe8, 0x02, 0x00, 0x00, 0x04, 0x00, 0x00, 0x00, 0x6d, 0x61, 0x69, 0x6e,
  0x00, 0x00, 0x00, 0x00, 0x0c, 0x00, 0x00, 0x00, 0x98, 0x02, 0x00, 0x00,
  0x60, 0x02, 0x00, 0x00, 0x00, 0x02, 0x00, 0x00, 0xc8, 0x01, 0x00, 0x00,
  0x98, 0x01, 0x00, 0x00, 0x70, 0x01, 0x00, 0x00, 0x14, 0x01, 0x00, 0x00,
  0xcc, 0x00, 0x00, 0x00, 0xa4, 0x00, 0x00, 0x00, 0x64, 0x00, 0x00, 0x00,
  0x3c, 0x00, 0x00, 0x00, 0x04, 0x00, 0x00, 0x00, 0x36, 0xfe, 0xff, 0xff,
  0x14, 0x00, 0x00, 0x00, 0x00, 0x00, 0x00, 0x08, 0x10, 0x00, 0x00, 0x00,
  0x14, 0x00, 0x00, 0x00, 0x06, 0x00, 0x00, 0x00, 0xe8, 0xf3, 0xff, 0xff,
  0x01, 0x00, 0x00, 0x00, 0x1a, 0x00, 0x00, 0x00, 0x03, 0x00, 0x00, 0x00,
  0x19, 0x00, 0x00, 0x00, 0x0a, 0x00, 0x00, 0x00, 0x09, 0x00, 0x00, 0x00,
  0x0a, 0xfe, 0xff, 0xff, 0x0c, 0x00, 0x00, 0x00, 0x10, 0x00, 0x00, 0x00,
  0x01, 0x00, 0x00, 0x00, 0x01, 0x00, 0x00, 0x00, 0x19, 0x00, 0x00, 0x00,
  0x02, 0x00, 0x00, 0x00, 0x18, 0x00, 0x00, 0x00, 0x04, 0x00, 0x00, 0x00,
  0x8e, 0xfe, 0xff, 0xff, 0x1c, 0x00, 0x00, 0x00, 0x00, 0x00, 0x00, 0x1b,
  0x1c, 0x00, 0x00, 0x00, 0x20, 0x00, 0x00, 0x00, 0x05, 0x00, 0x00, 0x00,
  0x00, 0x00, 0x06, 0x00, 0x08, 0x00, 0x07, 0x00, 0x06, 0x00, 0x00, 0x00,
  0x00, 0x00, 0x00, 0x01, 0x01, 0x00, 0x00, 0x00, 0x18, 0x00, 0x00, 0x00,
  0x02, 0x00, 0x00, 0x00, 0x17, 0x00, 0x00, 0x00, 0x03, 0x00, 0x00, 0x00,
  0x6a, 0xfe, 0xff, 0xff, 0x0c, 0x00, 0x00, 0x00, 0x10, 0x00, 0x00, 0x00,
  0x03, 0x00, 0x00, 0x00, 0x01, 0x00, 0x00, 0x00, 0x17, 0x00, 0x00, 0x00,
  0x02, 0x00, 0x00, 0x00, 0x16, 0x00, 0x00, 0x00, 0x01, 0x00, 0x00, 0x00,
  0xee, 0xfe, 0xff, 0xff, 0x14, 0x00, 0x00, 0x00, 0x00, 0x00, 0x00, 0x01,
  0x20, 0x00, 0x00, 0x00, 0x24, 0x00, 0x00, 0x00, 0x02, 0x00, 0x00, 0x00,
  0xe0, 0xfe, 0xff, 0xff, 0x00, 0x00, 0x00, 0x01, 0x01, 0x00, 0x00, 0x00,
  0x01, 0x00, 0x00, 0x00, 0x00, 0x00, 0x00, 0x01, 0x01, 0x00, 0x00, 0x00,
  0x16, 0x00, 0x00, 0x00, 0x03, 0x00, 0x00, 0x00, 0x15, 0x00, 0x00, 0x00,
  0x0d, 0x00, 0x00, 0x00, 0x08, 0x00, 0x00, 0x00, 0x32, 0xff, 0xff, 0xff,
  0x24, 0x00, 0x00, 0x00, 0x00, 0x00, 0x00, 0x02, 0x34, 0x00, 0x00, 0x00,
  0x38, 0x00, 0x00, 0x00, 0x04, 0x00, 0x00, 0x00, 0x00, 0x00, 0x0e, 0x00,
  0x18, 0x00, 0x17, 0x00, 0x10, 0x00, 0x0c, 0x00, 0x08, 0x00, 0x07, 0x00,
  0x0e, 0x00, 0x00, 0x00, 0x00, 0x00, 0x00, 0x01, 0x01, 0x00, 0x00, 0x00,
  0x01, 0x00, 0x00, 0x00, 0x01, 0x00, 0x00, 0x00, 0x00, 0x00, 0x00, 0x01,
  0x01, 0x00, 0x00, 0x00, 0x15, 0x00, 0x00, 0x00, 0x03, 0x00, 0x00, 0x00,
  0x14, 0x00, 0x00, 0x00, 0x0c, 0x00, 0x00, 0x00, 0x07, 0x00, 0x00, 0x00,
  0x2a, 0xff, 0xff, 0xff, 0x0c, 0x00, 0x00, 0x00, 0x10, 0x00, 0x00, 0x00,
  0x03, 0x00, 0x00, 0x00, 0x01, 0x00, 0x00, 0x00, 0x14, 0x00, 0x00, 0x00,
  0x02, 0x00, 0x00, 0x00, 0x13, 0x00, 0x00, 0x00, 0x02, 0x00, 0x00, 0x00,
  0x1e, 0xff, 0xff, 0xff, 0x10, 0x00, 0x00, 0x00, 0x00, 0x00, 0x00, 0x16,
  0x0c, 0x00, 0x00, 0x00, 0x10, 0x00, 0x00, 0x00, 0x5c, 0xf5, 0xff, 0xff,
  0x01, 0x00, 0x00, 0x00, 0x13, 0x00, 0x00, 0x00, 0x02, 0x00, 0x00, 0x00,
  0x12, 0x00, 0x00, 0x00, 0x05, 0x00, 0x00, 0x00, 0x7a, 0xff, 0xff, 0xff,
  0x0c, 0x00, 0x00, 0x00, 0x10, 0x00, 0x00, 0x00, 0x03, 0x00, 0x00, 0x00,
  0x01, 0x00, 0x00, 0x00, 0x12, 0x00, 0x00, 0x00, 0x02, 0x00, 0x00, 0x00,
  0x11, 0x00, 0x00, 0x00, 0x01, 0x00, 0x00, 0x00, 0x00, 0x00, 0x0e, 0x00,
  0x18, 0x00, 0x14, 0x00, 0x10, 0x00, 0x0c, 0x00, 0x0b, 0x00, 0x04, 0x00,
  0x0e, 0x00, 0x00, 0x00, 0x20, 0x00, 0x00, 0x00, 0x00, 0x00, 0x00, 0x01,
  0x2c, 0x00, 0x00, 0x00, 0x30, 0x00, 0x00, 0x00, 0x02, 0x00, 0x00, 0x00,
  0x0c, 0x00, 0x14, 0x00, 0x13, 0x00, 0x0c, 0x00, 0x08, 0x00, 0x07, 0x00,
  0x0c, 0x00, 0x00, 0x00, 0x00, 0x00, 0x00, 0x01, 0x02, 0x00, 0x00, 0x00,
  0x02, 0x00, 0x00, 0x00, 0x00, 0x00, 0x00, 0x01, 0x01, 0x00, 0x00, 0x00,
  0x11, 0x00, 0x00, 0x00, 0x03, 0x00, 0x00, 0x00, 0x10, 0x00, 0x00, 0x00,
  0x0b, 0x00, 0x00, 0x00, 0x06, 0x00, 0x00, 0x00, 0x00, 0x00, 0x0a, 0x00,
  0x10, 0x00, 0x0c, 0x00, 0x08, 0x00, 0x04, 0x00, 0x0a, 0x00, 0x00, 0x00,
  0x0c, 0x00, 0x00, 0x00, 0x10, 0x00, 0x00, 0x00, 0x01, 0x00, 0x00, 0x00,
  0x01, 0x00, 0x00, 0x00, 0x10, 0x00, 0x00, 0x00, 0x02, 0x00, 0x00, 0x00,
  0x0f, 0x00, 0x00, 0x00, 0x0e, 0x00, 0x00, 0x00, 0x00, 0x00, 0x0e, 0x00,
  0x14, 0x00, 0x00, 0x00, 0x10, 0x00, 0x0c, 0x00, 0x0b, 0x00, 0x04, 0x00,
  0x0e, 0x00, 0x00, 0x00, 0x10, 0x00, 0x00, 0x00, 0x00, 0x00, 0x00, 0x16,
  0x0c, 0x00, 0x00, 0x00, 0x10, 0x00, 0x00, 0x00, 0x4c, 0xf6, 0xff, 0xff,
  0x01, 0x00, 0x00, 0x00, 0x0f, 0x00, 0x00, 0x00, 0x02, 0x00, 0x00, 0x00,
  0x00, 0x00, 0x00, 0x00, 0x05, 0x00, 0x00, 0x00, 0x01, 0x00, 0x00, 0x00,
  0x1a, 0x00, 0x00, 0x00, 0x01, 0x00, 0x00, 0x00, 0x00, 0x00, 0x00, 0x00,
  0x1b, 0x00, 0x00, 0x00, 0x74, 0x09, 0x00, 0x00, 0x24, 0x09, 0x00, 0x00,
  0xd4, 0x08, 0x00, 0x00, 0xa0, 0x08, 0x00, 0x00, 0x64, 0x08, 0x00, 0x00,
  0x2c, 0x08, 0x00, 0x00, 0xfc, 0x07, 0x00, 0x00, 0xcc, 0x07, 0x00, 0x00,
  0x9c, 0x07, 0x00, 0x00, 0x6c, 0x07, 0x00, 0x00, 0x38, 0x07, 0x00, 0x00,
  0xf8, 0x06, 0x00, 0x00, 0xb8, 0x06, 0x00, 0x00, 0xc0, 0x03, 0x00, 0x00,
  0x88, 0x03, 0x00, 0x00, 0x50, 0x03, 0x00, 0x00, 0x0c, 0x03, 0x00, 0x00,
  0xa0, 0x02, 0x00, 0x00, 0x60, 0x02, 0x00, 0x00, 0x24, 0x02, 0x00, 0x00,
  0xe4, 0x01, 0x00, 0x00, 0x80, 0x01, 0x00, 0x00, 0x18, 0x01, 0x00, 0x00,
  0xd8, 0x00, 0x00, 0x00, 0x9c, 0x00, 0x00, 0x00, 0x44, 0x00, 0x00, 0x00,
  0x04, 0x00, 0x00, 0x00, 0x06, 0xf7, 0xff, 0xff, 0x10, 0x00, 0x00, 0x00,
  0x10, 0x00, 0x00, 0x00, 0x1b, 0x00, 0x00, 0x00, 0x20, 0x00, 0x00, 0x00,
  0xf8, 0xf6, 0xff, 0xff, 0x11, 0x00, 0x00, 0x00, 0x50, 0x61, 0x72, 0x74,
  0x69, 0x74, 0x69, 0x6f, 0x6e, 0x65, 0x64, 0x43, 0x61, 0x6c, 0x6c, 0x3a,
  0x30, 0x00, 0x00, 0x00, 0x02, 0x00, 0x00, 0x00, 0x01, 0x00, 0x00, 0x00,
  0x02, 0x00, 0x00, 0x00, 0x42, 0xf7, 0xff, 0xff, 0x10, 0x00, 0x00, 0x00,
  0x10, 0x00, 0x00, 0x00, 0x1a, 0x00, 0x00, 0x00, 0x38, 0x00, 0x00, 0x00,
  0x34, 0xf7, 0xff, 0xff, 0x28, 0x00, 0x00, 0x00, 0x66, 0x6c, 0x61, 0x74,
  0x74, 0x65, 0x6e, 0x2f, 0x52, 0x65, 0x73, 0x68, 0x61, 0x70, 0x65, 0x3b,
  0x6f, 0x6e, 0x6e, 0x78, 0x5f, 0x74, 0x66, 0x5f, 0x70, 0x72, 0x65, 0x66,
  0x69, 0x78, 0x5f, 0x52, 0x65, 0x73, 0x68, 0x61, 0x70, 0x65, 0x5f, 0x37,
  0x00, 0x00, 0x00, 0x00, 0x02, 0x00, 0x00, 0x00, 0x01, 0x00, 0x00, 0x00,
  0x20, 0x00, 0x00, 0x00, 0x96, 0xf7, 0xff, 0xff, 0x10, 0x00, 0x00, 0x00,
  0x10, 0x00, 0x00, 0x00, 0x19, 0x00, 0x00, 0x00, 0x14, 0x00, 0x00, 0x00,
  0x88, 0xf7, 0xff, 0xff, 0x04, 0x00, 0x00, 0x00, 0x4d, 0x65, 0x61, 0x6e,
  0x00, 0x00, 0x00, 0x00, 0x04, 0x00, 0x00, 0x00, 0x01, 0x00, 0x00, 0x00,
  0x20, 0x00, 0x00, 0x00, 0x01, 0x00, 0x00, 0x00, 0x01, 0x00, 0x00, 0x00,
  0xce, 0xf7, 0xff, 0xff, 0x10, 0x00, 0x00, 0x00, 0x10, 0x00, 0x00, 0x00,
  0x18, 0x00, 0x00, 0x00, 0x18, 0x00, 0x00, 0x00, 0xc0, 0xf7, 0xff, 0xff,
  0x0b, 0x00, 0x00, 0x00, 0x74, 0x72, 0x61, 0x6e, 0x73, 0x70, 0x6f, 0x73,
  0x65, 0x5f, 0x38, 0x00, 0x04, 0x00, 0x00, 0x00, 0x01, 0x00, 0x00, 0x00,
  0x20, 0x00, 0x00, 0x00, 0x05, 0x00, 0x00, 0x00, 0x4c, 0x00, 0x00, 0x00,
  0x0a, 0xf8, 0xff, 0xff, 0x10, 0x00, 0x00, 0x00, 0x10, 0x00, 0x00, 0x00,
  0x17, 0x00, 0x00, 0x00, 0x40, 0x00, 0x00, 0x00, 0xfc, 0xf7, 0xff, 0xff,
  0x31, 0x00, 0x00, 0x00, 0x6f, 0x6e, 0x6e, 0x78, 0x5f, 0x74, 0x66, 0x5f,
  0x70, 0x72, 0x65, 0x66, 0x69, 0x78, 0x5f, 0x52, 0x65, 0x6c, 0x75, 0x5f,
  0x35, 0x3b, 0x41, 0x64, 0x64, 0x5f, 0x32, 0x3b, 0x63, 0x6f, 0x6e, 0x76,
  0x6f, 0x6c, 0x75, 0x74, 0x69, 0x6f, 0x6e, 0x5f, 0x31, 0x3b, 0x43, 0x6f,
  0x6e, 0x73, 0x74, 0x5f, 0x35, 0x00, 0x00, 0x00, 0x04, 0x00, 0x00, 0x00,
  0x01, 0x00, 0x00, 0x00, 0x05, 0x00, 0x00, 0x00, 0x4c, 0x00, 0x00, 0x00,
  0x20, 0x00, 0x00, 0x00, 0x6e, 0xf8, 0xff, 0xff, 0x10, 0x00, 0x00, 0x00,
  0x10, 0x00, 0x00, 0x00, 0x16, 0x00, 0x00, 0x00, 0x3c, 0x00, 0x00, 0x00,
  0x60, 0xf8, 0xff, 0xff, 0x2d, 0x00, 0x00, 0x00, 0x6f, 0x6e, 0x6e, 0x78,
  0x5f, 0x74, 0x66, 0x5f, 0x70, 0x72, 0x65, 0x66, 0x69, 0x78, 0x5f, 0x52,
  0x65, 0x6c, 0x75, 0x5f, 0x33, 0x3b, 0x41, 0x64, 0x64, 0x5f, 0x31, 0x3b,
  0x64, 0x65, 0x70, 0x74, 0x68, 0x77, 0x69, 0x73, 0x65, 0x3b, 0x43, 0x6f,
  0x6e, 0x73, 0x74, 0x5f, 0x33, 0x00, 0x00, 0x00, 0x04, 0x00, 0x00, 0x00,
  0x01, 0x00, 0x00, 0x00, 0x05, 0x00, 0x00, 0x00, 0x4c, 0x00, 0x00, 0x00,
  0x40, 0x00, 0x00, 0x00, 0xce, 0xf8, 0xff, 0xff, 0x10, 0x00, 0x00, 0x00,
  0x10, 0x00, 0x00, 0x00, 0x15, 0x00, 0x00, 0x00, 0x18, 0x00, 0x00, 0x00,
  0xc0, 0xf8, 0xff, 0xff, 0x0b, 0x00, 0x00, 0x00, 0x74, 0x72, 0x61, 0x6e,
  0x73, 0x70, 0x6f, 0x73, 0x65, 0x5f, 0x34, 0x00, 0x04, 0x00, 0x00, 0x00,
  0x01, 0x00, 0x00, 0x00, 0x07, 0x00, 0x00, 0x00, 0x4e, 0x00, 0x00, 0x00,
  0x40, 0x00, 0x00, 0x00, 0x0a, 0xf9, 0xff, 0xff, 0x10, 0x00, 0x00, 0x00,
  0x10, 0x00, 0x00, 0x00, 0x14, 0x00, 0x00, 0x00, 0x14, 0x00, 0x00, 0x00,
  0xfc, 0xf8, 0xff, 0xff, 0x05, 0x00, 0x00, 0x00, 0x50, 0x61, 0x64, 0x5f,
  0x31, 0x00, 0x00, 0x00, 0x04, 0x00, 0x00, 0x00, 0x01, 0x00, 0x00, 0x00,
  0x40, 0x00, 0x00, 0x00, 0x07, 0x00, 0x00, 0x00, 0x4e, 0x00, 0x00, 0x00,
  0x42, 0xf9, 0xff, 0xff, 0x10, 0x00, 0x00, 0x00, 0x10, 0x00, 0x00, 0x00,
  0x13, 0x00, 0x00, 0x00, 0x18, 0x00, 0x00, 0x00, 0x34, 0xf9, 0xff, 0xff,
  0x0b, 0x00, 0x00, 0x00, 0x74, 0x72, 0x61, 0x6e, 0x73, 0x70, 0x6f, 0x73,
  0x65, 0x5f, 0x32, 0x00, 0x04, 0x00, 0x00, 0x00, 0x01, 0x00, 0x00, 0x00,
  0x40, 0x00, 0x00, 0x00, 0x05, 0x00, 0x00, 0x00, 0x4c, 0x00, 0x00, 0x00,
  0x7e, 0xf9, 0xff, 0xff, 0x10, 0x00, 0x00, 0x00, 0x10, 0x00, 0x00, 0x00,
  0x12, 0x00, 0x00, 0x00, 0x44, 0x00, 0x00, 0x00, 0x70, 0xf9, 0xff, 0xff,
  0x37, 0x00, 0x00, 0x00, 0x6f, 0x6e, 0x6e, 0x78, 0x5f, 0x74, 0x66, 0x5f,
  0x70, 0x72, 0x65, 0x66, 0x69, 0x78, 0x5f, 0x52, 0x65, 0x6c, 0x75, 0x5f,
  0x31, 0x3b, 0x41, 0x64, 0x64, 0x3b, 0x64, 0x65, 0x70, 0x74, 0x68, 0x77,
  0x69, 0x73, 0x65, 0x3b, 0x63, 0x6f, 0x6e, 0x76, 0x6f, 0x6c, 0x75, 0x74,
  0x69, 0x6f, 0x6e, 0x3b, 0x43, 0x6f, 0x6e, 0x73, 0x74, 0x5f, 0x31, 0x00,
  0x04, 0x00, 0x00, 0x00, 0x01, 0x00, 0x00, 0x00, 0x05, 0x00, 0x00, 0x00,
  0x4c, 0x00, 0x00, 0x00, 0x40, 0x00, 0x00, 0x00, 0xe6, 0xf9, 0xff, 0xff,
  0x10, 0x00, 0x00, 0x00, 0x10, 0x00, 0x00, 0x00, 0x11, 0x00, 0x00, 0x00,
  0x1c, 0x00, 0x00, 0x00, 0xd8, 0xf9, 0xff, 0xff, 0x0c, 0x00, 0x00, 0x00,
  0x74, 0x72, 0x61, 0x6e, 0x73, 0x70, 0x6f, 0x73, 0x65, 0x5f, 0x31, 0x31,
  0x00, 0x00, 0x00, 0x00, 0x04, 0x00, 0x00, 0x00, 0x01, 0x00, 0x00, 0x00,
  0x0c, 0x00, 0x00, 0x00, 0x99, 0x00, 0x00, 0x00, 0x01, 0x00, 0x00, 0x00,
  0x26, 0xfa, 0xff, 0xff, 0x10, 0x00, 0x00, 0x00, 0x10, 0x00, 0x00, 0x00,
  0x10, 0x00, 0x00, 0x00, 0x10, 0x00, 0x00, 0x00, 0x18, 0xfa, 0xff, 0xff,
  0x03, 0x00, 0x00, 0x00, 0x50, 0x61, 0x64, 0x00, 0x04, 0x00, 0x00, 0x00,
  0x01, 0x00, 0x00, 0x00, 0x01, 0x00, 0x00, 0x00, 0x0c, 0x00, 0x00, 0x00,
  0x99, 0x00, 0x00, 0x00, 0xa6, 0xfa, 0xff, 0xff, 0x14, 0x00, 0x00, 0x00,
  0x14, 0x00, 0x00, 0x00, 0x0f, 0x00, 0x00, 0x00, 0x00, 0x00, 0x00, 0x02,
  0x18, 0x00, 0x00, 0x00, 0x50, 0xfa, 0xff, 0xff, 0x0b, 0x00, 0x00, 0x00,
  0x74, 0x72, 0x61, 0x6e, 0x73, 0x70, 0x6f, 0x73, 0x65, 0x5f, 0x31, 0x00,
  0x01, 0x00, 0x00, 0x00, 0x04, 0x00, 0x00, 0x00, 0xda, 0xfa, 0xff, 0xff,
  0x20, 0x00, 0x00, 0x00, 0xc4, 0x02, 0x00, 0x00, 0x0e, 0x00, 0x00, 0x00,
  0x00, 0x00, 0x00, 0x09, 0xcc, 0x02, 0x00, 0x00, 0x0c, 0x00, 0x14, 0x00,
  0x10, 0x00, 0x0c, 0x00, 0x08, 0x00, 0x04, 0x00, 0x0c, 0x00, 0x00, 0x00,
  0x10, 0x00, 0x00, 0x00, 0x14, 0x01, 0x00, 0x00, 0x94, 0x01, 0x00, 0x00,
  0x14, 0x02, 0x00, 0x00, 0x20, 0x00, 0x00, 0x00, 0x00, 0x00, 0x00, 0x00,
  0x00, 0x00, 0x00, 0x00, 0x00, 0x00, 0x00, 0x00, 0x00, 0x00, 0x00, 0x00,
  0x00, 0x00, 0x00, 0x00, 0x00, 0x00, 0x00, 0x00, 0x00, 0x00, 0x00, 0x00,
  0x00, 0x00, 0x00, 0x00, 0x00, 0x00, 0x00, 0x00, 0x00, 0x00, 0x00, 0x00,
  0x00, 0x00, 0x00, 0x00, 0x00, 0x00, 0x00, 0x00, 0x00, 0x00, 0x00, 0x00,
  0x00, 0x00, 0x00, 0x00, 0x00, 0x00, 0x00, 0x00, 0x00, 0x00, 0x00, 0x00,
  0x00, 0x00, 0x00, 0x00, 0x00, 0x00, 0x00, 0x00, 0x00, 0x00, 0x00, 0x00,
  0x00, 0x00, 0x00, 0x00, 0x00, 0x00, 0x00, 0x00, 0x00, 0x00, 0x00, 0x00,
  0x00, 0x00, 0x00, 0x00, 0x00, 0x00, 0x00, 0x00, 0x00, 0x00, 0x00, 0x00,
  0x00, 0x00, 0x00, 0x00, 0x00, 0x00, 0x00, 0x00, 0x00, 0x00, 0x00, 0x00,
  0x00, 0x00, 0x00, 0x00, 0x00, 0x00, 0x00, 0x00, 0x00, 0x00, 0x00, 0x00,
  0x00, 0x00, 0x00, 0x00, 0x00, 0x00, 0x00, 0x00, 0x00, 0x00, 0x00, 0x00,
  0x00, 0x00, 0x00, 0x00, 0x00, 0x00, 0x00, 0x00, 0x00, 0x00, 0x00, 0x00,
  0x00, 0x00, 0x00, 0x00, 0x00, 0x00, 0x00, 0x00, 0x00, 0x00, 0x00, 0x00,
  0x00, 0x00, 0x00, 0x00, 0x00, 0x00, 0x00, 0x00, 0x00, 0x00, 0x00, 0x00,
  0x00, 0x00, 0x00, 0x00, 0x00, 0x00, 0x00, 0x00, 0x00, 0x00, 0x00, 0x00,
  0x00, 0x00, 0x00, 0x00, 0x00, 0x00, 0x00, 0x00, 0x00, 0x00, 0x00, 0x00,
  0x00, 0x00, 0x00, 0x00, 0x00, 0x00, 0x00, 0x00, 0x00, 0x00, 0x00, 0x00,
  0x00, 0x00, 0x00, 0x00, 0x00, 0x00, 0x00, 0x00, 0x00, 0x00, 0x00, 0x00,
  0x00, 0x00, 0x00, 0x00, 0x00, 0x00, 0x00, 0x00, 0x00, 0x00, 0x00, 0x00,
  0x00, 0x00, 0x00, 0x00, 0x00, 0x00, 0x00, 0x00, 0x00, 0x00, 0x00, 0x00,
  0x00, 0x00, 0x00, 0x00, 0x00, 0x00, 0x00, 0x00, 0x00, 0x00, 0x00, 0x00,
  0x00, 0x00, 0x00, 0x00, 0x20, 0x00, 0x00, 0x00, 0x4d, 0x34, 0x77, 0x3c,
  0xe0, 0x6b, 0xbc, 0x3c, 0x99, 0x35, 0xab, 0x3c, 0x86, 0x87, 0x92, 0x3c,
  0x05, 0x34, 0xae, 0x3c, 0x2b, 0x77, 0xa6, 0x3c, 0x10, 0x6f, 0xa7, 0x3c,
  0x57, 0x9d, 0xa2, 0x3c, 0xb3, 0xe7, 0x92, 0x3c, 0xb4, 0x1b, 0x83, 0x3c,
  0x90, 0xa6, 0x8a, 0x3c, 0xc5, 0x20, 0x8e, 0x3c, 0xd3, 0x75, 0xac, 0x3c,
  0xb8, 0x93, 0x8a, 0x3c, 0x6c, 0x50, 0xb9, 0x3c, 0x61, 0x67, 0x95, 0x3c,
  0xf4, 0x02, 0xcf, 0x3c, 0x36, 0x35, 0x02, 0x3d, 0x20, 0x3b, 0xd7, 0x3c,
  0x88, 0x7c, 0x99, 0x3c, 0xe9, 0xac, 0xa0, 0x3c, 0x83, 0xcc, 0x9e, 0x3c,
  0x7a, 0x66, 0x8b, 0x3c, 0xe9, 0xf4, 0xa1, 0x3c, 0x23, 0xb8, 0x95, 0x3c,
  0x13, 0x49, 0xc5, 0x3c, 0xcf, 0x9c, 0x8c, 0x3c, 0x79, 0xd7, 0x87, 0x3c,
  0x0d, 0x8a, 0xa4, 0x3c, 0x1d, 0x9c, 0xe3, 0x3c, 0xe2, 0xc8, 0x92, 0x3c,
  0x0a, 0x7e, 0xbd, 0x3c, 0x20, 0x00, 0x00, 0x00, 0xe4, 0x45, 0xf5, 0x3f,
  0x08, 0xf3, 0x3a, 0x40, 0xda, 0x40, 0xfa, 0x3f, 0xe7, 0xf0, 0xde, 0x3f,
  0x45, 0x20, 0x2b, 0x40, 0x3d, 0x2a, 0x25, 0x40, 0x32, 0x20, 0x26, 0x40,
  0xb1, 0xdd, 0xd8, 0x3f, 0x08, 0xe6, 0xf1, 0x3f, 0x7d, 0x15, 0x02, 0x40,
  0x43, 0x91, 0x09, 0x40, 0x83, 0x04, 0x0d, 0x40, 0x57, 0x5b, 0x02, 0x40,
  0xf8, 0xa7, 0xe3, 0x3f, 0x7d, 0xb5, 0x13, 0x40, 0x38, 0xfd, 0x0b, 0x40,
  0x52, 0x54, 0xf4, 0x3f, 0xac, 0x07, 0x22, 0x40, 0xa5, 0x02, 0x06, 0x40,
  0x6d, 0xac, 0x0e, 0x40, 0x24, 0xa3, 0x19, 0x40, 0xe5, 0x8c, 0x02, 0x40,
  0x9d, 0x16, 0xf3, 0x3f, 0x41, 0xae, 0x15, 0x40, 0x75, 0xea, 0xdc, 0x3f,
  0x83, 0x69, 0xf4, 0x3f, 0x84, 0x82, 0xf6, 0x3f, 0xca, 0xc7, 0x06, 0x40,
  0x9b, 0xfc, 0xe4, 0x3f, 0x20, 0xc1, 0x05, 0x40, 0xa4, 0xd3, 0x0f, 0x40,
  0xe6, 0x8a, 0x00, 0x40, 0x20, 0x00, 0x00, 0x00, 0x00, 0x82, 0xf1, 0xbf,
  0x87, 0x39, 0x0b, 0xc0, 0x2e, 0xdf, 0x29, 0xc0, 0x77, 0x62, 0x11, 0xc0,
  0x9d, 0xd7, 0x2c, 0xc0, 0x99, 0xb3, 0xfd, 0xbf, 0x26, 0x0b, 0x0f, 0xc0,
  0x1c, 0x58, 0x21, 0xc0, 0xe4, 0xc1, 0x11, 0xc0, 0xac, 0x31, 0x01, 0xc0,
  0x3c, 0x59, 0x05, 0xc0, 0xd4, 0x0c, 0xd3, 0xbf, 0xe7, 0x1c, 0x2b, 0xc0,
  0x91, 0x7e, 0x09, 0xc0, 0xcb, 0xdd, 0x37, 0xc0, 0x92, 0x3c, 0x14, 0xc0,
  0xee, 0x64, 0x4d, 0xc0, 0xcc, 0x30, 0x81, 0xc0, 0xaa, 0x8c, 0x55, 0xc0,
  0x8f, 0x49, 0x18, 0xc0, 0x8f, 0x6b, 0x1f, 0xc0, 0xea, 0x8e, 0x1d, 0xc0,
  0xad, 0x4f, 0x0a, 0xc0, 0xff, 0xb0, 0x20, 0xc0, 0xb3, 0x8c, 0x14, 0xc0,
  0x81, 0xbe, 0x43, 0xc0, 0x95, 0x83, 0x0b, 0xc0, 0x89, 0xb0, 0xfc, 0xbf,
  0xf9, 0x40, 0x23, 0xc0, 0xe5, 0xd4, 0x61, 0xc0, 0x50, 0xa3, 0x11, 0xc0,
  0x0e, 0x03, 0x3c, 0xc0, 0x0d, 0x00, 0x00, 0x00, 0x63, 0x6f, 0x6e, 0x76,
  0x6f, 0x6c, 0x75, 0x74, 0x69, 0x6f, 0x6e, 0x5f, 0x31, 0x00, 0x00, 0x00,
  0x04, 0x00, 0x00, 0x00, 0x20, 0x00, 0x00, 0x00, 0x01, 0x00, 0x00, 0x00,
  0x01, 0x00, 0x00, 0x00, 0x40, 0x00, 0x00, 0x00, 0x82, 0xfd, 0xff, 0xff,
  0x10, 0x00, 0x00, 0x00, 0x10, 0x00, 0x00, 0x00, 0x0d, 0x00, 0x00, 0x00,
  0x18, 0x00, 0x00, 0x00, 0x74, 0xfd, 0xff, 0xff, 0x09, 0x00, 0x00, 0x00,
  0x64, 0x65, 0x70, 0x74, 0x68, 0x77, 0x69, 0x73, 0x65, 0x00, 0x00, 0x00,
  0x04, 0x00, 0x00, 0x00, 0x01, 0x00, 0x00, 0x00, 0x03, 0x00, 0x00, 0x00,
  0x03, 0x00, 0x00, 0x00, 0x40, 0x00, 0x00, 0x00, 0xbe, 0xfd, 0xff, 0xff,
  0x10, 0x00, 0x00, 0x00, 0x10, 0x00, 0x00, 0x00, 0x0c, 0x00, 0x00, 0x00,
  0x18, 0x00, 0x00, 0x00, 0xb0, 0xfd, 0xff, 0xff, 0x0b, 0x00, 0x00, 0x00,
  0x63, 0x6f, 0x6e, 0x76, 0x6f, 0x6c, 0x75, 0x74, 0x69, 0x6f, 0x6e, 0x00,
  0x04, 0x00, 0x00, 0x00, 0x40, 0x00, 0x00, 0x00, 0x03, 0x00, 0x00, 0x00,
  0x03, 0x00, 0x00, 0x00, 0x01, 0x00, 0x00, 0x00, 0xfa, 0xfd, 0xff, 0xff,
  0x10, 0x00, 0x00, 0x00, 0x10, 0x00, 0x00, 0x00, 0x0b, 0x00, 0x00, 0x00,
  0x14, 0x00, 0x00, 0x00, 0xec, 0xfd, 0xff, 0xff, 0x06, 0x00, 0x00, 0x00,
  0x4d, 0x61, 0x74, 0x4d, 0x75, 0x6c, 0x00, 0x00, 0x02, 0x00, 0x00, 0x00,
  0x02, 0x00, 0x00, 0x00, 0x20, 0x00, 0x00, 0x00, 0x2a, 0xfe, 0xff, 0xff,
  0x10, 0x00, 0x00, 0x00, 0x10, 0x00, 0x00, 0x00, 0x0a, 0x00, 0x00, 0x00,
  0x14, 0x00, 0x00, 0x00, 0x1c, 0xfe, 0xff, 0xff, 0x07, 0x00, 0x00, 0x00,
  0x43, 0x6f, 0x6e, 0x73, 0x74, 0x5f, 0x38, 0x00, 0x01, 0x00, 0x00, 0x00,
  0x02, 0x00, 0x00, 0x00, 0x56, 0xfe, 0xff, 0xff, 0x10, 0x00, 0x00, 0x00,
  0x10, 0x00, 0x00, 0x00, 0x09, 0x00, 0x00, 0x00, 0x14, 0x00, 0x00, 0x00,
  0x48, 0xfe, 0xff, 0xff, 0x07, 0x00, 0x00, 0x00, 0x43, 0x6f, 0x6e, 0x73,
  0x74, 0x5f, 0x35, 0x00, 0x01, 0x00, 0x00, 0x00, 0x20, 0x00, 0x00, 0x00,
  0x82, 0xfe, 0xff, 0xff, 0x10, 0x00, 0x00, 0x00, 0x10, 0x00, 0x00, 0x00,
  0x08, 0x00, 0x00, 0x00, 0x14, 0x00, 0x00, 0x00, 0x74, 0xfe, 0xff, 0xff,
  0x07, 0x00, 0x00, 0x00, 0x43, 0x6f, 0x6e, 0x73, 0x74, 0x5f, 0x33, 0x00,
  0x01, 0x00, 0x00, 0x00, 0x40, 0x00, 0x00, 0x00, 0xae, 0xfe, 0xff, 0xff,
  0x10, 0x00, 0x00, 0x00, 0x10, 0x00, 0x00, 0x00, 0x07, 0x00, 0x00, 0x00,
  0x14, 0x00, 0x00, 0x00, 0xa0, 0xfe, 0xff, 0xff, 0x07, 0x00, 0x00, 0x00,
  0x43, 0x6f, 0x6e, 0x73, 0x74, 0x5f, 0x31, 0x00, 0x01, 0x00, 0x00, 0x00,
  0x40, 0x00, 0x00, 0x00, 0x26, 0xff, 0xff, 0xff, 0x14, 0x00, 0x00, 0x00,
  0x14, 0x00, 0x00, 0x00, 0x06, 0x00, 0x00, 0x00, 0x00, 0x00, 0x00, 0x02,
  0x14, 0x00, 0x00, 0x00, 0xd0, 0xfe, 0xff, 0xff, 0x05, 0x00, 0x00, 0x00,
  0x43, 0x6f, 0x6e, 0x73, 0x74, 0x00, 0x00, 0x00, 0x02, 0x00, 0x00, 0x00,
  0x04, 0x00, 0x00, 0x00, 0x02, 0x00, 0x00, 0x00, 0x5a, 0xff, 0xff, 0xff,
  0x14, 0x00, 0x00, 0x00, 0x14, 0x00, 0x00, 0x00, 0x05, 0x00, 0x00, 0x00,
  0x00, 0x00, 0x00, 0x02, 0x1c, 0x00, 0x00, 0x00, 0x04, 0xff, 0xff, 0xff,
  0x0d, 0x00, 0x00, 0x00, 0x66, 0x6c, 0x61, 0x74, 0x74, 0x65, 0x6e, 0x2f,
  0x43, 0x6f, 0x6e, 0x73, 0x74, 0x00, 0x00, 0x00, 0x01, 0x00, 0x00, 0x00,
  0x02, 0x00, 0x00, 0x00, 0x92, 0xff, 0xff, 0xff, 0x14, 0x00, 0x00, 0x00,
  0x14, 0x00, 0x00, 0x00, 0x04, 0x00, 0x00, 0x00, 0x00, 0x00, 0x00, 0x02,
  0x14, 0x00, 0x00, 0x00, 0x3c, 0xff, 0xff, 0xff, 0x07, 0x00, 0x00, 0x00,
  0x73, 0x70, 0x6c, 0x69, 0x74, 0x5f, 0x32, 0x00, 0x01, 0x00, 0x00, 0x00,
  0x02, 0x00, 0x00, 0x00, 0xc2, 0xff, 0xff, 0xff, 0x14, 0x00, 0x00, 0x00,
  0x14, 0x00, 0x00, 0x00, 0x03, 0x00, 0x00, 0x00, 0x00, 0x00, 0x00, 0x02,
  0x20, 0x00, 0x00, 0x00, 0x6c, 0xff, 0xff, 0xff, 0x10, 0x00, 0x00, 0x00,
  0x74, 0x72, 0x61, 0x6e, 0x73, 0x70, 0x6f, 0x73, 0x65, 0x5f, 0x31, 0x2f,
  0x70, 0x65, 0x72, 0x6d, 0x00, 0x00, 0x00, 0x00, 0x01, 0x00, 0x00, 0x00,
  0x04, 0x00, 0x00, 0x00, 0x00, 0x00, 0x0e, 0x00, 0x18, 0x00, 0x14, 0x00,
  0x13, 0x00, 0x0c, 0x00, 0x08, 0x00, 0x04, 0x00, 0x0e, 0x00, 0x00, 0x00,
  0x14, 0x00, 0x00, 0x00, 0x14, 0x00, 0x00, 0x00, 0x02, 0x00, 0x00, 0x00,
  0x00, 0x00, 0x00, 0x02, 0x20, 0x00, 0x00, 0x00, 0xb8, 0xff, 0xff, 0xff,
  0x10, 0x00, 0x00, 0x00, 0x74, 0x72, 0x61, 0x6e, 0x73, 0x70, 0x6f, 0x73,
  0x65, 0x5f, 0x32, 0x2f, 0x70, 0x65, 0x72, 0x6d, 0x00, 0x00, 0x00, 0x00,
  0x01, 0x00, 0x00, 0x00, 0x04, 0x00, 0x00, 0x00, 0x00, 0x00, 0x0e, 0x00,
  0x14, 0x00, 0x10, 0x00, 0x00, 0x00, 0x0c, 0x00, 0x08, 0x00, 0x04, 0x00,
  0x0e, 0x00, 0x00, 0x00, 0x14, 0x00, 0x00, 0x00, 0x14, 0x00, 0x00, 0x00,
  0x01, 0x00, 0x00, 0x00, 0x28, 0x00, 0x00, 0x00, 0x04, 0x00, 0x04, 0x00,
  0x04, 0x00, 0x00, 0x00, 0x17, 0x00, 0x00, 0x00, 0x73, 0x65, 0x72, 0x76,
  0x69, 0x6e, 0x67, 0x5f, 0x64, 0x65, 0x66, 0x61, 0x75, 0x6c, 0x74, 0x5f,
  0x69, 0x6e, 0x70, 0x75, 0x74, 0x3a, 0x30, 0x00, 0x04, 0x00, 0x00, 0x00,
  0x01, 0x00, 0x00, 0x00, 0x01, 0x00, 0x00, 0x00, 0x0a, 0x00, 0x00, 0x00,
  0x97, 0x00, 0x00, 0x00, 0x07, 0x00, 0x00, 0x00, 0x88, 0x00, 0x00, 0x00,
  0x6c, 0x00, 0x00, 0x00, 0x58, 0x00, 0x00, 0x00, 0x3c, 0x00, 0x00, 0x00,
  0x28, 0x00, 0x00, 0x00, 0x18, 0x00, 0x00, 0x00, 0x04, 0x00, 0x00, 0x00,
  0xc8, 0xff, 0xff, 0xff, 0x09, 0x00, 0x00, 0x00, 0x09, 0x00, 0x00, 0x00,
  0x00, 0x00, 0x00, 0x09, 0xb0, 0xff, 0xff, 0xff, 0x28, 0x00, 0x00, 0x00,
  0x00, 0x00, 0x00, 0x28, 0xe4, 0xff, 0xff, 0xff, 0x04, 0x00, 0x00, 0x00,
  0x06, 0x00, 0x00, 0x00, 0x00, 0x00, 0x00, 0x04, 0xcc, 0xff, 0xff, 0xff,
  0x27, 0x00, 0x00, 0x00, 0x00, 0x00, 0x00, 0x27, 0x0c, 0x00, 0x10, 0x00,
  0x0f, 0x00, 0x00, 0x00, 0x08, 0x00, 0x04, 0x00, 0x0c, 0x00, 0x00, 0x00,
  0x03, 0x00, 0x00, 0x00, 0x05, 0x00, 0x00, 0x00, 0x00, 0x00, 0x00, 0x03,
  0xf4, 0xff, 0xff, 0xff, 0x16, 0x00, 0x00, 0x00, 0x00, 0x00, 0x00, 0x16,
  0x0c, 0x00, 0x0c, 0x00, 0x0b, 0x00, 0x00, 0x00, 0x00, 0x00, 0x04, 0x00,
  0x0c, 0x00, 0x00, 0x00, 0x22, 0x00, 0x00, 0x00, 0x00, 0x00, 0x00, 0x22
};
unsigned int results_seizure_binary_shallow_checkpoint_poi_12_fold_1_mobilenet_s_shallow_model_quant_dr_tflite_len = 11712;
