unsigned char results_seizure_binary_shallow_checkpoint_poi_15_fold_4_mobilenet_s_shallow_model_quant_dr_tflite[] = {
  0x1c, 0x00, 0x00, 0x00, 0x54, 0x46, 0x4c, 0x33, 0x14, 0x00, 0x20, 0x00,
  0x1c, 0x00, 0x18, 0x00, 0x14, 0x00, 0x10, 0x00, 0x0c, 0x00, 0x00, 0x00,
  0x08, 0x00, 0x04, 0x00, 0x14, 0x00, 0x00, 0x00, 0x1c, 0x00, 0x00, 0x00,
  0x80, 0x00, 0x00, 0x00, 0xb0, 0x00, 0x00, 0x00, 0x10, 0x20, 0x00, 0x00,
  0x20, 0x20, 0x00, 0x00, 0xf4, 0x2c, 0x00, 0x00, 0x03, 0x00, 0x00, 0x00,
  0x01, 0x00, 0x00, 0x00, 0x04, 0x00, 0x00, 0x00, 0x5a, 0xdd, 0xff, 0xff,
  0x0c, 0x00, 0x00, 0x00, 0x1c, 0x00, 0x00, 0x00, 0x38, 0x00, 0x00, 0x00,
  0x0f, 0x00, 0x00, 0x00, 0x73, 0x65, 0x72, 0x76, 0x69, 0x6e, 0x67, 0x5f,
  0x64, 0x65, 0x66, 0x61, 0x75, 0x6c, 0x74, 0x00, 0x01, 0x00, 0x00, 0x00,
  0x04, 0x00, 0x00, 0x00, 0xc4, 0xff, 0xff, 0xff, 0x1a, 0x00, 0x00, 0x00,
  0x04, 0x00, 0x00, 0x00, 0x06, 0x00, 0x00, 0x00, 0x6f, 0x75, 0x74, 0x70,
  0x75, 0x74, 0x00, 0x00, 0x01, 0x00, 0x00, 0x00, 0x04, 0x00, 0x00, 0x00,
  0x7e, 0xe0, 0xff, 0xff, 0x04, 0x00, 0x00, 0x00, 0x05, 0x00, 0x00, 0x00,
  0x69, 0x6e, 0x70, 0x75, 0x74, 0x00, 0x00, 0x00, 0x01, 0x00, 0x00, 0x00,
  0x0c, 0x00, 0x00, 0x00, 0x08, 0x00, 0x0c, 0x00, 0x08, 0x00, 0x04, 0x00,
  0x08, 0x00, 0x00, 0x00, 0x1c, 0x00, 0x00, 0x00, 0x04, 0x00, 0x00, 0x00,
  0x13, 0x00, 0x00, 0x00, 0x6d, 0x69, 0x6e, 0x5f, 0x72, 0x75, 0x6e, 0x74,
  0x69, 0x6d, 0x65, 0x5f, 0x76, 0x65, 0x72, 0x73, 0x69, 0x6f, 0x6e, 0x00,
  0x1d, 0x00, 0x00, 0x00, 0x5c, 0x1f, 0x00, 0x00, 0x54, 0x1f, 0x00, 0x00,
  0x34, 0x1f, 0x00, 0x00, 0x0c, 0x1f, 0x00, 0x00, 0xf4, 0x1e, 0x00, 0x00,
  0xdc, 0x1e, 0x00, 0x00, 0xac, 0x1e, 0x00, 0x00, 0x9c, 0x1d, 0x00, 0x00,
  0x8c, 0x1c, 0x00, 0x00, 0xfc, 0x1b, 0x00, 0x00, 0xe4, 0x1b, 0x00, 0x00,
  0xd4, 0x1a, 0x00, 0x00, 0xc4, 0x11, 0x00, 0x00, 0xb4, 0x08, 0x00, 0x00,
  0xa4, 0x00, 0x00, 0x00, 0x84, 0x00, 0x00, 0x00, 0x7c, 0x00, 0x00, 0x00,
  0x74, 0x00, 0x00, 0x00, 0x6c, 0x00, 0x00, 0x00, 0x64, 0x00, 0x00, 0x00,
  0x5c, 0x00, 0x00, 0x00, 0x54, 0x00, 0x00, 0x00, 0x4c, 0x00, 0x00, 0x00,
  0x44, 0x00, 0x00, 0x00, 0x3c, 0x00, 0x00, 0x00, 0x34, 0x00, 0x00, 0x00,
  0x2c, 0x00, 0x00, 0x00, 0x24, 0x00, 0x00, 0x00, 0x04, 0x00, 0x00, 0x00,
  0x3e, 0xe1, 0xff, 0xff, 0x04, 0x00, 0x00, 0x00, 0x10, 0x00, 0x00, 0x00,
  0x31, 0x2e, 0x36, 0x2e, 0x30, 0x00, 0x00, 0x00, 0x00, 0x00, 0x00, 0x00,
  0x00, 0x00, 0x00, 0x00, 0x7c, 0xd4, 0xff, 0xff, 0x80, 0xd4, 0xff, 0xff,
  0x84, 0xd4, 0xff, 0xff, 0x88, 0xd4, 0xff, 0xff, 0x8c, 0xd4, 0xff, 0xff,
  0x90, 0xd4, 0xff, 0xff, 0x94, 0xd4, 0xff, 0xff, 0x98, 0xd4, 0xff, 0xff,
  0x9c, 0xd4, 0xff, 0xff, 0xa0, 0xd4, 0xff, 0xff, 0xa4, 0xd4, 0xff, 0xff,
  0xa8, 0xd4, 0xff, 0xff, 0x8a, 0xe1, 0xff, 0xff, 0x04, 0x00, 0x00, 0x00,
  0x10, 0x00, 0x00, 0x00, 0x01, 0x00, 0x00, 0x00, 0x0c, 0x00, 0x00, 0x00,
  0x99, 0x00, 0x00, 0x00, 0x01, 0x00, 0x00, 0x00, 0xa6, 0xe1, 0xff, 0xff,
  0x04, 0x00, 0x00, 0x00, 0x00, 0x08, 0x00, 0x00, 0xf1, 0xee, 0x32, 0xc9,
  0x29, 0xd6, 0x33, 0x1a, 0x04, 0x28, 0xee, 0xb8, 0xff, 0xde, 0xd2, 0xd2,
  0xed, 0xf4, 0xe6, 0x33, 0xef, 0xef, 0x06, 0x08, 0x08, 0x0a, 0x38, 0xfe,
  0x02, 0x13, 0x2c, 0x81, 0x19, 0xec, 0x65, 0xd3, 0xf1, 0xd8, 0x4f, 0xfd,
  0xee, 0x23, 0xf5, 0x1f, 0x12, 0xf2, 0x05, 0x00, 0x26, 0x18, 0x30, 0xfc,
  0x18, 0x1f, 0xd2, 0x13, 0x0a, 0xe5, 0xe1, 0xfc, 0xb2, 0xca, 0x05, 0x04,
  0xff, 0xff, 0x02, 0xfc, 0x03, 0x00, 0x01, 0xff, 0xff, 0x01, 0x01, 0x00,
  0x00, 0x0a, 0x00, 0xfe, 0xff, 0x01, 0x00, 0xfe, 0x00, 0x03, 0x01, 0x03,
  0xfe, 0x03, 0x01, 0x01, 0x00, 0xfc, 0x01, 0xf9, 0x04, 0x00, 0x7f, 0x01,
  0x02, 0xfd, 0x00, 0x01, 0xff, 0x02, 0x00, 0x02, 0x03, 0x04, 0x01, 0x02,
  0x00, 0x01, 0xff, 0x01, 0x00, 0xfe, 0x00, 0x02, 0x00, 0x00, 0xff, 0x03,
  0x00, 0xff, 0x02, 0xfe, 0x03, 0x0b, 0xfa, 0x00, 0xf7, 0xff, 0xf7, 0x05,
  0x01, 0x06, 0xf7, 0x0b, 0xf8, 0xe1, 0x0a, 0xff, 0x01, 0x01, 0x01, 0xfd,
  0x09, 0x07, 0xff, 0x08, 0xfc, 0xff, 0x00, 0xf8, 0x01, 0xfc, 0xf9, 0x17,
  0xfa, 0xfc, 0x81, 0x08, 0x0e, 0xea, 0xf9, 0x02, 0x02, 0xf0, 0xf3, 0xf9,
  0x02, 0x0d, 0x00, 0xfc, 0x04, 0x03, 0xf7, 0x02, 0xf7, 0x04, 0x07, 0xfe,
  0xfd, 0x03, 0x00, 0xfd, 0x08, 0xd3, 0x07, 0x04, 0x08, 0x18, 0x0e, 0x16,
  0xc8, 0x23, 0x06, 0x33, 0xd3, 0x2d, 0x09, 0x10, 0xee, 0xf9, 0x17, 0x15,
  0x10, 0xbb, 0xc6, 0x31, 0x0e, 0x00, 0xfe, 0x2d, 0x40, 0xb5, 0xd7, 0xde,
  0xfc, 0xc3, 0xdd, 0x7f, 0xfe, 0xf4, 0x8a, 0x0d, 0x15, 0x06, 0xbd, 0xeb,
  0x17, 0xcd, 0x98, 0xd8, 0x0a, 0xfc, 0xa9, 0xff, 0x00, 0xf6, 0x95, 0xd7,
  0xc3, 0x34, 0x34, 0x0e, 0xe6, 0x3b, 0x03, 0x36, 0x19, 0xf8, 0x3d, 0x21,
  0x01, 0x0d, 0xf8, 0x02, 0xec, 0xf6, 0x10, 0x08, 0x22, 0x15, 0xfb, 0x38,
  0x1f, 0xff, 0x32, 0xee, 0xae, 0xfc, 0x1f, 0x1d, 0x13, 0x24, 0xfe, 0x1c,
  0xeb, 0x1f, 0xd5, 0xde, 0x00, 0x13, 0xed, 0x01, 0xf0, 0xf5, 0x22, 0x08,
  0xd8, 0x92, 0x94, 0xe8, 0xfd, 0x22, 0x09, 0xda, 0xfe, 0xd5, 0x1e, 0xf5,
  0x29, 0x1e, 0xc6, 0xf0, 0xf0, 0xe1, 0x1e, 0x87, 0xef, 0xc7, 0xfd, 0xd1,
  0x81, 0xe6, 0xfd, 0xfe, 0xfe, 0x09, 0x14, 0xf2, 0x2c, 0x25, 0x2d, 0xdc,
  0xbf, 0x1d, 0xee, 0x04, 0x11, 0x0a, 0xf8, 0xef, 0xff, 0x0e, 0x07, 0x3d,
  0xfc, 0xe8, 0x06, 0x38, 0xbc, 0x25, 0x1f, 0x2b, 0x05, 0xb3, 0x1a, 0xca,
  0x0e, 0x40, 0x7f, 0x0e, 0xed, 0xea, 0x2d, 0xec, 0xdc, 0x11, 0xd0, 0xfb,
  0xb2, 0x0a, 0xb1, 0x07, 0x0c, 0x06, 0x3e, 0xf2, 0xb3, 0x17, 0xdc, 0xf3,
  0xe8, 0x08, 0xb6, 0xde, 0x2d, 0x1b, 0xeb, 0x23, 0xff, 0x09, 0xfa, 0x05,
  0xf8, 0x05, 0xfe, 0x06, 0x00, 0x08, 0xf9, 0xff, 0xfb, 0xe8, 0x07, 0x08,
  0x01, 0xfa, 0x01, 0xfb, 0x0b, 0x06, 0x00, 0x0b, 0x03, 0x01, 0xfd, 0xf6,
  0x01, 0xf9, 0xf6, 0x3c, 0xfd, 0x05, 0x81, 0x07, 0x10, 0xf7, 0xf4, 0xff,
  0x04, 0xf0, 0xf6, 0xfb, 0x04, 0x03, 0xf4, 0xfe, 0x02, 0x04, 0xf5, 0xfc,
  0xf5, 0x09, 0x09, 0x04, 0xfa, 0x07, 0xfc, 0x0a, 0x03, 0xec, 0x07, 0x03,
  0x0c, 0xf5, 0x0a, 0xed, 0x0c, 0xfe, 0x0b, 0x09, 0xfd, 0xfc, 0x05, 0xeb,
  0xfb, 0xf5, 0x00, 0x07, 0x1b, 0x0e, 0xfa, 0x07, 0xf2, 0xed, 0x06, 0x0a,
  0xfb, 0xf6, 0x0b, 0x05, 0x02, 0xf2, 0x7f, 0x86, 0x0e, 0x08, 0xfa, 0xf2,
  0xfc, 0xfe, 0x08, 0x11, 0xf3, 0x22, 0xe1, 0x01, 0x08, 0xdd, 0xf9, 0xff,
  0x01, 0x00, 0x0c, 0xfc, 0x15, 0xf0, 0xd1, 0x05, 0x02, 0xf1, 0xf9, 0x0b,
  0xf0, 0xfe, 0x0e, 0xf3, 0x0c, 0xfb, 0x04, 0xfb, 0x08, 0xfe, 0x16, 0x16,
  0xf5, 0xf6, 0x08, 0xec, 0xf9, 0xfa, 0xfd, 0x06, 0x17, 0x07, 0xf9, 0x0b,
  0xf6, 0xfd, 0x08, 0x06, 0xf0, 0xfa, 0x09, 0x05, 0xfa, 0xfb, 0x7f, 0xa0,
  0x0a, 0x14, 0x0d, 0x03, 0xf4, 0x01, 0xea, 0x12, 0xf2, 0x1d, 0xfc, 0xff,
  0x0c, 0xd4, 0x02, 0x01, 0xf7, 0x09, 0x13, 0x07, 0x01, 0xf4, 0xb9, 0xff,
  0x04, 0x04, 0x04, 0x09, 0xf3, 0x06, 0x12, 0xf9, 0x07, 0x17, 0x03, 0x06,
  0xfb, 0x02, 0xf1, 0x07, 0x0f, 0x17, 0xc5, 0x0f, 0xf2, 0xf2, 0x19, 0xfb,
  0xda, 0x01, 0x0a, 0x18, 0x0e, 0x0f, 0xff, 0x08, 0xf2, 0xeb, 0xf4, 0xe7,
  0x03, 0x13, 0xda, 0x0e, 0xe5, 0xf6, 0x7f, 0x0a, 0xfd, 0x07, 0xbd, 0x05,
  0xf8, 0xf3, 0x06, 0xe1, 0x17, 0xff, 0x0a, 0xfb, 0x00, 0x09, 0xe5, 0x05,
  0xf1, 0x02, 0x0b, 0xe9, 0x03, 0xfb, 0xfc, 0xf4, 0x03, 0xfd, 0xf6, 0x0e,
  0x06, 0x08, 0x13, 0xec, 0x28, 0xec, 0x15, 0x0d, 0x09, 0x11, 0xfd, 0xd7,
  0x07, 0xca, 0xea, 0xf9, 0x05, 0xe4, 0xf6, 0x25, 0xe5, 0x02, 0x05, 0x1e,
  0x08, 0x03, 0x0e, 0x0b, 0x06, 0xbd, 0x03, 0x81, 0x1d, 0xf2, 0x02, 0xff,
  0x05, 0xf2, 0x23, 0x16, 0xf0, 0x1a, 0x9e, 0x18, 0x07, 0xd6, 0x00, 0x02,
  0x05, 0x04, 0x01, 0x00, 0x0f, 0x12, 0xb7, 0x0a, 0x04, 0xec, 0xde, 0x09,
  0xdb, 0x0e, 0x16, 0x05, 0x01, 0x0a, 0xff, 0x02, 0xef, 0x04, 0x02, 0x04,
  0xfd, 0x04, 0xfc, 0x02, 0xf8, 0xee, 0xfe, 0xff, 0x09, 0xfc, 0xfe, 0xfa,
  0x01, 0x06, 0x00, 0xff, 0x00, 0xf2, 0x02, 0xfe, 0xff, 0x04, 0x09, 0x0f,
  0xfe, 0xfa, 0x81, 0x05, 0x01, 0xfc, 0xf7, 0x00, 0x02, 0xf6, 0x00, 0x03,
  0x01, 0x02, 0xfd, 0xfe, 0x06, 0x04, 0xfe, 0xfd, 0xfa, 0xfc, 0xfa, 0x03,
  0xfc, 0x04, 0xf9, 0x02, 0x02, 0xfb, 0x00, 0x07, 0x00, 0x17, 0x0e, 0xf8,
  0x17, 0x1b, 0x1e, 0x19, 0xcd, 0x11, 0xc9, 0xc1, 0xd9, 0x86, 0x02, 0xef,
  0x16, 0xc3, 0xcd, 0x22, 0xfc, 0x13, 0xff, 0xf0, 0xfb, 0xe7, 0xf2, 0x0d,
  0xfd, 0x1b, 0x11, 0x7f, 0xe9, 0xf0, 0xce, 0x0c, 0xf2, 0x1c, 0x11, 0xea,
  0x14, 0xd1, 0xf3, 0xed, 0x17, 0xef, 0xe4, 0x04, 0xe2, 0xc1, 0x0d, 0xd5,
  0xee, 0x1b, 0x1d, 0x12, 0xcf, 0x0f, 0x11, 0x33, 0x0d, 0x10, 0xfd, 0x29,
  0xff, 0x18, 0xef, 0x08, 0xf2, 0x14, 0x0d, 0x0c, 0xe6, 0x17, 0xc8, 0x04,
  0xe0, 0xc5, 0x08, 0x01, 0x00, 0xd1, 0xfa, 0x05, 0x15, 0x1a, 0xff, 0x0d,
  0xfd, 0xf7, 0xfb, 0xed, 0xff, 0x13, 0x00, 0x7f, 0xef, 0xf4, 0x97, 0x15,
  0x18, 0x0c, 0xf3, 0x08, 0x0c, 0xd8, 0x04, 0xee, 0x12, 0x05, 0xe4, 0xfe,
  0xf8, 0x09, 0xf3, 0xf5, 0xf1, 0x17, 0x17, 0x0f, 0xe4, 0x16, 0xf2, 0x12,
  0x07, 0x05, 0xfb, 0x1d, 0x1a, 0x0c, 0x0d, 0xfd, 0x2a, 0xea, 0x05, 0xfb,
  0xac, 0xfe, 0x09, 0xef, 0x23, 0x14, 0xe1, 0xf0, 0x02, 0xd8, 0xfe, 0x1d,
  0xef, 0xe2, 0x03, 0x05, 0x12, 0x10, 0x00, 0x1b, 0x02, 0x2c, 0x17, 0xb9,
  0x1e, 0x02, 0x7f, 0xbc, 0x24, 0xbd, 0x41, 0x1f, 0xc5, 0x0b, 0x1e, 0x1d,
  0x33, 0xe8, 0x18, 0xfd, 0xe7, 0xdb, 0xf9, 0xe1, 0x0e, 0x1a, 0xfc, 0xf4,
  0xfe, 0x03, 0xf5, 0x1c, 0xed, 0xd2, 0x1b, 0xeb, 0x40, 0xb6, 0x04, 0xcf,
  0x1b, 0xec, 0x1d, 0xe8, 0xe8, 0x20, 0x0f, 0x2c, 0x22, 0x4f, 0x1a, 0x04,
  0x1e, 0x07, 0xf2, 0x33, 0x02, 0xf4, 0x04, 0x29, 0xdd, 0x22, 0x0a, 0x13,
  0x00, 0x38, 0x21, 0x81, 0x0a, 0x14, 0x0f, 0xc0, 0x01, 0x24, 0x1d, 0x0f,
  0x1f, 0xfd, 0x1d, 0xd7, 0xef, 0x29, 0x0f, 0xfd, 0x3c, 0xae, 0x3d, 0xcd,
  0x12, 0x12, 0x45, 0x23, 0xe7, 0xea, 0xfc, 0x28, 0x12, 0xa4, 0xaa, 0xf1,
  0x03, 0xfb, 0x07, 0xf5, 0xfc, 0x01, 0x06, 0xff, 0xfb, 0xff, 0x18, 0xfc,
  0x01, 0x0c, 0x03, 0x0a, 0x0a, 0x06, 0xf5, 0xf4, 0xfc, 0x05, 0x05, 0x03,
  0x06, 0x05, 0xff, 0x04, 0xfe, 0xf3, 0x7f, 0x0f, 0xfa, 0x10, 0x01, 0x02,
  0xe7, 0x0d, 0xee, 0x00, 0x08, 0x10, 0xfd, 0xff, 0x17, 0x03, 0x01, 0x02,
  0x14, 0xf9, 0x10, 0x02, 0xf9, 0xf7, 0x11, 0x03, 0xfd, 0xf9, 0x02, 0x04,
  0xfa, 0x01, 0xef, 0x00, 0xff, 0x06, 0xf7, 0x0c, 0x00, 0x11, 0x0a, 0x0b,
  0xfb, 0x07, 0xf4, 0x04, 0xf3, 0xec, 0x05, 0x03, 0x09, 0xdb, 0xfb, 0x00,
  0x02, 0x0f, 0x00, 0x0a, 0x06, 0xf1, 0xf9, 0xff, 0x01, 0x1b, 0x04, 0x7f,
  0xf7, 0xef, 0xf5, 0x05, 0x06, 0xfe, 0xf3, 0xf5, 0x05, 0xe7, 0xfa, 0xfa,
  0x09, 0xf8, 0xf3, 0xff, 0x01, 0xfb, 0x03, 0xfb, 0x05, 0x19, 0x0d, 0x08,
  0xf6, 0x08, 0xfd, 0x06, 0x09, 0x08, 0x07, 0x13, 0x22, 0x03, 0x23, 0xfe,
  0x2c, 0xfc, 0x24, 0xf0, 0xb6, 0x00, 0x0c, 0xc0, 0x12, 0x0c, 0xc6, 0xfa,
  0x17, 0xf8, 0xfb, 0x1e, 0xe0, 0xe1, 0x06, 0x18, 0x03, 0x1a, 0x0e, 0x18,
  0x03, 0x10, 0x0f, 0x9c, 0x13, 0xfc, 0x7f, 0xc9, 0x1b, 0xd4, 0x4a, 0x36,
  0xb2, 0x15, 0x04, 0x19, 0x37, 0xdf, 0x09, 0xfd, 0xd1, 0xe8, 0xfe, 0xfb,
  0xea, 0x20, 0xe7, 0xf5, 0xea, 0xf8, 0xf6, 0x1e, 0xeb, 0xe8, 0x19, 0xf9,
  0x0b, 0xf1, 0x09, 0xf2, 0x0f, 0xff, 0x24, 0x1c, 0xf1, 0xfd, 0x0b, 0xee,
  0xfd, 0x0a, 0x00, 0x0b, 0x15, 0x04, 0xfb, 0x13, 0xf4, 0xfe, 0x04, 0x09,
  0xfa, 0xfc, 0x05, 0xfe, 0x00, 0xe7, 0x3e, 0x81, 0x11, 0x19, 0x08, 0xfa,
  0xf4, 0x00, 0xdd, 0x18, 0xf1, 0x20, 0xf4, 0x01, 0x14, 0xcb, 0x0b, 0x01,
  0xf9, 0x0e, 0x1b, 0x08, 0xfc, 0x01, 0xac, 0x02, 0x03, 0xff, 0x06, 0x09,
  0xf5, 0x02, 0x1d, 0xf8, 0xff, 0xfe, 0x02, 0xfb, 0x03, 0x00, 0x01, 0xff,
  0xff, 0x01, 0x01, 0x00, 0xfe, 0x09, 0x00, 0xfd, 0xff, 0x01, 0x00, 0xfd,
  0x00, 0x03, 0x01, 0x03, 0xfe, 0x03, 0x01, 0x01, 0x01, 0xfc, 0x01, 0xf9,
  0x04, 0x00, 0x7f, 0x01, 0x02, 0xfc, 0x01, 0x00, 0xfe, 0x02, 0x00, 0x02,
  0x02, 0x04, 0x00, 0x00, 0x01, 0x02, 0xff, 0x02, 0xff, 0xfe, 0x00, 0x01,
  0xff, 0x00, 0xff, 0x03, 0x01, 0xff, 0x02, 0xff, 0xef, 0xe6, 0xfb, 0xff,
  0xee, 0x0c, 0x13, 0x0e, 0x00, 0x0b, 0xd5, 0x01, 0xf1, 0x00, 0x0a, 0x01,
  0xff, 0xd4, 0xfd, 0xff, 0xff, 0x1a, 0xff, 0x10, 0x04, 0xf4, 0x00, 0x0a,
  0xfe, 0x1a, 0x0e, 0x6d, 0xed, 0xe0, 0x7f, 0x08, 0x01, 0xfe, 0xf2, 0x01,
  0xfd, 0xf2, 0xec, 0xf7, 0x02, 0xeb, 0xe0, 0x03, 0x11, 0xde, 0x0c, 0xfa,
  0x15, 0x21, 0xff, 0x05, 0xf6, 0x0c, 0x0c, 0xfd, 0x08, 0x17, 0x09, 0x04,
  0x64, 0xe2, 0xee, 0x25, 0x20, 0x0f, 0xb8, 0xa8, 0xbf, 0x28, 0xfb, 0x33,
  0xb3, 0xb5, 0xfc, 0xd7, 0x4f, 0xbd, 0xff, 0x00, 0xd9, 0x1b, 0x09, 0x7e,
  0xec, 0x1f, 0x4f, 0x13, 0xfb, 0x16, 0x0d, 0xbd, 0x3a, 0xec, 0x7f, 0x14,
  0xb6, 0xf3, 0x57, 0xf1, 0xe8, 0x07, 0xf8, 0x18, 0xda, 0x70, 0xdf, 0x00,
  0x60, 0xb1, 0x46, 0xca, 0xe5, 0x1d, 0xe2, 0x16, 0xeb, 0x02, 0xca, 0x05,
  0xd6, 0xf7, 0xf1, 0x0a, 0x03, 0xf6, 0x0b, 0xee, 0x1c, 0x06, 0x17, 0xea,
  0xe3, 0x11, 0x03, 0xfe, 0xf8, 0xff, 0x04, 0xfa, 0x05, 0xef, 0x01, 0xfe,
  0xee, 0xfb, 0x02, 0x1e, 0xe2, 0x10, 0x00, 0x12, 0xfe, 0xe3, 0x05, 0xdd,
  0x14, 0x12, 0x7f, 0x02, 0xf6, 0xfc, 0x2e, 0x1f, 0xe8, 0x10, 0xc7, 0x04,
  0xed, 0xfa, 0xd2, 0x00, 0xdb, 0x15, 0x25, 0x02, 0xf8, 0x0f, 0xef, 0xf2,
  0xf4, 0xf9, 0xe8, 0x00, 0x0c, 0x14, 0xfb, 0x01, 0x17, 0xc2, 0x31, 0xb6,
  0x2a, 0x0c, 0x10, 0x0c, 0xe5, 0x20, 0x00, 0xab, 0xf8, 0x1e, 0xfb, 0x01,
  0x11, 0xf9, 0xf9, 0x27, 0xe0, 0xcc, 0x07, 0x1d, 0xf9, 0x15, 0x26, 0x06,
  0xfd, 0x11, 0x22, 0x81, 0x16, 0x19, 0x4e, 0xd1, 0xf7, 0xe2, 0x19, 0x1a,
  0xe5, 0x25, 0xa9, 0x05, 0x09, 0xf4, 0x09, 0xff, 0x25, 0x01, 0x2e, 0x01,
  0x00, 0x2b, 0xd9, 0xfb, 0xea, 0xe0, 0xe2, 0x0b, 0xfc, 0xc3, 0xfc, 0x0c,
  0xff, 0x06, 0x00, 0x07, 0xf7, 0x03, 0x02, 0x06, 0xfd, 0x07, 0x03, 0x03,
  0xf9, 0xeb, 0x03, 0x06, 0x08, 0xfd, 0xf9, 0x04, 0x04, 0x05, 0x00, 0x06,
  0xfe, 0xe9, 0xfb, 0xf3, 0x01, 0x02, 0xf7, 0x1c, 0xfe, 0x09, 0x81, 0x05,
  0x04, 0xf4, 0xed, 0x04, 0x01, 0xf9, 0xf1, 0x03, 0x00, 0x04, 0xfd, 0xff,
  0x03, 0x03, 0xf4, 0xfd, 0xf7, 0xf8, 0x07, 0x05, 0xf7, 0x02, 0xfc, 0x09,
  0xff, 0xfc, 0x04, 0x05, 0x08, 0xe3, 0x2a, 0x02, 0x4d, 0xd3, 0x19, 0x02,
  0x23, 0x13, 0xf2, 0xd6, 0x2c, 0x0f, 0xb7, 0xd5, 0xe5, 0xca, 0xda, 0x1c,
  0xb7, 0xde, 0x0d, 0xf8, 0x3f, 0x3b, 0xe2, 0xef, 0x01, 0x01, 0x0b, 0xa0,
  0x23, 0xf6, 0x7f, 0xb4, 0x26, 0xc9, 0x7f, 0xf1, 0xc3, 0x25, 0x15, 0x28,
  0x2b, 0xeb, 0x1b, 0xfd, 0xfc, 0xb8, 0x09, 0xd2, 0x17, 0x23, 0xfa, 0x10,
  0x0c, 0x0d, 0xed, 0x14, 0x9d, 0xbf, 0xf5, 0x0d, 0x05, 0xf5, 0x1d, 0xf6,
  0x09, 0xea, 0x28, 0x10, 0x13, 0x10, 0x05, 0xf9, 0x1a, 0xf2, 0x03, 0x10,
  0x03, 0xc9, 0xe7, 0x19, 0xe2, 0x07, 0x02, 0xff, 0x09, 0x0b, 0x09, 0xfe,
  0xff, 0xe2, 0x03, 0x81, 0x07, 0xe3, 0xe4, 0xd4, 0x1f, 0x04, 0x09, 0x07,
  0xc8, 0x08, 0x15, 0x06, 0x03, 0xf4, 0x13, 0x00, 0x08, 0xcc, 0x00, 0xf6,
  0x1a, 0x0f, 0xe7, 0xfd, 0xf2, 0xff, 0xfa, 0x1c, 0x01, 0x07, 0x08, 0xf4,
  0x2e, 0x0d, 0x11, 0xfd, 0x12, 0x0c, 0xee, 0x34, 0x04, 0x15, 0x07, 0x10,
  0x01, 0xe1, 0x26, 0xfc, 0xed, 0xd7, 0xf7, 0x35, 0xd9, 0x1d, 0x02, 0xff,
  0xa9, 0x24, 0xe1, 0xb5, 0x01, 0x0c, 0x0d, 0xad, 0x13, 0x41, 0x81, 0x04,
  0xd2, 0x0b, 0xf5, 0x21, 0xd6, 0x06, 0x16, 0x12, 0xdc, 0x42, 0x21, 0x00,
  0x16, 0x17, 0x2a, 0x0e, 0xd5, 0x37, 0xe2, 0x1c, 0x1e, 0x04, 0xb1, 0xd0,
  0x17, 0x0e, 0xf0, 0x03, 0xf6, 0x07, 0xe0, 0x10, 0xca, 0x23, 0x11, 0x15,
  0xf8, 0x12, 0x06, 0x21, 0x0e, 0xec, 0x28, 0xeb, 0xe4, 0x81, 0x20, 0x1d,
  0x2e, 0x14, 0xfe, 0x09, 0x33, 0x12, 0xd1, 0xd4, 0x06, 0x1e, 0xf6, 0x02,
  0xb6, 0x1c, 0x8a, 0x0d, 0xc6, 0xef, 0xa2, 0xc3, 0x1f, 0xbf, 0xfd, 0xe0,
  0xfb, 0xf4, 0xaa, 0xfe, 0x03, 0x1f, 0xc0, 0x08, 0x11, 0x41, 0x1e, 0x87,
  0xbb, 0x0d, 0x2a, 0xd0, 0x23, 0x00, 0xe7, 0x17, 0x1e, 0xf2, 0x1d, 0x2a,
  0x42, 0xde, 0x0e, 0xe8, 0x2b, 0x0d, 0xf8, 0xd1, 0x28, 0x06, 0xc3, 0xe0,
  0xcc, 0xd0, 0xed, 0x14, 0xb6, 0xe6, 0x04, 0xef, 0x49, 0x22, 0xf2, 0xe7,
  0xfb, 0x01, 0x00, 0x03, 0x16, 0xec, 0x3b, 0xcd, 0x22, 0xe4, 0x7f, 0xc2,
  0xd2, 0x0f, 0x1e, 0x24, 0x2e, 0xf5, 0x12, 0x00, 0xec, 0xd1, 0x0c, 0xe2,
  0x02, 0x31, 0xe4, 0x05, 0x0d, 0x1a, 0xfe, 0x00, 0xc5, 0xe6, 0xfb, 0x0e,
  0x2f, 0xdb, 0x11, 0x1e, 0x64, 0x0a, 0x2e, 0x9d, 0x06, 0x07, 0x11, 0x0d,
  0x3c, 0x25, 0x1b, 0xc8, 0xe5, 0x3d, 0xe9, 0x2a, 0xd7, 0xfe, 0x08, 0x25,
  0x04, 0x13, 0x31, 0x0d, 0x04, 0x03, 0x2f, 0x51, 0x3a, 0xe9, 0x7c, 0xf3,
  0x20, 0x11, 0x7f, 0x39, 0x14, 0xbe, 0x9d, 0xed, 0x03, 0x37, 0xe6, 0x02,
  0x1c, 0x9a, 0x20, 0xe6, 0x18, 0xc6, 0x06, 0xea, 0xfd, 0xd0, 0x04, 0x3e,
  0x24, 0xe9, 0xcc, 0xf5, 0xb2, 0xe9, 0xff, 0xff, 0x04, 0x00, 0x00, 0x00,
  0x00, 0x09, 0x00, 0x00, 0x85, 0xdb, 0x9a, 0xbe, 0xc8, 0x75, 0x99, 0xbc,
  0xfa, 0x00, 0x0b, 0xbf, 0x48, 0xab, 0xd3, 0xbd, 0xc9, 0xe9, 0x03, 0x40,
  0x25, 0x05, 0x38, 0xbd, 0xb9, 0x78, 0x3c, 0xbe, 0xe8, 0x3c, 0x05, 0x3f,
  0x5a, 0xb7, 0x34, 0x3f, 0xdf, 0xde, 0xd0, 0x3e, 0x4c, 0x78, 0xa4, 0x3d,
  0xbf, 0x7c, 0x93, 0xbd, 0x10, 0x27, 0xf5, 0xbd, 0x59, 0x83, 0x61, 0x3e,
  0x72, 0x70, 0x13, 0x3e, 0x02, 0x22, 0x58, 0xbe, 0xf0, 0x03, 0x4f, 0x3d,
  0x41, 0xd8, 0x6f, 0x3e, 0xfa, 0x3f, 0x2a, 0xbe, 0x56, 0x9e, 0xb6, 0x3e,
  0xf8, 0x97, 0xb7, 0x3e, 0x4a, 0x68, 0xad, 0xbd, 0x67, 0x9e, 0x5a, 0xc0,
  0x7b, 0x79, 0xbf, 0x3e, 0x34, 0x36, 0xa5, 0xbe, 0x56, 0x69, 0xbb, 0xbd,
  0x97, 0x44, 0x6b, 0xbf, 0x92, 0x1f, 0x0c, 0x3c, 0xab, 0xf0, 0x17, 0x3c,
  0x3e, 0x64, 0x37, 0xbf, 0x07, 0xe0, 0x51, 0xbe, 0x41, 0x1a, 0xe5, 0x3c,
  0xd3, 0x3c, 0x13, 0x3f, 0x6e, 0x77, 0x0e, 0xbe, 0xeb, 0xd6, 0xc1, 0xbf,
  0xeb, 0x80, 0x3b, 0x3f, 0x1a, 0xd3, 0xb5, 0xbe, 0xeb, 0x9a, 0x2a, 0x3d,
  0x3f, 0xcc, 0x06, 0xbe, 0x36, 0xa9, 0x20, 0x3d, 0x45, 0x56, 0x5d, 0xbc,
  0x53, 0x10, 0xf0, 0xbe, 0x10, 0x3e, 0xa3, 0x3f, 0x08, 0x50, 0xcc, 0xbc,
  0x39, 0x5d, 0x0b, 0x3e, 0xf1, 0xee, 0xcc, 0x3e, 0x94, 0x95, 0x85, 0xbc,
  0xcb, 0x74, 0x63, 0x42, 0xa5, 0x65, 0xd8, 0x3d, 0x9a, 0x32, 0x8d, 0x3e,
  0x4f, 0xec, 0x79, 0xbf, 0xa0, 0x50, 0x0d, 0xbf, 0x30, 0x85, 0x3a, 0xbf,
  0x8b, 0x3f, 0xb7, 0xbd, 0x52, 0x58, 0x7c, 0xbe, 0xf4, 0x51, 0x5c, 0xbd,
  0xe1, 0xcd, 0x0a, 0xbe, 0xad, 0x36, 0x38, 0xbf, 0x4c, 0xa9, 0xf9, 0x3e,
  0x59, 0x1a, 0x32, 0xbe, 0xf0, 0x11, 0x9a, 0x3e, 0xcb, 0x05, 0xf1, 0x3d,
  0x9d, 0xa4, 0x1d, 0xbe, 0x47, 0x14, 0xaf, 0x3c, 0xd0, 0xc4, 0x65, 0xbf,
  0x31, 0xb7, 0xc8, 0xbe, 0xdb, 0xff, 0x9d, 0xbe, 0xe4, 0x5f, 0x80, 0x3d,
  0x3f, 0x66, 0x05, 0xbf, 0x9f, 0xaa, 0xc6, 0x3d, 0x21, 0x4d, 0x09, 0x3e,
  0xcf, 0x39, 0x0e, 0xbf, 0xfc, 0x1a, 0x36, 0xbf, 0x97, 0xc7, 0x21, 0x3f,
  0x9f, 0x92, 0xe1, 0x3c, 0x61, 0x60, 0x26, 0x3e, 0xf2, 0x8e, 0x42, 0xbf,
  0x52, 0x27, 0xf1, 0x3d, 0xf9, 0xf1, 0xc9, 0xbe, 0x25, 0x7f, 0x6a, 0xbe,
  0x8a, 0xbd, 0x2c, 0xbd, 0x19, 0x50, 0xaf, 0xbe, 0x0d, 0x1f, 0x88, 0x3e,
  0x88, 0x77, 0x3e, 0xbe, 0x05, 0xaa, 0xb6, 0x3e, 0xa6, 0x8b, 0xa0, 0x3c,
  0x5d, 0x5c, 0x6b, 0xc0, 0xb2, 0xf8, 0x48, 0xbf, 0x73, 0xf1, 0x5e, 0xbd,
  0x76, 0xc8, 0x86, 0xbe, 0x7d, 0x15, 0xec, 0x3e, 0x20, 0x0d, 0xfc, 0x3f,
  0x70, 0xdf, 0x5c, 0x3c, 0x6b, 0x5f, 0x51, 0xbf, 0xb3, 0xf9, 0xc6, 0xbe,
  0x74, 0xc1, 0xa3, 0xbc, 0x58, 0x37, 0x8d, 0xbe, 0x06, 0x60, 0x8f, 0x3e,
  0xff, 0x54, 0xf4, 0xbb, 0x91, 0xe8, 0x64, 0x3f, 0xc3, 0x2d, 0x73, 0xbe,
  0x48, 0x8c, 0x0c, 0x3e, 0xcc, 0x6b, 0x10, 0xbe, 0xca, 0x93, 0x11, 0x3e,
  0xea, 0xc7, 0x59, 0xbd, 0x21, 0x4a, 0x35, 0xba, 0x6f, 0x5f, 0x29, 0xc0,
  0x37, 0xeb, 0xb9, 0x3d, 0x04, 0xbe, 0xdb, 0xbe, 0x1b, 0x32, 0xba, 0x3e,
  0x5d, 0xc9, 0x5a, 0x3f, 0xc3, 0xd2, 0x0f, 0xc3, 0x76, 0xcb, 0xfb, 0xbd,
  0x5b, 0x58, 0x8f, 0xbf, 0x0c, 0x63, 0xab, 0xbe, 0xfc, 0x04, 0xcb, 0xbe,
  0x0e, 0x22, 0x08, 0xc0, 0x0d, 0xe2, 0x90, 0xbd, 0x38, 0xd1, 0x28, 0x3e,
  0xf7, 0x5e, 0x97, 0x3a, 0xf0, 0x47, 0x56, 0x3e, 0x1a, 0xbf, 0x0e, 0x3f,
  0x99, 0x40, 0x2c, 0xbf, 0x39, 0x95, 0x28, 0x3e, 0x40, 0x26, 0x36, 0xbf,
  0x9c, 0x33, 0xdd, 0xbc, 0x27, 0xbd, 0x20, 0xbe, 0x02, 0x57, 0x84, 0xbd,
  0xef, 0xab, 0x4c, 0xbe, 0xd2, 0x35, 0x14, 0xbe, 0x24, 0x7f, 0x33, 0x3e,
  0x67, 0xbc, 0xc8, 0x3c, 0xec, 0xe6, 0x92, 0xbf, 0x85, 0x6b, 0x4e, 0xbf,
  0x48, 0xf4, 0x41, 0xbd, 0x2e, 0xd2, 0xf8, 0xbe, 0x9e, 0x26, 0xa3, 0xbe,
  0x8d, 0x52, 0xf3, 0x3d, 0x4f, 0x9d, 0xf4, 0xbd, 0x44, 0x1a, 0x92, 0xbc,
  0xd0, 0xf2, 0x3a, 0x3e, 0x13, 0x99, 0x7e, 0x3d, 0x77, 0xf6, 0xa7, 0x3e,
  0xfd, 0x0b, 0x0f, 0xbf, 0x5a, 0xc9, 0x56, 0xbc, 0x17, 0xda, 0x29, 0x40,
  0xff, 0x35, 0xed, 0x3d, 0x7b, 0xa7, 0x62, 0x3e, 0x12, 0x70, 0xaf, 0xbe,
  0xff, 0xbc, 0x30, 0x3d, 0xea, 0x2f, 0x68, 0xc0, 0xd3, 0x8f, 0x29, 0xbe,
  0x9c, 0xea, 0xc1, 0xbc, 0x40, 0xdf, 0x3a, 0x3e, 0x49, 0x37, 0x44, 0xbf,
  0xa9, 0xd3, 0xde, 0xbf, 0x4c, 0xf8, 0x1f, 0x39, 0x67, 0x31, 0xa7, 0xbe,
  0x84, 0x08, 0x26, 0xbd, 0xb4, 0x72, 0x04, 0x3d, 0x78, 0xc0, 0x14, 0x3f,
  0xe6, 0xef, 0x01, 0xbd, 0x86, 0xb9, 0x9a, 0x3f, 0xea, 0xe7, 0x89, 0x3f,
  0x22, 0xfd, 0x84, 0x3e, 0xc7, 0xd1, 0xab, 0x3e, 0xfa, 0x52, 0x41, 0x3f,
  0xa3, 0x6a, 0x00, 0xbf, 0xa7, 0x65, 0xe9, 0xbd, 0x41, 0xe6, 0x69, 0x3e,
  0xf4, 0xd8, 0x01, 0x40, 0xb7, 0xb7, 0x31, 0x3e, 0xcc, 0x7f, 0x63, 0x3e,
  0xd2, 0x7d, 0xd0, 0xbd, 0x00, 0xea, 0x2c, 0xc0, 0x09, 0xc0, 0xbe, 0x40,
  0x95, 0xd1, 0x8e, 0x3d, 0x7f, 0x9a, 0xdd, 0x3e, 0x04, 0x91, 0xc6, 0x3e,
  0xe7, 0xdb, 0x40, 0x3f, 0xb9, 0x27, 0x06, 0xbf, 0x8c, 0xee, 0x52, 0x3f,
  0xba, 0xa8, 0xdd, 0xbe, 0x1a, 0x03, 0x69, 0x3d, 0x4c, 0xbc, 0x9c, 0xbe,
  0xc4, 0x9b, 0x23, 0xbf, 0xb5, 0x72, 0x0e, 0x3f, 0x61, 0x9a, 0x43, 0x3d,
  0xb7, 0xa1, 0xf0, 0x3e, 0xb7, 0x57, 0xce, 0xbd, 0x00, 0x11, 0xf8, 0xbd,
  0x85, 0x0a, 0x9b, 0xbd, 0xca, 0x48, 0x7a, 0xbe, 0x6b, 0x6a, 0xd0, 0xbf,
  0xf6, 0x2f, 0xad, 0x3d, 0x21, 0x87, 0xe3, 0x3d, 0xa6, 0x7b, 0x6f, 0xc0,
  0x07, 0x5c, 0x47, 0x3e, 0xbf, 0xc1, 0x96, 0xbb, 0x31, 0x6e, 0xae, 0x3f,
  0xda, 0x05, 0x89, 0xbf, 0x0e, 0x44, 0xfd, 0x3e, 0x46, 0x6c, 0x18, 0xbe,
  0x66, 0xbd, 0x8d, 0xbd, 0xd0, 0x4b, 0x8e, 0x3e, 0x1c, 0x30, 0xeb, 0xbd,
  0x41, 0x41, 0x12, 0x3e, 0x23, 0x63, 0xe4, 0xbd, 0xf6, 0x7f, 0x76, 0xbd,
  0x55, 0xbe, 0xcd, 0xbe, 0x3b, 0xd0, 0x1c, 0x3e, 0x11, 0x79, 0x82, 0x3e,
  0xd9, 0xc4, 0x5f, 0x3f, 0xea, 0x11, 0x2d, 0xb9, 0x41, 0xa1, 0xf8, 0xbf,
  0x1e, 0x69, 0x91, 0xbe, 0x17, 0xf1, 0xab, 0xbd, 0x2a, 0x30, 0x28, 0x3e,
  0xb3, 0xa6, 0xd5, 0xbe, 0x65, 0x9f, 0x09, 0xbf, 0x93, 0x0a, 0x36, 0x3c,
  0xea, 0x31, 0xac, 0x3c, 0xec, 0x82, 0xfd, 0x3b, 0x52, 0x96, 0x07, 0xbf,
  0xb9, 0x90, 0xe4, 0xbf, 0xe1, 0xb7, 0x15, 0xbe, 0xff, 0xde, 0xa4, 0x3f,
  0x06, 0xc6, 0xb6, 0xbf, 0x23, 0xcb, 0x10, 0xbe, 0xdc, 0x38, 0xaf, 0xbd,
  0x9d, 0xab, 0xcf, 0x3e, 0x8f, 0x12, 0x31, 0xbf, 0x3f, 0x9e, 0x45, 0x3d,
  0x02, 0xcf, 0xeb, 0xbc, 0x91, 0xae, 0x10, 0x40, 0x47, 0x01, 0x03, 0x3d,
  0x30, 0x2b, 0x96, 0x3e, 0x99, 0xcf, 0x3d, 0x3e, 0x9a, 0x5f, 0x25, 0xbf,
  0x7a, 0xff, 0x87, 0x3e, 0xc4, 0x1f, 0x52, 0xbf, 0xda, 0xa7, 0x37, 0xbf,
  0x5b, 0xee, 0x8c, 0x3d, 0x5c, 0x95, 0xd8, 0xbe, 0x04, 0x43, 0x64, 0x40,
  0x15, 0x78, 0x03, 0xbf, 0x6d, 0xff, 0x01, 0x3e, 0x49, 0xb4, 0x85, 0x3a,
  0xa3, 0xda, 0x95, 0x3e, 0xb1, 0x00, 0xe7, 0xbf, 0x20, 0xc9, 0x2c, 0xc0,
  0x27, 0x84, 0x2d, 0xbf, 0x21, 0xb1, 0x47, 0xbf, 0x01, 0xc6, 0x89, 0xbf,
  0x4b, 0x28, 0x14, 0xbe, 0x40, 0x6b, 0x1b, 0xbe, 0xa5, 0xd5, 0x5f, 0xbf,
  0xd8, 0x5b, 0x5c, 0xbc, 0x97, 0x03, 0x3c, 0xbf, 0xdd, 0xb2, 0x24, 0xbe,
  0x48, 0xd2, 0x12, 0x40, 0x74, 0xbc, 0xa6, 0x3e, 0x12, 0x23, 0x94, 0xbe,
  0xb4, 0xc9, 0x9b, 0xbf, 0x36, 0x39, 0x5a, 0xbf, 0x69, 0x76, 0xce, 0x3e,
  0x0b, 0x8a, 0x72, 0xbe, 0x8c, 0x06, 0x1d, 0x3e, 0x4a, 0x71, 0x45, 0x3e,
  0x55, 0x76, 0xa0, 0xbe, 0x0a, 0x2c, 0xbb, 0xbe, 0xe4, 0x8a, 0x13, 0xbe,
  0x13, 0x6d, 0x70, 0xbe, 0x6f, 0x53, 0x2a, 0x3d, 0xb4, 0x55, 0xb3, 0x3d,
  0xc6, 0xdf, 0x5a, 0x3d, 0x47, 0x62, 0x4e, 0xbf, 0xea, 0xc6, 0x7c, 0xbe,
  0x26, 0x6e, 0x21, 0xc0, 0x6b, 0xba, 0x87, 0xbe, 0xf6, 0xee, 0x2d, 0x3d,
  0x84, 0x4f, 0x21, 0xbf, 0xb4, 0xc6, 0x35, 0xbf, 0x6a, 0xc1, 0xd5, 0x3f,
  0xf9, 0x6f, 0x54, 0x3c, 0x9e, 0x36, 0x85, 0xbc, 0x55, 0xb7, 0xd8, 0xbb,
  0xac, 0x6a, 0x9e, 0xbf, 0x28, 0x73, 0x42, 0x3f, 0xbc, 0x48, 0x02, 0xbf,
  0x8a, 0x92, 0xd3, 0x3b, 0x9e, 0x71, 0xa6, 0xbf, 0x46, 0x2c, 0xeb, 0x3e,
  0x2f, 0xaf, 0xb5, 0x3e, 0x4d, 0xa0, 0x1e, 0x3f, 0x4a, 0xb7, 0xd8, 0xbd,
  0xd4, 0x07, 0xdf, 0xbc, 0xb4, 0xd6, 0x98, 0x3a, 0xf0, 0xd1, 0x7f, 0xbf,
  0xc1, 0x48, 0x92, 0x3d, 0xb3, 0x77, 0xc6, 0xbe, 0xd1, 0x3e, 0x7e, 0x3e,
  0x0a, 0x49, 0xda, 0x3e, 0xce, 0x40, 0x33, 0x42, 0x41, 0x67, 0xbc, 0x3e,
  0x76, 0x3d, 0x95, 0x3e, 0x9e, 0xc2, 0x91, 0x3d, 0xc2, 0x77, 0xe1, 0x3e,
  0x18, 0xa3, 0x97, 0xbd, 0x70, 0x65, 0xa5, 0xbe, 0x2a, 0xd6, 0x98, 0x3d,
  0xde, 0xf9, 0x70, 0xbe, 0x49, 0x59, 0x66, 0x3e, 0x14, 0x1f, 0x70, 0x3e,
  0x52, 0x7b, 0x5c, 0x3f, 0xb4, 0x0f, 0x1d, 0xbe, 0x4b, 0x08, 0x2a, 0xbf,
  0x66, 0x77, 0x9c, 0xbe, 0x56, 0xda, 0x43, 0x3e, 0x33, 0x03, 0x65, 0x3e,
  0x66, 0x8e, 0x4a, 0xbe, 0xc6, 0x16, 0x9d, 0x3f, 0x93, 0x49, 0xc8, 0x3e,
  0x07, 0x7d, 0xf3, 0x3d, 0xfd, 0xf1, 0x29, 0xbf, 0xe3, 0x02, 0x26, 0xbf,
  0xf2, 0xad, 0x61, 0x3d, 0xdb, 0xfb, 0x9f, 0x3e, 0x1a, 0x3e, 0x1a, 0x3d,
  0x18, 0x70, 0xac, 0x3e, 0x40, 0x7f, 0x15, 0x3e, 0xb4, 0xee, 0xe6, 0x3c,
  0x5d, 0xc2, 0xe2, 0x3e, 0x08, 0x33, 0x3c, 0xbd, 0x16, 0x10, 0xc8, 0x3e,
  0x1f, 0x63, 0x70, 0xbf, 0x72, 0x57, 0x90, 0x3c, 0x8b, 0x03, 0x24, 0xc0,
  0x53, 0xf9, 0x20, 0x3e, 0xdc, 0x92, 0xa1, 0x3e, 0x61, 0x67, 0x0e, 0xbf,
  0x00, 0x0a, 0x99, 0xbe, 0xf0, 0xd2, 0x28, 0xbe, 0xf0, 0x6c, 0xa6, 0x3e,
  0xbf, 0x71, 0x00, 0x3e, 0xf5, 0xfc, 0x0a, 0x3e, 0xf8, 0x83, 0x6f, 0xbf,
  0x9c, 0xdb, 0x4e, 0xbf, 0xc6, 0x53, 0x33, 0x3b, 0xbf, 0x88, 0xda, 0x3d,
  0x43, 0xd9, 0x22, 0xbb, 0x0b, 0x0d, 0xf1, 0xbe, 0x3d, 0x0d, 0x46, 0xbd,
  0x5b, 0x93, 0x13, 0xbe, 0xdc, 0xd0, 0x25, 0x3c, 0x99, 0xe5, 0x7f, 0xbf,
  0xf0, 0xf4, 0x57, 0xbe, 0xa6, 0xe4, 0x2d, 0x3e, 0x8e, 0xd3, 0xba, 0xbf,
  0x03, 0xbf, 0x73, 0x3e, 0x9e, 0x9e, 0x21, 0xbe, 0x9c, 0x68, 0x2a, 0x3d,
  0x08, 0x84, 0xc5, 0xbe, 0x27, 0x06, 0xfe, 0x3d, 0x16, 0xab, 0x49, 0xbe,
  0xdd, 0x75, 0x92, 0x3f, 0xec, 0x2e, 0xb7, 0x3d, 0x4b, 0xb4, 0xbc, 0x41,
  0x44, 0x29, 0xfa, 0x3d, 0xd8, 0xc1, 0xe8, 0x3d, 0xd9, 0xbd, 0x95, 0x3d,
  0x08, 0x08, 0x6b, 0x3e, 0x06, 0xf2, 0xf1, 0xbf, 0x9d, 0x43, 0x0a, 0xbf,
  0x8b, 0x73, 0x43, 0x3d, 0x5d, 0x34, 0x5e, 0xbe, 0x2b, 0x7b, 0x54, 0xbf,
  0x83, 0x93, 0x15, 0x3f, 0x11, 0x22, 0xca, 0x3d, 0x23, 0x07, 0xfe, 0x3d,
  0x4e, 0x05, 0xaf, 0x3d, 0xb2, 0xc3, 0x1e, 0xbe, 0xe5, 0xd0, 0x94, 0xbd,
  0x79, 0x9c, 0x90, 0xbd, 0x4f, 0xd4, 0xcf, 0x3d, 0x4e, 0xd3, 0xdf, 0xbd,
  0x83, 0xbe, 0xdf, 0xbe, 0x41, 0x57, 0x73, 0xbf, 0xd9, 0xcd, 0x2b, 0x40,
  0x20, 0x31, 0x02, 0xbf, 0x9d, 0x26, 0x33, 0x3d, 0x25, 0x55, 0x2f, 0xbf,
  0xc7, 0x17, 0xd8, 0x3d, 0xb7, 0xa0, 0x98, 0xbf, 0xc5, 0x12, 0xff, 0x3d,
  0xde, 0x6d, 0x3d, 0xbe, 0xb6, 0xb9, 0xb9, 0xbd, 0xd6, 0xa6, 0xd1, 0xbc,
  0x98, 0x07, 0x18, 0x3e, 0x4f, 0xb3, 0xfb, 0xbe, 0x0c, 0x19, 0x31, 0xbe,
  0x26, 0x81, 0xef, 0xbd, 0xe2, 0xc5, 0x14, 0x3e, 0x6e, 0xb0, 0x79, 0xbe,
  0x95, 0xe0, 0x64, 0x3e, 0x6c, 0x4a, 0xb8, 0xbe, 0x45, 0x6f, 0x07, 0x41,
  0x9c, 0x87, 0x5c, 0xbb, 0x61, 0xe6, 0x85, 0x3e, 0x31, 0xd6, 0x9f, 0xbf,
  0x71, 0x6e, 0xc8, 0x3f, 0xd7, 0x3c, 0x5f, 0x3f, 0x21, 0xf3, 0xd5, 0xbb,
  0xfc, 0x3c, 0xcf, 0x3d, 0x16, 0x27, 0x86, 0x41, 0x8f, 0x1e, 0x94, 0x3f,
  0x23, 0x93, 0x63, 0x3f, 0x3a, 0xae, 0x1e, 0x3c, 0x29, 0x1f, 0x3a, 0xbf,
  0x61, 0xce, 0xfb, 0x3e, 0x94, 0x18, 0xc6, 0xbf, 0xb8, 0x56, 0x02, 0x3e,
  0x2c, 0xed, 0x92, 0xbe, 0x41, 0xb0, 0x08, 0xc0, 0x8f, 0x72, 0x7d, 0xbd,
  0x4f, 0x8b, 0x89, 0xbf, 0xcd, 0x86, 0x95, 0xbf, 0x04, 0x7f, 0xd6, 0xbd,
  0x0c, 0x3c, 0xa1, 0xbe, 0x6d, 0x66, 0x90, 0xbf, 0x3d, 0xe9, 0xf8, 0x3d,
  0x09, 0xa5, 0xc6, 0x41, 0xa5, 0xdb, 0x84, 0x3f, 0x7a, 0x62, 0x7a, 0xbf,
  0x44, 0x1e, 0x53, 0x3f, 0x10, 0x73, 0x7a, 0xbf, 0x45, 0x34, 0x5a, 0xc0,
  0x3e, 0xdf, 0x11, 0xbf, 0xbf, 0xe1, 0x36, 0xc1, 0x2a, 0xb6, 0x87, 0x3e,
  0x4e, 0xdc, 0x9a, 0x3e, 0x9e, 0x5d, 0xde, 0x3e, 0x81, 0xff, 0x61, 0x3f,
  0xe4, 0x08, 0x83, 0xbe, 0x03, 0xe7, 0x1a, 0x3f, 0xd0, 0xb6, 0x4d, 0xbe,
  0x58, 0x68, 0xb2, 0x3e, 0x4e, 0x68, 0x0f, 0x3e, 0x52, 0xe9, 0xe8, 0x3e,
  0xa2, 0x7d, 0xd3, 0x3e, 0x8b, 0xc6, 0xc5, 0xbf, 0x16, 0x03, 0x29, 0x3e,
  0x7b, 0x37, 0x2d, 0xbf, 0x10, 0xe2, 0x59, 0x3d, 0x7a, 0x06, 0x09, 0x3d,
  0x2d, 0xc8, 0x22, 0x39, 0xb3, 0xbc, 0x14, 0xbd, 0xf5, 0x83, 0xee, 0xbe,
  0x44, 0xef, 0xaf, 0x3e, 0x6c, 0x06, 0x7c, 0x3e, 0x37, 0x35, 0x0b, 0x3e,
  0xab, 0x8a, 0x66, 0x3e, 0x60, 0x4e, 0x22, 0xbf, 0xe7, 0x1f, 0xdd, 0x3d,
  0xcb, 0xab, 0xa0, 0x3e, 0xdc, 0x66, 0x30, 0xbe, 0x86, 0x75, 0x42, 0x3f,
  0x8a, 0x0d, 0x1f, 0xbe, 0x68, 0x5e, 0x30, 0x3e, 0xbb, 0xf2, 0x0d, 0xbf,
  0xd3, 0x9a, 0xcc, 0xc1, 0x57, 0x7a, 0x03, 0xbf, 0x9b, 0x69, 0xf5, 0x3d,
  0x6b, 0x88, 0xc2, 0x3e, 0x30, 0x6b, 0xd9, 0xbc, 0xe8, 0x5a, 0x9e, 0xc0,
  0x9c, 0x1c, 0xb8, 0xbb, 0x61, 0x95, 0xfc, 0xbd, 0x21, 0xa2, 0x99, 0x41,
  0x22, 0xf9, 0xd5, 0x3f, 0xdf, 0x63, 0x07, 0x3d, 0x17, 0xf6, 0x0b, 0x3e,
  0x27, 0xa2, 0x09, 0xbe, 0xb9, 0x74, 0xdd, 0xbe, 0x66, 0x03, 0xfc, 0xbe,
  0xe8, 0x3a, 0xe1, 0x3e, 0x7f, 0x13, 0xb8, 0xbf, 0x54, 0x07, 0x0f, 0xc0,
  0x70, 0x60, 0x8d, 0x3d, 0x0c, 0xf7, 0x93, 0x3e, 0x2f, 0xbd, 0x00, 0x40,
  0x2e, 0x42, 0x5b, 0x3e, 0xc1, 0x77, 0xe5, 0x3e, 0xfd, 0xe3, 0x3d, 0xbf,
  0xbd, 0xf3, 0x1d, 0x3e, 0x34, 0x2f, 0x80, 0x43, 0x9c, 0xcc, 0x48, 0x3f,
  0xda, 0xc0, 0xf7, 0xbf, 0x45, 0xfa, 0x30, 0x41, 0x5c, 0xd0, 0x77, 0x3e,
  0xb9, 0x55, 0x2a, 0x40, 0xac, 0xbe, 0x0a, 0xbf, 0x06, 0x1c, 0x29, 0xc1,
  0x71, 0xdc, 0xf2, 0x3e, 0x67, 0xbb, 0x23, 0xbd, 0x00, 0x31, 0xaa, 0xbe,
  0x74, 0x51, 0x1d, 0xc0, 0xa2, 0x97, 0x2e, 0x3e, 0x53, 0x0c, 0x08, 0x40,
  0xc6, 0x0c, 0xbd, 0xbe, 0x8b, 0xd0, 0x92, 0x3e, 0x79, 0xc5, 0x2e, 0xbd,
  0x1d, 0x00, 0x8d, 0xbe, 0xc2, 0x24, 0x39, 0xbf, 0xbb, 0xa8, 0xd9, 0x3f,
  0x85, 0x15, 0x4a, 0x3e, 0x5a, 0xd2, 0xfb, 0x3f, 0x21, 0xaf, 0x97, 0x3d,
  0xc3, 0x83, 0x94, 0xbc, 0x3b, 0x45, 0x82, 0x3e, 0x1b, 0xea, 0xd3, 0xbe,
  0x6b, 0x73, 0x11, 0x3f, 0xce, 0xff, 0x16, 0xbf, 0x80, 0x57, 0x00, 0xbe,
  0x43, 0xb6, 0xd3, 0x3e, 0x89, 0x1e, 0xa4, 0x3d, 0x12, 0x7e, 0x18, 0x3f,
  0x2d, 0x35, 0x96, 0x3e, 0x37, 0x05, 0x6d, 0x3e, 0x97, 0x36, 0x32, 0xbf,
  0x12, 0xb4, 0x55, 0x3d, 0x62, 0x31, 0x61, 0x3f, 0x57, 0xa3, 0xde, 0xbe,
  0x19, 0x31, 0x0d, 0xbe, 0x94, 0xdd, 0x0f, 0x42, 0xd9, 0x33, 0xf3, 0x3e,
  0x3e, 0xfd, 0x9f, 0xbd, 0x3f, 0x0b, 0xc2, 0x3e, 0xc2, 0x86, 0xa2, 0xbf,
  0xda, 0x89, 0xd6, 0x3f, 0x8d, 0xac, 0x64, 0x3c, 0x14, 0x18, 0x73, 0xbe,
  0x83, 0xb5, 0x7a, 0x41, 0xd6, 0xf3, 0x9b, 0x3f, 0x64, 0x38, 0x71, 0xbf,
  0x9d, 0x0e, 0x8c, 0xbe, 0x19, 0x7c, 0xd8, 0xbd, 0x79, 0xef, 0x86, 0x3e,
  0x00, 0x7e, 0x76, 0x3f, 0xc9, 0x95, 0x4a, 0xbd, 0x9d, 0x36, 0x3b, 0x3f,
  0x0b, 0xc0, 0x0e, 0xc0, 0xe4, 0x37, 0xbf, 0x3d, 0xaf, 0x73, 0xff, 0xbe,
  0x58, 0x44, 0xbc, 0x3f, 0x18, 0x58, 0x28, 0x3e, 0xb2, 0x6e, 0x07, 0x3e,
  0xf7, 0x17, 0x0f, 0xbf, 0x43, 0x46, 0xa6, 0x3e, 0x29, 0x0e, 0x5a, 0x43,
  0x17, 0x4e, 0x1e, 0x3e, 0xc5, 0xec, 0xbb, 0x3f, 0xb0, 0x54, 0xe7, 0x3f,
  0x27, 0x37, 0xe1, 0x3f, 0xa2, 0x59, 0x8f, 0x3f, 0x72, 0x05, 0x71, 0xbe,
  0x7a, 0xaf, 0x25, 0xc1, 0xeb, 0x3a, 0x02, 0x3f, 0x84, 0x55, 0xd7, 0x3e,
  0x29, 0xa5, 0x92, 0xbd, 0x1f, 0x33, 0x32, 0xbe, 0x0a, 0xf7, 0xa1, 0x3e,
  0xa7, 0xec, 0x85, 0xc0, 0xcd, 0x00, 0x49, 0xbe, 0xc2, 0xe0, 0x3e, 0x3d,
  0x18, 0x34, 0x0f, 0xbd, 0xbe, 0xf2, 0xff, 0xff, 0x04, 0x00, 0x00, 0x00,
  0x00, 0x09, 0x00, 0x00, 0x53, 0xaf, 0x5a, 0xbd, 0x95, 0x09, 0x30, 0xbd,
  0x5a, 0xa9, 0x44, 0xbd, 0xd3, 0xc2, 0x31, 0x3d, 0x72, 0xdf, 0x3d, 0x3b,
  0x3a, 0x8d, 0x30, 0xbc, 0x7e, 0x31, 0x12, 0x3c, 0x72, 0x02, 0x90, 0x3c,
  0x20, 0x90, 0x1a, 0x3d, 0xec, 0xba, 0xdd, 0xbc, 0x2a, 0x15, 0x30, 0x3d,
  0xa4, 0xf7, 0xf0, 0x38, 0xa5, 0xc9, 0x33, 0xba, 0x17, 0xe2, 0x16, 0xbc,
  0xb7, 0xe9, 0x87, 0xbb, 0xae, 0x7c, 0x17, 0xba, 0xbf, 0x6e, 0xad, 0x3d,
  0x9e, 0x31, 0x82, 0xbc, 0x48, 0x3b, 0x13, 0xbd, 0x84, 0x12, 0xc5, 0x3b,
  0x65, 0x1f, 0xdc, 0xbd, 0x89, 0x4e, 0xfe, 0xbb, 0x20, 0xff, 0xae, 0x3c,
  0x83, 0x0c, 0x78, 0xbc, 0xd1, 0xa3, 0x5e, 0x3d, 0x11, 0xc4, 0x07, 0xbe,
  0x7d, 0x08, 0x1a, 0x3e, 0x4d, 0x15, 0xc8, 0xbd, 0x69, 0x3b, 0xc2, 0xbb,
  0xd7, 0x30, 0xdd, 0xbd, 0x09, 0xf0, 0x08, 0x3d, 0xf8, 0xbf, 0xf4, 0x3c,
  0xfe, 0x8a, 0x1c, 0x3d, 0xbe, 0x63, 0xa9, 0x3d, 0xae, 0x0d, 0x95, 0xbb,
  0x35, 0xfd, 0xe2, 0x3d, 0xe3, 0xc2, 0x0b, 0x3d, 0x6c, 0x53, 0x49, 0x3a,
  0x11, 0x0f, 0x12, 0x3a, 0x58, 0x64, 0x30, 0x3b, 0x5b, 0x49, 0x64, 0x3c,
  0x64, 0xe1, 0xa4, 0x3b, 0x31, 0xd7, 0x2b, 0xbd, 0x59, 0xe9, 0xdd, 0xbc,
  0xad, 0xe3, 0x99, 0xbc, 0x5c, 0xfc, 0xf1, 0x3d, 0x8f, 0x57, 0x18, 0xbe,
  0x89, 0xb2, 0x98, 0xbd, 0xb5, 0x77, 0x82, 0xbc, 0x06, 0x19, 0xa3, 0xbb,
  0x0a, 0x8b, 0xaa, 0x3c, 0x6b, 0x86, 0xb7, 0xbd, 0x6c, 0xc6, 0x64, 0xbd,
  0x9f, 0x9b, 0xc2, 0x3d, 0x69, 0xa3, 0xef, 0x3e, 0x1f, 0xd3, 0x82, 0xbe,
  0x7a, 0xad, 0x95, 0xbe, 0xcd, 0xe1, 0x90, 0x3d, 0x5f, 0xc6, 0x8d, 0xbd,
  0x8c, 0xdb, 0x95, 0x3d, 0x9c, 0xf0, 0xae, 0x3d, 0xb1, 0x72, 0x99, 0xbe,
  0xf6, 0x67, 0x19, 0x3e, 0x34, 0x0d, 0x3b, 0x3b, 0x0d, 0xd4, 0x9a, 0x3c,
  0x15, 0x0a, 0xb9, 0x3c, 0x4c, 0xce, 0x50, 0x3b, 0x94, 0x6b, 0xdd, 0x3c,
  0x72, 0xcf, 0x7c, 0x3c, 0x0e, 0x2d, 0xf1, 0xbc, 0xfa, 0x89, 0xd0, 0xbc,
  0x87, 0xe1, 0x49, 0xbc, 0x57, 0xd4, 0xb6, 0xbd, 0xd3, 0x14, 0x1c, 0xbc,
  0x33, 0xfc, 0x25, 0x3e, 0x12, 0x3f, 0x95, 0xbd, 0xbd, 0xb3, 0x64, 0x3c,
  0x05, 0xa9, 0x6a, 0x3d, 0x10, 0x59, 0x15, 0xbc, 0x37, 0x2d, 0xd8, 0xba,
  0x1e, 0x8e, 0x26, 0xbd, 0x67, 0xa1, 0x5b, 0x3c, 0x45, 0x2b, 0x2a, 0x3c,
  0xc3, 0xa2, 0xcd, 0x3c, 0x6c, 0xcf, 0x6a, 0xba, 0x43, 0x5d, 0xac, 0xbc,
  0x33, 0x8e, 0xf6, 0x3a, 0x8e, 0x6a, 0x73, 0xbc, 0x34, 0xda, 0xd1, 0xbc,
  0xa5, 0x50, 0xd6, 0x3c, 0xfd, 0x0e, 0x6f, 0xbd, 0x96, 0xb0, 0x6a, 0xbe,
  0xc0, 0x88, 0x9b, 0x3d, 0xc8, 0x81, 0xc5, 0x3c, 0x91, 0x9a, 0x9a, 0x3c,
  0x18, 0x2d, 0x84, 0x3d, 0x81, 0x6b, 0x85, 0x3d, 0x22, 0x44, 0x8f, 0x3e,
  0xd9, 0xee, 0x77, 0xbd, 0x97, 0x6c, 0x8e, 0x3d, 0x62, 0xe9, 0x4e, 0x3e,
  0xa0, 0xaa, 0xf0, 0x3d, 0xba, 0x5b, 0x68, 0xbd, 0x01, 0x7c, 0x09, 0x3e,
  0xf6, 0x94, 0x7a, 0xbd, 0xc3, 0xea, 0x1b, 0x3e, 0xd7, 0xd8, 0xe1, 0x3d,
  0x9f, 0xad, 0x24, 0x3e, 0x9c, 0x0f, 0xda, 0xbc, 0x2a, 0xe7, 0x92, 0x3c,
  0xc3, 0x30, 0x48, 0x3c, 0xcf, 0x3c, 0xc8, 0xbc, 0x0f, 0x0d, 0xb7, 0x3d,
  0x86, 0xf6, 0x16, 0xbd, 0x3a, 0xe8, 0x10, 0xbd, 0x52, 0x04, 0x1d, 0xbc,
  0x36, 0x0e, 0x03, 0xbd, 0xa3, 0x3e, 0x9e, 0xbc, 0xc6, 0xdc, 0x00, 0xbc,
  0xb2, 0xf8, 0x63, 0x3e, 0x4a, 0x96, 0xa0, 0xbc, 0x18, 0xf9, 0x09, 0x3e,
  0x73, 0x29, 0xc5, 0xbd, 0xb7, 0x52, 0xb3, 0xbd, 0xa0, 0xda, 0xde, 0xbd,
  0xf1, 0x21, 0x32, 0x3d, 0x28, 0x3c, 0x74, 0x3d, 0x8b, 0x94, 0x4f, 0xbd,
  0xa4, 0xda, 0x9c, 0x3c, 0xbb, 0x38, 0x54, 0xbb, 0x51, 0x74, 0xcd, 0x3c,
  0x5d, 0xca, 0xbd, 0x3c, 0xd6, 0x2e, 0x94, 0xbb, 0xe8, 0x51, 0xd2, 0x3d,
  0xc9, 0xc5, 0x16, 0x3e, 0xd2, 0x8e, 0x9f, 0xbc, 0x98, 0x86, 0x9e, 0x3c,
  0x32, 0x47, 0xd8, 0x3b, 0xf8, 0x4d, 0x6a, 0x3b, 0xf6, 0x5a, 0x63, 0x3b,
  0x4d, 0x64, 0x97, 0x3b, 0x74, 0x71, 0xf5, 0xbb, 0x4b, 0x41, 0x41, 0xbd,
  0x05, 0xd5, 0x84, 0xb8, 0x84, 0x1c, 0x86, 0x3c, 0xde, 0x67, 0x20, 0x3b,
  0x04, 0xe8, 0xb6, 0xbd, 0x31, 0xf0, 0x02, 0xbe, 0xb8, 0xa4, 0xa3, 0x3d,
  0xb2, 0xbe, 0xb3, 0xbc, 0x31, 0x58, 0x79, 0x3d, 0xa3, 0xc5, 0x1b, 0x3e,
  0xb7, 0x57, 0xd4, 0xbc, 0x85, 0xca, 0x4c, 0xbc, 0x9c, 0x41, 0xbe, 0x3c,
  0xbd, 0xf7, 0x5e, 0x3c, 0x8e, 0x66, 0x61, 0xbc, 0xe3, 0x5b, 0xe6, 0x3c,
  0x3f, 0x38, 0xc1, 0xbb, 0x55, 0xe7, 0xca, 0x3d, 0x8c, 0xd4, 0xf6, 0xbd,
  0xc7, 0x1e, 0x3d, 0xbd, 0x6c, 0x09, 0x6e, 0xbd, 0x57, 0xcd, 0xb0, 0xbd,
  0x81, 0x08, 0xdb, 0x3d, 0x1e, 0x5e, 0x06, 0x3e, 0x9d, 0xd3, 0x00, 0xbe,
  0x72, 0xe2, 0x09, 0xbc, 0x0f, 0x27, 0x6e, 0xbd, 0x72, 0x52, 0x03, 0x3e,
  0x50, 0xa9, 0x08, 0xbe, 0xcf, 0x60, 0xad, 0x3c, 0xb6, 0x9f, 0x3c, 0x3d,
  0xd2, 0x2a, 0x28, 0xbd, 0x3c, 0xd7, 0x6b, 0xbc, 0xaa, 0x91, 0x84, 0xbc,
  0x95, 0x3a, 0x41, 0xbc, 0x05, 0x61, 0x1d, 0xbd, 0xdf, 0xc6, 0xe8, 0xbc,
  0x3d, 0xe6, 0x5b, 0x3c, 0xa8, 0xab, 0x35, 0x3d, 0x7d, 0xe3, 0x8e, 0xbb,
  0x93, 0x44, 0x86, 0x3d, 0x03, 0xf8, 0x33, 0x3c, 0x3a, 0x5b, 0x0b, 0x3d,
  0xd5, 0x84, 0x37, 0x3b, 0x11, 0x5e, 0x39, 0xbd, 0xee, 0x06, 0x2a, 0x3d,
  0xb1, 0x50, 0x01, 0xbd, 0x7a, 0x14, 0x01, 0x3c, 0x84, 0xa0, 0xb6, 0xbc,
  0x96, 0x61, 0x98, 0xbc, 0x9e, 0x8e, 0x77, 0xbc, 0xd3, 0x06, 0xf5, 0x3c,
  0x55, 0x42, 0x23, 0x3d, 0x3a, 0x2d, 0x7c, 0x3b, 0x29, 0xb8, 0x87, 0xb7,
  0x65, 0xc6, 0x8d, 0xbc, 0x34, 0x7f, 0x2b, 0xbc, 0x3e, 0x61, 0x42, 0xba,
  0xb2, 0x39, 0x3f, 0x3b, 0xd0, 0x1a, 0x20, 0x3b, 0x0e, 0x07, 0x11, 0xbb,
  0x25, 0x9c, 0xde, 0xba, 0xc4, 0x22, 0xf3, 0x3b, 0x68, 0xa4, 0xf5, 0x3a,
  0xce, 0x9f, 0x77, 0xbb, 0xb3, 0x1a, 0x82, 0xbc, 0x38, 0xae, 0x9d, 0xbb,
  0xc4, 0x33, 0x27, 0xbd, 0xf7, 0x0f, 0xd5, 0x3c, 0x8a, 0x81, 0x2d, 0xbb,
  0xa8, 0x08, 0x22, 0x3c, 0x78, 0x2d, 0xc8, 0x3d, 0x7b, 0x53, 0xa9, 0x3c,
  0xf2, 0x68, 0x2b, 0x3c, 0x5b, 0x64, 0x84, 0x3a, 0xe9, 0x86, 0x4c, 0x3d,
  0xf8, 0x1c, 0xdb, 0x3c, 0xbe, 0x8e, 0x00, 0xbd, 0x84, 0xe5, 0xe3, 0xbc,
  0x02, 0x76, 0xac, 0x3b, 0x63, 0x32, 0x2d, 0xbc, 0x79, 0xc4, 0xc3, 0xbd,
  0xb3, 0xf7, 0xcf, 0x3c, 0x9e, 0xed, 0xca, 0x3c, 0xad, 0xd3, 0x07, 0x3d,
  0xfe, 0x05, 0x84, 0xbd, 0x69, 0x68, 0xd0, 0xbc, 0x2d, 0x50, 0x8a, 0x3c,
  0xee, 0x08, 0x16, 0x3d, 0x27, 0xa5, 0x29, 0xbd, 0xa9, 0x3e, 0x10, 0x3d,
  0x7f, 0x61, 0x6f, 0x3d, 0xe4, 0x19, 0x96, 0x3c, 0x61, 0xd9, 0x8f, 0x3a,
  0xa3, 0xac, 0xaa, 0x3c, 0x05, 0x7f, 0xc7, 0x3c, 0x9d, 0x06, 0x97, 0xbc,
  0x29, 0x21, 0xa8, 0x3c, 0x84, 0x2e, 0x15, 0x3c, 0xc4, 0xe4, 0x21, 0x3d,
  0x59, 0x25, 0xce, 0xbc, 0x4b, 0x33, 0x42, 0x3c, 0x0b, 0x06, 0xd6, 0x3b,
  0x14, 0x6a, 0xd7, 0x3c, 0x20, 0x5f, 0xeb, 0xbb, 0x4b, 0x23, 0x24, 0x3d,
  0x5b, 0x3f, 0x6e, 0xbc, 0x65, 0x50, 0xf3, 0xbb, 0x06, 0x0a, 0x40, 0xbd,
  0xa9, 0x92, 0x93, 0xbc, 0x77, 0x8a, 0xe2, 0xbb, 0x40, 0x64, 0x00, 0xbc,
  0x12, 0x81, 0x5e, 0xbc, 0x65, 0xab, 0x1f, 0x3b, 0xea, 0xb7, 0x27, 0xba,
  0x7f, 0xcd, 0x3a, 0xbb, 0x63, 0xa1, 0xdc, 0x3b, 0x34, 0x0e, 0x36, 0x3a,
  0xc8, 0xa7, 0xc7, 0x3b, 0x8d, 0x7b, 0x01, 0x3c, 0xca, 0xcc, 0xc0, 0xbd,
  0xd6, 0x27, 0x78, 0xbd, 0x30, 0x7a, 0x84, 0x3b, 0x3b, 0x33, 0xc9, 0x3b,
  0x29, 0x4a, 0xbe, 0xbb, 0xf5, 0xad, 0x15, 0xbd, 0x5a, 0x3b, 0xce, 0xbc,
  0xc4, 0x32, 0x62, 0xbc, 0xbe, 0x56, 0x87, 0x3a, 0x56, 0xd2, 0x26, 0xbe,
  0xa3, 0xac, 0x4e, 0x3a, 0x25, 0xea, 0x2c, 0x3b, 0xac, 0x1c, 0x22, 0xbb,
  0xfd, 0xe1, 0x6d, 0x3a, 0x55, 0x5b, 0x92, 0xbb, 0xf9, 0x12, 0x3d, 0x3e,
  0x46, 0x9e, 0xdb, 0xba, 0x0e, 0xad, 0xde, 0xbb, 0x6a, 0x63, 0xe2, 0xbd,
  0x8f, 0xdf, 0x20, 0x39, 0x3a, 0x67, 0x5f, 0xbb, 0x18, 0x95, 0x9b, 0x3c,
  0x80, 0x41, 0x2c, 0xbc, 0x61, 0x0d, 0x07, 0x3c, 0xee, 0x73, 0x05, 0x3e,
  0x17, 0x38, 0xc8, 0x3b, 0x30, 0x66, 0x8e, 0x3d, 0xf1, 0x78, 0x24, 0xbb,
  0x00, 0x4f, 0x5e, 0x3a, 0x7b, 0x8f, 0x22, 0x3b, 0x0c, 0x99, 0xa8, 0xbc,
  0x89, 0x7c, 0xa3, 0x3c, 0x3a, 0x64, 0xf5, 0xbd, 0x52, 0xdd, 0x53, 0x3d,
  0x5e, 0x99, 0x15, 0xbd, 0x90, 0xfc, 0x32, 0xbd, 0xe5, 0x09, 0x7a, 0x3d,
  0x23, 0x53, 0xe0, 0xbc, 0x7b, 0xc0, 0x2a, 0x3d, 0xc5, 0x71, 0x65, 0x3b,
  0x0d, 0xdb, 0x9e, 0x3b, 0x32, 0xfd, 0xf6, 0x3b, 0xe2, 0xde, 0xb0, 0x3c,
  0x18, 0x6e, 0x1a, 0x3d, 0x78, 0x4a, 0xeb, 0x39, 0x49, 0xbf, 0x55, 0x3a,
  0xa4, 0x08, 0xe5, 0x3d, 0xf4, 0x99, 0x5a, 0x3b, 0x2d, 0xc2, 0x3c, 0x3b,
  0x2c, 0xc1, 0x11, 0xbc, 0x6e, 0xf4, 0xd9, 0xba, 0x93, 0xd0, 0x1e, 0xbb,
  0x1d, 0x6f, 0xda, 0xbd, 0xfc, 0x50, 0xda, 0x3c, 0x81, 0xc6, 0xbf, 0x3a,
  0x9d, 0x89, 0x8f, 0x3c, 0x84, 0x9f, 0x9c, 0xbb, 0x9c, 0xad, 0x0b, 0xbc,
  0x4f, 0x90, 0x1f, 0x3c, 0x67, 0xfb, 0x07, 0xbd, 0xaf, 0x60, 0xe3, 0xbc,
  0xe8, 0xc5, 0x53, 0xbd, 0x3f, 0x0b, 0xaa, 0xbc, 0x64, 0x33, 0xac, 0xbd,
  0xd0, 0x35, 0xc2, 0x3c, 0xf2, 0x5d, 0xde, 0x3c, 0x77, 0x5f, 0x2d, 0xbd,
  0xe7, 0x42, 0x5a, 0x3c, 0x18, 0x8e, 0xbf, 0x3d, 0x2d, 0xa3, 0x8a, 0xbd,
  0x47, 0x61, 0x1f, 0x3c, 0xaf, 0x0a, 0x0b, 0x3e, 0xd6, 0xfe, 0x08, 0xbd,
  0x34, 0x02, 0x5c, 0x3d, 0x83, 0xe3, 0x23, 0x3b, 0x0a, 0x59, 0xba, 0xbb,
  0xef, 0x61, 0x3e, 0xbb, 0x6b, 0x08, 0xb3, 0x3d, 0xb7, 0x57, 0x7c, 0x3d,
  0x14, 0x0e, 0x26, 0xbd, 0x16, 0x2a, 0xdc, 0x3d, 0xfe, 0x1d, 0x9c, 0x39,
  0x6c, 0x3a, 0x21, 0x3b, 0xac, 0x2e, 0x99, 0xbc, 0x47, 0x24, 0x65, 0x3c,
  0x99, 0xc4, 0x0c, 0x3a, 0xf3, 0x6f, 0xe0, 0xbd, 0xe5, 0xe9, 0x87, 0xbc,
  0x15, 0x24, 0x36, 0x3c, 0x6d, 0x60, 0x72, 0x3d, 0x94, 0x57, 0x89, 0xbd,
  0x4f, 0x99, 0xc1, 0xbc, 0x52, 0x81, 0xa1, 0x3b, 0xee, 0x72, 0x28, 0xbd,
  0xbc, 0xe0, 0xb7, 0x3c, 0x71, 0x7e, 0x05, 0x3e, 0xd1, 0x5b, 0xd9, 0xbd,
  0xdf, 0xbf, 0x99, 0xbc, 0xb0, 0xf7, 0xce, 0xbe, 0x4a, 0xe5, 0xdd, 0xbb,
  0x1f, 0x66, 0x4f, 0x3e, 0xc2, 0x6c, 0x79, 0xbd, 0x89, 0x63, 0x9b, 0xbe,
  0x7c, 0x82, 0x70, 0x3e, 0xe4, 0x58, 0x7e, 0x3e, 0xa6, 0x30, 0x38, 0xbf,
  0xbe, 0xd4, 0x6b, 0x3e, 0xac, 0xd8, 0x5d, 0x3c, 0x04, 0x5e, 0x36, 0xbe,
  0xbb, 0x53, 0x56, 0x3d, 0x7f, 0xe0, 0x43, 0xbc, 0x6a, 0xc2, 0x2a, 0x3d,
  0x52, 0x8e, 0x63, 0xbc, 0xf8, 0x40, 0x97, 0x3d, 0xa0, 0xbc, 0xba, 0x3e,
  0x66, 0x1f, 0xe9, 0xbd, 0x55, 0x37, 0x13, 0xbd, 0xd4, 0xee, 0xbd, 0xbc,
  0xba, 0x6e, 0xe1, 0xbc, 0x79, 0xaa, 0x02, 0x3a, 0x74, 0xe4, 0x25, 0xba,
  0xf3, 0x5b, 0xfe, 0x3a, 0x13, 0x4f, 0xba, 0x3b, 0xaf, 0x2e, 0x29, 0x3c,
  0x2a, 0x2a, 0x00, 0x3b, 0x93, 0xa7, 0x48, 0x3e, 0x36, 0xe2, 0xf8, 0x3d,
  0x5a, 0x41, 0x29, 0xbd, 0x16, 0xcc, 0xcd, 0x3d, 0x94, 0xf8, 0xa5, 0xbd,
  0x5a, 0xc1, 0x54, 0x3d, 0x85, 0xce, 0x5a, 0xbe, 0x4a, 0xf7, 0xf4, 0x3c,
  0x77, 0x5c, 0x9f, 0xbb, 0x34, 0x00, 0x37, 0x3d, 0x52, 0xf7, 0xca, 0x3c,
  0x52, 0xb2, 0x32, 0xb9, 0x4e, 0x54, 0xf0, 0xbb, 0xaf, 0xc7, 0x36, 0xbd,
  0xd4, 0xe3, 0x84, 0x3a, 0x9b, 0x2d, 0xc3, 0xbb, 0x6e, 0xe1, 0x1a, 0xbd,
  0x61, 0xc3, 0x33, 0xbd, 0xd0, 0xac, 0xba, 0x3a, 0x6b, 0x57, 0xe0, 0x3c,
  0x78, 0x18, 0xa5, 0xbb, 0x87, 0x2a, 0xc8, 0x3a, 0xd7, 0xb7, 0x3f, 0xbc,
  0x3c, 0xc8, 0x12, 0x3c, 0x4c, 0x79, 0x8f, 0xbc, 0x94, 0x84, 0x93, 0x3d,
  0xab, 0x68, 0xeb, 0x3c, 0x67, 0x6d, 0x0a, 0xbd, 0x2c, 0xd6, 0xd0, 0xbc,
  0xf8, 0x57, 0x4d, 0xbd, 0x10, 0x1f, 0x50, 0xbb, 0xad, 0xe6, 0x1f, 0x3c,
  0x2c, 0x1a, 0x5c, 0x3c, 0x45, 0xd9, 0xc4, 0xbc, 0x92, 0xff, 0xa1, 0xbd,
  0xba, 0xaf, 0x71, 0xb9, 0x06, 0xb7, 0xd9, 0x3b, 0xa8, 0x3a, 0x92, 0x3a,
  0x95, 0x2d, 0x63, 0x3a, 0x20, 0x60, 0x98, 0xb9, 0xe9, 0x31, 0x89, 0x39,
  0xaa, 0x09, 0xc7, 0x3a, 0x19, 0x4d, 0xcf, 0xbb, 0x21, 0xfb, 0x19, 0xbb,
  0xc1, 0xb0, 0x4e, 0xbb, 0x34, 0x6b, 0x05, 0x3d, 0xc9, 0xb4, 0x6c, 0xbc,
  0xfc, 0x29, 0xcd, 0xbc, 0xb5, 0x0b, 0x95, 0xbc, 0xbe, 0x59, 0xf1, 0xbc,
  0x56, 0xf9, 0x9c, 0xba, 0xfc, 0x74, 0x04, 0xbd, 0x59, 0x0a, 0x8a, 0xbd,
  0xfc, 0xba, 0xda, 0x3c, 0x04, 0xc9, 0xaf, 0x3c, 0x52, 0x3d, 0x1f, 0x3c,
  0x4d, 0x17, 0x90, 0x3c, 0x11, 0xee, 0xf9, 0xbc, 0x80, 0x71, 0xc7, 0xbc,
  0xf6, 0x20, 0x0d, 0xbc, 0x19, 0x57, 0x40, 0xbc, 0x4c, 0x3a, 0x7e, 0xbc,
  0xce, 0x0b, 0xf1, 0xbc, 0x72, 0x44, 0xa4, 0xb9, 0xde, 0x99, 0xf4, 0x3a,
  0xfb, 0x54, 0xd0, 0xba, 0x0c, 0x81, 0x72, 0x3c, 0x54, 0xb0, 0x80, 0x3b,
  0xd2, 0x93, 0x5c, 0x3c, 0xe2, 0xd0, 0x93, 0xbc, 0x76, 0x28, 0x88, 0xbb,
  0x08, 0x6e, 0xfb, 0xbb, 0xbd, 0xbf, 0xfb, 0xbc, 0x1a, 0xdc, 0x2e, 0xbc,
  0x24, 0xd1, 0x37, 0xbc, 0x94, 0xed, 0xa8, 0x3c, 0xd2, 0xf4, 0x2b, 0x3c,
  0xfe, 0xfa, 0x42, 0x3c, 0x27, 0xcf, 0x10, 0x3c, 0xbc, 0x8d, 0x7f, 0x3c,
  0xe2, 0x0a, 0x72, 0x3a, 0xb8, 0xbb, 0x77, 0xba, 0xa3, 0xa3, 0xe9, 0x3c,
  0xf3, 0x18, 0x79, 0xbc, 0x19, 0xdc, 0xea, 0xba, 0x7f, 0x13, 0x4b, 0x3c,
  0x90, 0xd3, 0x89, 0xbb, 0xf7, 0xac, 0x24, 0xbc, 0xbd, 0xba, 0xce, 0xbd,
  0xa6, 0x88, 0x2f, 0x3c, 0x5e, 0x72, 0xbf, 0xbc, 0x4e, 0x14, 0x2d, 0x3d,
  0x15, 0xcb, 0x09, 0x3d, 0x1f, 0x88, 0x1c, 0x3d, 0x79, 0xeb, 0xc1, 0x3b,
  0xf1, 0x0a, 0xac, 0xbc, 0xf0, 0x93, 0xbb, 0x3c, 0x87, 0x52, 0x77, 0xbd,
  0x0f, 0x9a, 0x81, 0xbd, 0x9e, 0xfc, 0x13, 0xbe, 0xb2, 0xf0, 0xd3, 0x3a,
  0x20, 0x9c, 0xe5, 0x39, 0x2c, 0xd7, 0x3d, 0x3b, 0x58, 0xe2, 0x76, 0xba,
  0x3e, 0xdc, 0x36, 0xbb, 0x71, 0xa4, 0x24, 0x3e, 0xfc, 0x33, 0xa8, 0x3a,
  0x2f, 0xd7, 0x0a, 0x3b, 0xde, 0x40, 0x54, 0xbd, 0xfd, 0xf7, 0xc1, 0x3d,
  0x18, 0x51, 0x51, 0xbd, 0xfd, 0x7e, 0xa0, 0xbc, 0xab, 0x6b, 0x3f, 0xbc,
  0xbe, 0xba, 0x4c, 0x3d, 0xdc, 0x53, 0x04, 0xbd, 0xa5, 0xfb, 0xfd, 0x3e,
  0x6d, 0x23, 0x94, 0x3d, 0x09, 0x2d, 0x23, 0xbd, 0xd3, 0xdc, 0xaf, 0x3c,
  0xe1, 0x0e, 0x0e, 0xbd, 0x39, 0xa6, 0x3d, 0xbc, 0xc0, 0xb9, 0xdb, 0xbc,
  0xec, 0x0d, 0x2f, 0x3d, 0xe2, 0x2f, 0x68, 0x3d, 0x37, 0x8e, 0xa4, 0xbc,
  0xcf, 0x12, 0xab, 0x3b, 0x57, 0xbb, 0xf0, 0x3c, 0x87, 0x02, 0xa2, 0x3c,
  0xba, 0x62, 0xd5, 0xbc, 0x57, 0x68, 0x1d, 0xbc, 0xa4, 0x90, 0x8a, 0x3c,
  0x91, 0x4b, 0xd2, 0x3c, 0x18, 0x2e, 0x0f, 0xbd, 0x73, 0x34, 0x57, 0xbb,
  0x76, 0x1f, 0xad, 0xbc, 0x4b, 0x23, 0x31, 0xbd, 0x6e, 0xe4, 0xd4, 0xbc,
  0xd8, 0x7e, 0x15, 0xbd, 0x3d, 0x07, 0x3c, 0x3c, 0xa2, 0xa3, 0xb4, 0xbb,
  0x5b, 0x94, 0xad, 0xbb, 0xbe, 0xf8, 0x07, 0xbd, 0xec, 0xc3, 0x51, 0xbc,
  0xdb, 0x2d, 0x96, 0xbc, 0x8f, 0xb8, 0x71, 0xbc, 0x5c, 0xf7, 0x06, 0xbc,
  0x4b, 0x03, 0xd4, 0xbc, 0x95, 0x8a, 0x0b, 0x3c, 0xaf, 0x9e, 0x82, 0xbc,
  0x6a, 0x71, 0xf8, 0xbc, 0x8e, 0xfa, 0x22, 0xbc, 0xbd, 0x83, 0xbe, 0x3b,
  0xd5, 0x09, 0x04, 0xbd, 0xeb, 0xe5, 0x91, 0x3b, 0x22, 0xc9, 0xd6, 0xbc,
  0xb2, 0x47, 0xd9, 0xbc, 0x23, 0xcb, 0xf1, 0xbc, 0x60, 0xf9, 0x97, 0xbc,
  0x09, 0xd8, 0x5a, 0x3d, 0xd4, 0x32, 0xa7, 0x3d, 0x24, 0x19, 0x56, 0xbd,
  0x24, 0xc6, 0x1f, 0xbd, 0x21, 0x12, 0x16, 0x3d, 0xc0, 0x5d, 0x05, 0x3d,
  0x38, 0xcd, 0x8a, 0x3d, 0xc9, 0xaa, 0xee, 0xbc, 0xb3, 0x33, 0x8c, 0xbb,
  0x30, 0xa5, 0x3e, 0xbc, 0xf6, 0xdc, 0x81, 0xbd, 0x04, 0x44, 0x3d, 0xbd,
  0x65, 0x71, 0x34, 0xbd, 0x13, 0xf5, 0x0e, 0x3d, 0x39, 0x9d, 0xda, 0x3c,
  0x89, 0x49, 0x3e, 0x3d, 0x0d, 0x55, 0x51, 0xbc, 0xdb, 0x56, 0x0e, 0x3a,
  0xb4, 0x18, 0x83, 0xbc, 0x99, 0x56, 0x91, 0x3c, 0xd3, 0x98, 0x2f, 0xbb,
  0x27, 0x6d, 0x23, 0x3d, 0x1a, 0xd4, 0xca, 0xbd, 0x84, 0xd7, 0x8d, 0x3e,
  0xc6, 0x03, 0x52, 0x3b, 0xce, 0x77, 0xd8, 0x3c, 0x2d, 0xaf, 0x34, 0xbd,
  0x69, 0x2b, 0x30, 0xbd, 0x7f, 0xf6, 0x52, 0xbd, 0x48, 0xf4, 0xaa, 0x3e,
  0x66, 0xd2, 0xbf, 0xbe, 0xca, 0xfb, 0xff, 0xff, 0x04, 0x00, 0x00, 0x00,
  0x00, 0x01, 0x00, 0x00, 0x25, 0xb1, 0x20, 0x40, 0x39, 0x59, 0xc2, 0x3f,
  0x89, 0xc2, 0x5f, 0xc0, 0x6d, 0x5b, 0x8c, 0xc0, 0x5f, 0x31, 0x50, 0xc0,
  0xb8, 0xf1, 0x78, 0x40, 0x72, 0x93, 0x0f, 0xc0, 0x76, 0xf5, 0x93, 0x3f,
  0xc2, 0x44, 0x94, 0x3f, 0xe2, 0x7f, 0xa5, 0xc0, 0x3a, 0xbc, 0x5e, 0x40,
  0x9f, 0xc1, 0x8b, 0xc0, 0x00, 0x46, 0x2a, 0xc1, 0xf1, 0x96, 0x57, 0xc0,
  0xda, 0xd7, 0x7a, 0x40, 0x24, 0xe0, 0xb6, 0x40, 0x81, 0xd4, 0x0b, 0x40,
  0x54, 0xe7, 0xab, 0xc0, 0xa5, 0x7b, 0x5c, 0x40, 0xc0, 0x4a, 0xfa, 0x3f,
  0xb9, 0x39, 0xe1, 0x3f, 0x3e, 0xb1, 0x12, 0xc1, 0xc4, 0x31, 0x96, 0x40,
  0x75, 0xf3, 0x39, 0x40, 0x49, 0xb7, 0x45, 0x40, 0x50, 0x3e, 0x14, 0xc0,
  0x9b, 0x5b, 0x5f, 0x40, 0x77, 0x59, 0x03, 0x41, 0x3e, 0xbd, 0xfe, 0x40,
  0xa7, 0x92, 0x8f, 0xc0, 0x2f, 0xb5, 0x87, 0x40, 0x34, 0xc1, 0x4d, 0x40,
  0xc5, 0x8c, 0x33, 0xc0, 0x3d, 0x4e, 0xd8, 0xbf, 0xa1, 0xc1, 0x56, 0x40,
  0xd9, 0x34, 0x83, 0x40, 0x54, 0x5c, 0x4b, 0x40, 0xc9, 0xdd, 0x7c, 0xc0,
  0x18, 0xf0, 0x09, 0x40, 0xee, 0x50, 0xa1, 0xbf, 0xb1, 0x29, 0xb6, 0xbf,
  0xe6, 0x37, 0xac, 0x40, 0xcb, 0x38, 0x4b, 0xc0, 0x5a, 0xa7, 0x8b, 0x40,
  0xea, 0x7e, 0x29, 0x41, 0x26, 0x8f, 0x4f, 0x40, 0x1f, 0x96, 0x78, 0xc0,
  0x1e, 0xc3, 0xb9, 0xc0, 0x00, 0x81, 0x10, 0xc0, 0xd9, 0xd7, 0xa6, 0x40,
  0xcc, 0xf4, 0x50, 0xc0, 0x0c, 0x19, 0xff, 0xbf, 0x2c, 0x9e, 0xcd, 0xbf,
  0x4f, 0x9a, 0x0f, 0x41, 0x94, 0x3c, 0x92, 0xc0, 0x72, 0xe5, 0x34, 0xc0,
  0x11, 0x9b, 0x49, 0xc0, 0x32, 0xfe, 0x09, 0x40, 0xb9, 0x81, 0x60, 0xc0,
  0xd1, 0x20, 0x02, 0xc1, 0x1a, 0x1c, 0xfd, 0xc0, 0xd2, 0x8d, 0x93, 0x40,
  0xfb, 0x00, 0x83, 0xc0, 0xed, 0x62, 0x50, 0xc0, 0xd6, 0xfc, 0xff, 0xff,
  0x04, 0x00, 0x00, 0x00, 0x08, 0x00, 0x00, 0x00, 0x3f, 0xab, 0xe2, 0xbf,
  0x48, 0x90, 0xe2, 0x3f, 0xea, 0xfc, 0xff, 0xff, 0x04, 0x00, 0x00, 0x00,
  0x80, 0x00, 0x00, 0x00, 0x64, 0x18, 0xbe, 0x40, 0x70, 0x53, 0xf9, 0xbf,
  0xf3, 0x52, 0x82, 0xc0, 0x0a, 0x11, 0x2c, 0xc1, 0x82, 0x11, 0xbc, 0x40,
  0x3b, 0x79, 0x69, 0x40, 0x5a, 0xdd, 0x68, 0xc1, 0xf7, 0xe5, 0xaa, 0x40,
  0x5e, 0x5d, 0x2b, 0x40, 0x52, 0x80, 0x85, 0x3f, 0x39, 0xda, 0xd9, 0x40,
  0xd9, 0xc9, 0x8a, 0xc0, 0x60, 0xa3, 0x4b, 0xc1, 0xa3, 0x2f, 0x6c, 0xc1,
  0x38, 0x60, 0xbc, 0x3f, 0xc0, 0xef, 0x4e, 0xbe, 0xeb, 0xf3, 0x01, 0xc1,
  0x72, 0xa3, 0xbd, 0xc1, 0xaa, 0xa2, 0x08, 0x40, 0x54, 0x6a, 0x68, 0x40,
  0x81, 0xc3, 0xf1, 0xbf, 0xaa, 0x67, 0x73, 0xc1, 0xfe, 0x12, 0x9d, 0xc0,
  0x1a, 0x98, 0x52, 0x40, 0x1e, 0x16, 0x9f, 0x40, 0xa7, 0x53, 0x41, 0xc1,
  0x0e, 0x08, 0xf2, 0x3f, 0x59, 0x8e, 0x6e, 0x40, 0xe8, 0x4c, 0x4d, 0x3f,
  0xc8, 0x14, 0x16, 0x3f, 0x40, 0xee, 0x0e, 0xc0, 0xb0, 0xac, 0xc8, 0xc0,
  0x76, 0xfd, 0xff, 0xff, 0x04, 0x00, 0x00, 0x00, 0x00, 0x01, 0x00, 0x00,
  0x2f, 0x70, 0x52, 0x3f, 0x68, 0x03, 0xa3, 0xbe, 0x3c, 0xfa, 0x49, 0x3f,
  0xd4, 0xf7, 0x61, 0x3f, 0xda, 0x2e, 0x36, 0xc0, 0xbc, 0xb8, 0x1d, 0x3f,
  0x74, 0x92, 0x87, 0x3e, 0xde, 0x90, 0x8e, 0xbe, 0x04, 0x16, 0x8f, 0x3f,
  0x41, 0xaa, 0x0a, 0xbf, 0x28, 0x3d, 0xc6, 0xbd, 0x1d, 0xb1, 0x3f, 0xc0,
  0xa9, 0xfd, 0x8f, 0xc0, 0x10, 0x46, 0x2e, 0xc0, 0x82, 0xd2, 0x34, 0xc0,
  0x5a, 0x25, 0x7d, 0x40, 0x80, 0xcb, 0x65, 0x3f, 0x48, 0x49, 0xd4, 0x3f,
  0x56, 0xa0, 0x3d, 0xc0, 0xf0, 0xbc, 0xa8, 0xc0, 0x75, 0x5a, 0xef, 0xbf,
  0xb5, 0xd6, 0x5d, 0x40, 0xc4, 0xc1, 0x14, 0xbf, 0x54, 0xe2, 0x68, 0x3e,
  0x50, 0x69, 0xb9, 0x3f, 0x00, 0x95, 0x4a, 0xbd, 0x30, 0xeb, 0x43, 0x3f,
  0xbc, 0x02, 0xe0, 0x3e, 0xf9, 0x3e, 0xca, 0xbd, 0xc8, 0x42, 0xb1, 0x3f,
  0x78, 0x95, 0x4d, 0xbe, 0x80, 0xe0, 0x86, 0x3f, 0x10, 0x5a, 0x23, 0xbd,
  0xc9, 0x37, 0xb7, 0x3f, 0xd4, 0x76, 0x9e, 0xc0, 0xac, 0x1c, 0x43, 0x40,
  0x61, 0xe3, 0x6b, 0xbf, 0xf8, 0x46, 0x8e, 0xc0, 0xc0, 0x07, 0x5b, 0xbe,
  0x28, 0x11, 0xdc, 0x3e, 0x00, 0xe7, 0x08, 0x3e, 0x8c, 0x25, 0x82, 0xbf,
  0x0c, 0xee, 0xdc, 0xc0, 0x7e, 0xa5, 0x50, 0xc0, 0x45, 0xdd, 0x0b, 0x3e,
  0x14, 0x74, 0x87, 0xc0, 0x40, 0x86, 0x0b, 0xbf, 0x8c, 0x4a, 0x82, 0xbf,
  0x31, 0xde, 0x5d, 0x3e, 0x2c, 0x9b, 0xe5, 0xbe, 0x0f, 0x7c, 0x44, 0xc0,
  0x73, 0x5b, 0xdc, 0xbf, 0x61, 0x93, 0xa6, 0xbf, 0x05, 0xe0, 0xb0, 0x3f,
  0xfc, 0x8c, 0x55, 0x3f, 0x52, 0xc9, 0x45, 0x3f, 0x0f, 0xd0, 0x81, 0xbe,
  0x2e, 0x18, 0x5f, 0x3f, 0x1e, 0xeb, 0x2c, 0x3f, 0x20, 0x7f, 0x5b, 0x3f,
  0xae, 0x06, 0xd2, 0xbf, 0x20, 0xb4, 0x30, 0x40, 0xd8, 0x91, 0xd7, 0xbd,
  0x92, 0xae, 0xcd, 0xbe, 0x82, 0xfe, 0xff, 0xff, 0x04, 0x00, 0x00, 0x00,
  0x00, 0x01, 0x00, 0x00, 0xb8, 0xad, 0xc0, 0x3f, 0x96, 0x24, 0x02, 0xc0,
  0x42, 0x1a, 0x97, 0x3f, 0x1a, 0xc8, 0x93, 0x3f, 0xc6, 0x78, 0x54, 0x3f,
  0xde, 0x89, 0xc3, 0x40, 0x1d, 0xdb, 0xc7, 0x40, 0x60, 0x5a, 0x8b, 0xbe,
  0x8b, 0xf0, 0x85, 0xbf, 0xce, 0x50, 0x3a, 0xc0, 0x61, 0xc6, 0xff, 0xbf,
  0xa7, 0xa0, 0xd9, 0xc1, 0x79, 0x2c, 0x4b, 0x40, 0xb3, 0x80, 0xae, 0xbe,
  0xdc, 0x2d, 0x08, 0xc1, 0xd6, 0xf4, 0x5f, 0x40, 0x60, 0x67, 0x4d, 0xc0,
  0x56, 0x47, 0x2f, 0x40, 0xa5, 0xe6, 0x37, 0x40, 0x6c, 0x01, 0x18, 0x40,
  0xe7, 0x32, 0x0f, 0xc0, 0x48, 0x05, 0x25, 0x40, 0x07, 0x64, 0x08, 0xbf,
  0x96, 0xcb, 0xb7, 0xbf, 0x50, 0x76, 0x65, 0x3f, 0xa4, 0x13, 0xf4, 0xbe,
  0x5e, 0xbe, 0x54, 0xc0, 0xd0, 0xb6, 0xf7, 0x3d, 0xd6, 0x83, 0x38, 0x3f,
  0x1b, 0x0d, 0x03, 0x41, 0x34, 0x9a, 0xda, 0xbe, 0xdc, 0xd6, 0xd7, 0xbe,
  0xe6, 0x49, 0x21, 0x40, 0xc8, 0xb9, 0x01, 0xbf, 0x17, 0xce, 0x4c, 0xbf,
  0xd8, 0xa0, 0x73, 0x40, 0x92, 0xfe, 0x06, 0x3f, 0x6c, 0xea, 0x15, 0xc1,
  0x77, 0xa2, 0xcd, 0x3f, 0x5c, 0x81, 0x80, 0xbe, 0x20, 0x83, 0x65, 0x41,
  0x8d, 0x0c, 0xe8, 0xc0, 0xea, 0xcb, 0x5e, 0x40, 0xfa, 0x2d, 0x47, 0xc0,
  0xdc, 0x66, 0xc5, 0x3f, 0xed, 0x3e, 0xf3, 0xbf, 0xc4, 0x1f, 0xca, 0x40,
  0x91, 0xcd, 0x21, 0xbf, 0xb0, 0x86, 0xb7, 0x3f, 0xee, 0xc2, 0x7a, 0x3f,
  0x00, 0xb0, 0xd8, 0x3b, 0x95, 0xe4, 0xc8, 0x3f, 0x39, 0x2e, 0xf7, 0x3f,
  0x46, 0xb5, 0x9a, 0x3f, 0x06, 0xb2, 0xf8, 0xbe, 0x69, 0x86, 0x9b, 0xc1,
  0x48, 0x31, 0xdc, 0x3f, 0x6c, 0x2f, 0x10, 0x3f, 0x20, 0xb0, 0x83, 0x40,
  0x65, 0xea, 0x64, 0x40, 0x00, 0xbc, 0x36, 0x3f, 0x8c, 0x4b, 0xe4, 0x3f,
  0xb7, 0x00, 0x89, 0xc0, 0x14, 0x3a, 0x74, 0xc0, 0x8e, 0xff, 0xff, 0xff,
  0x04, 0x00, 0x00, 0x00, 0x20, 0x00, 0x00, 0x00, 0x00, 0x00, 0x00, 0x00,
  0x00, 0x00, 0x00, 0x00, 0x00, 0x00, 0x00, 0x00, 0x00, 0x00, 0x00, 0x00,
  0x01, 0x00, 0x00, 0x00, 0x01, 0x00, 0x00, 0x00, 0x01, 0x00, 0x00, 0x00,
  0x01, 0x00, 0x00, 0x00, 0xba, 0xff, 0xff, 0xff, 0x04, 0x00, 0x00, 0x00,
  0x08, 0x00, 0x00, 0x00, 0xff, 0xff, 0xff, 0xff, 0x20, 0x00, 0x00, 0x00,
  0xce, 0xff, 0xff, 0xff, 0x04, 0x00, 0x00, 0x00, 0x08, 0x00, 0x00, 0x00,
  0x02, 0x00, 0x00, 0x00, 0x03, 0x00, 0x00, 0x00, 0xe2, 0xff, 0xff, 0xff,
  0x04, 0x00, 0x00, 0x00, 0x10, 0x00, 0x00, 0x00, 0x00, 0x00, 0x00, 0x00,
  0x02, 0x00, 0x00, 0x00, 0x03, 0x00, 0x00, 0x00, 0x01, 0x00, 0x00, 0x00,
  0x00, 0x00, 0x06, 0x00, 0x08, 0x00, 0x04, 0x00, 0x06, 0x00, 0x00, 0x00,
  0x04, 0x00, 0x00, 0x00, 0x10, 0x00, 0x00, 0x00, 0x00, 0x00, 0x00, 0x00,
  0x03, 0x00, 0x00, 0x00, 0x01, 0x00, 0x00, 0x00, 0x02, 0x00, 0x00, 0x00,
  0x44, 0xf3, 0xff, 0xff, 0x48, 0xf3, 0xff, 0xff, 0x0f, 0x00, 0x00, 0x00,
  0x4d, 0x4c, 0x49, 0x52, 0x20, 0x43, 0x6f, 0x6e, 0x76, 0x65, 0x72, 0x74,
  0x65, 0x64, 0x2e, 0x00, 0x01, 0x00, 0x00, 0x00, 0x14, 0x00, 0x00, 0x00,
  0x00, 0x00, 0x0e, 0x00, 0x18, 0x00, 0x14, 0x00, 0x10, 0x00, 0x0c, 0x00,
  0x08, 0x00, 0x04, 0x00, 0x0e, 0x00, 0x00, 0x00, 0x14, 0x00, 0x00, 0x00,
  0x1c, 0x00, 0x00, 0x00, 0xe0, 0x02, 0x00, 0x00, 0xe4, 0x02, 0x00, 0x00,
  0xe8, 0x02, 0x00, 0x00, 0x04, 0x00, 0x00, 0x00, 0x6d, 0x61, 0x69, 0x6e,
  0x00, 0x00, 0x00, 0x00, 0x0c, 0x00, 0x00, 0x00, 0x98, 0x02, 0x00, 0x00,
  0x60, 0x02, 0x00, 0x00, 0x00, 0x02, 0x00, 0x00, 0xc8, 0x01, 0x00, 0x00,
  0x98, 0x01, 0x00, 0x00, 0x70, 0x01, 0x00, 0x00, 0x14, 0x01, 0x00, 0x00,
  0xcc, 0x00, 0x00, 0x00, 0xa4, 0x00, 0x00, 0x00, 0x64, 0x00, 0x00, 0x00,
  0x3c, 0x00, 0x00, 0x00, 0x04, 0x00, 0x00, 0x00, 0x36, 0xfe, 0xff, 0xff,
  0x14, 0x00, 0x00, 0x00, 0x00, 0x00, 0x00, 0x08, 0x10, 0x00, 0x00, 0x00,
  0x14, 0x00, 0x00, 0x00, 0x06, 0x00, 0x00, 0x00, 0xe8, 0xf3, 0xff, 0xff,
  0x01, 0x00, 0x00, 0x00, 0x1a, 0x00, 0x00, 0x00, 0x03, 0x00, 0x00, 0x00,
  0x19, 0x00, 0x00, 0x00, 0x0a, 0x00, 0x00, 0x00, 0x09, 0x00, 0x00, 0x00,
  0x0a, 0xfe, 0xff, 0xff, 0x0c, 0x00, 0x00, 0x00, 0x10, 0x00, 0x00, 0x00,
  0x01, 0x00, 0x00, 0x00, 0x01, 0x00, 0x00, 0x00, 0x19, 0x00, 0x00, 0x00,
  0x02, 0x00, 0x00, 0x00, 0x18, 0x00, 0x00, 0x00, 0x04, 0x00, 0x00, 0x00,
  0x8e, 0xfe, 0xff, 0xff, 0x1c, 0x00, 0x00, 0x00, 0x00, 0x00, 0x00, 0x1b,
  0x1c, 0x00, 0x00, 0x00, 0x20, 0x00, 0x00, 0x00, 0x05, 0x00, 0x00, 0x00,
  0x00, 0x00, 0x06, 0x00, 0x08, 0x00, 0x07, 0x00, 0x06, 0x00, 0x00, 0x00,
  0x00, 0x00, 0x00, 0x01, 0x01, 0x00, 0x00, 0x00, 0x18, 0x00, 0x00, 0x00,
  0x02, 0x00, 0x00, 0x00, 0x17, 0x00, 0x00, 0x00, 0x03, 0x00, 0x00, 0x00,
  0x6a, 0xfe, 0xff, 0xff, 0x0c, 0x00, 0x00, 0x00, 0x10, 0x00, 0x00, 0x00,
  0x03, 0x00, 0x00, 0x00, 0x01, 0x00, 0x00, 0x00, 0x17, 0x00, 0x00, 0x00,
  0x02, 0x00, 0x00, 0x00, 0x16, 0x00, 0x00, 0x00, 0x01, 0x00, 0x00, 0x00,
  0xee, 0xfe, 0xff, 0xff, 0x14, 0x00, 0x00, 0x00, 0x00, 0x00, 0x00, 0x01,
  0x20, 0x00, 0x00, 0x00, 0x24, 0x00, 0x00, 0x00, 0x02, 0x00, 0x00, 0x00,
  0xe0, 0xfe, 0xff, 0xff, 0x00, 0x00, 0x00, 0x01, 0x01, 0x00, 0x00, 0x00,
  0x01, 0x00, 0x00, 0x00, 0x00, 0x00, 0x00, 0x01, 0x01, 0x00, 0x00, 0x00,
  0x16, 0x00, 0x00, 0x00, 0x03, 0x00, 0x00, 0x00, 0x15, 0x00, 0x00, 0x00,
  0x0d, 0x00, 0x00, 0x00, 0x08, 0x00, 0x00, 0x00, 0x32, 0xff, 0xff, 0xff,
  0x24, 0x00, 0x00, 0x00, 0x00, 0x00, 0x00, 0x02, 0x34, 0x00, 0x00, 0x00,
  0x38, 0x00, 0x00, 0x00, 0x04, 0x00, 0x00, 0x00, 0x00, 0x00, 0x0e, 0x00,
  0x18, 0x00, 0x17, 0x00, 0x10, 0x00, 0x0c, 0x00, 0x08, 0x00, 0x07, 0x00,
  0x0e, 0x00, 0x00, 0x00, 0x00, 0x00, 0x00, 0x01, 0x01, 0x00, 0x00, 0x00,
  0x01, 0x00, 0x00, 0x00, 0x01, 0x00, 0x00, 0x00, 0x00, 0x00, 0x00, 0x01,
  0x01, 0x00, 0x00, 0x00, 0x15, 0x00, 0x00, 0x00, 0x03, 0x00, 0x00, 0x00,
  0x14, 0x00, 0x00, 0x00, 0x0c, 0x00, 0x00, 0x00, 0x07, 0x00, 0x00, 0x00,
  0x2a, 0xff, 0xff, 0xff, 0x0c, 0x00, 0x00, 0x00, 0x10, 0x00, 0x00, 0x00,
  0x03, 0x00, 0x00, 0x00, 0x01, 0x00, 0x00, 0x00, 0x14, 0x00, 0x00, 0x00,
  0x02, 0x00, 0x00, 0x00, 0x13, 0x00, 0x00, 0x00, 0x02, 0x00, 0x00, 0x00,
  0x1e, 0xff, 0xff, 0xff, 0x10, 0x00, 0x00, 0x00, 0x00, 0x00, 0x00, 0x16,
  0x0c, 0x00, 0x00, 0x00, 0x10, 0x00, 0x00, 0x00, 0x5c, 0xf5, 0xff, 0xff,
  0x01, 0x00, 0x00, 0x00, 0x13, 0x00, 0x00, 0x00, 0x02, 0x00, 0x00, 0x00,
  0x12, 0x00, 0x00, 0x00, 0x05, 0x00, 0x00, 0x00, 0x7a, 0xff, 0xff, 0xff,
  0x0c, 0x00, 0x00, 0x00, 0x10, 0x00, 0x00, 0x00, 0x03, 0x00, 0x00, 0x00,
  0x01, 0x00, 0x00, 0x00, 0x12, 0x00, 0x00, 0x00, 0x02, 0x00, 0x00, 0x00,
  0x11, 0x00, 0x00, 0x00, 0x01, 0x00, 0x00, 0x00, 0x00, 0x00, 0x0e, 0x00,
  0x18, 0x00, 0x14, 0x00, 0x10, 0x00, 0x0c, 0x00, 0x0b, 0x00, 0x04, 0x00,
  0x0e, 0x00, 0x00, 0x00, 0x20, 0x00, 0x00, 0x00, 0x00, 0x00, 0x00, 0x01,
  0x2c, 0x00, 0x00, 0x00, 0x30, 0x00, 0x00, 0x00, 0x02, 0x00, 0x00, 0x00,
  0x0c, 0x00, 0x14, 0x00, 0x13, 0x00, 0x0c, 0x00, 0x08, 0x00, 0x07, 0x00,
  0x0c, 0x00, 0x00, 0x00, 0x00, 0x00, 0x00, 0x01, 0x02, 0x00, 0x00, 0x00,
  0x02, 0x00, 0x00, 0x00, 0x00, 0x00, 0x00, 0x01, 0x01, 0x00, 0x00, 0x00,
  0x11, 0x00, 0x00, 0x00, 0x03, 0x00, 0x00, 0x00, 0x10, 0x00, 0x00, 0x00,
  0x0b, 0x00, 0x00, 0x00, 0x06, 0x00, 0x00, 0x00, 0x00, 0x00, 0x0a, 0x00,
  0x10, 0x00, 0x0c, 0x00, 0x08, 0x00, 0x04, 0x00, 0x0a, 0x00, 0x00, 0x00,
  0x0c, 0x00, 0x00, 0x00, 0x10, 0x00, 0x00, 0x00, 0x01, 0x00, 0x00, 0x00,
  0x01, 0x00, 0x00, 0x00, 0x10, 0x00, 0x00, 0x00, 0x02, 0x00, 0x00, 0x00,
  0x0f, 0x00, 0x00, 0x00, 0x0e, 0x00, 0x00, 0x00, 0x00, 0x00, 0x0e, 0x00,
  0x14, 0x00, 0x00, 0x00, 0x10, 0x00, 0x0c, 0x00, 0x0b, 0x00, 0x04, 0x00,
  0x0e, 0x00, 0x00, 0x00, 0x10, 0x00, 0x00, 0x00, 0x00, 0x00, 0x00, 0x16,
  0x0c, 0x00, 0x00, 0x00, 0x10, 0x00, 0x00, 0x00, 0x4c, 0xf6, 0xff, 0xff,
  0x01, 0x00, 0x00, 0x00, 0x0f, 0x00, 0x00, 0x00, 0x02, 0x00, 0x00, 0x00,
  0x00, 0x00, 0x00, 0x00, 0x05, 0x00, 0x00, 0x00, 0x01, 0x00, 0x00, 0x00,
  0x1a, 0x00, 0x00, 0x00, 0x01, 0x00, 0x00, 0x00, 0x00, 0x00, 0x00, 0x00,
  0x1b, 0x00, 0x00, 0x00, 0x74, 0x09, 0x00, 0x00, 0x24, 0x09, 0x00, 0x00,
  0xd4, 0x08, 0x00, 0x00, 0xa0, 0x08, 0x00, 0x00, 0x64, 0x08, 0x00, 0x00,
  0x2c, 0x08, 0x00, 0x00, 0xfc, 0x07, 0x00, 0x00, 0xcc, 0x07, 0x00, 0x00,
  0x9c, 0x07, 0x00, 0x00, 0x6c, 0x07, 0x00, 0x00, 0x38, 0x07, 0x00, 0x00,
  0xf8, 0x06, 0x00, 0x00, 0xb8, 0x06, 0x00, 0x00, 0xc0, 0x03, 0x00, 0x00,
  0x88, 0x03, 0x00, 0x00, 0x50, 0x03, 0x00, 0x00, 0x0c, 0x03, 0x00, 0x00,
  0xa0, 0x02, 0x00, 0x00, 0x60, 0x02, 0x00, 0x00, 0x24, 0x02, 0x00, 0x00,
  0xe4, 0x01, 0x00, 0x00, 0x80, 0x01, 0x00, 0x00, 0x18, 0x01, 0x00, 0x00,
  0xd8, 0x00, 0x00, 0x00, 0x9c, 0x00, 0x00, 0x00, 0x44, 0x00, 0x00, 0x00,
  0x04, 0x00, 0x00, 0x00, 0x06, 0xf7, 0xff, 0xff, 0x10, 0x00, 0x00, 0x00,
  0x10, 0x00, 0x00, 0x00, 0x1b, 0x00, 0x00, 0x00, 0x20, 0x00, 0x00, 0x00,
  0xf8, 0xf6, 0xff, 0xff, 0x11, 0x00, 0x00, 0x00, 0x50, 0x61, 0x72, 0x74,
  0x69, 0x74, 0x69, 0x6f, 0x6e, 0x65, 0x64, 0x43, 0x61, 0x6c, 0x6c, 0x3a,
  0x30, 0x00, 0x00, 0x00, 0x02, 0x00, 0x00, 0x00, 0x01, 0x00, 0x00, 0x00,
  0x02, 0x00, 0x00, 0x00, 0x42, 0xf7, 0xff, 0xff, 0x10, 0x00, 0x00, 0x00,
  0x10, 0x00, 0x00, 0x00, 0x1a, 0x00, 0x00, 0x00, 0x38, 0x00, 0x00, 0x00,
  0x34, 0xf7, 0xff, 0xff, 0x28, 0x00, 0x00, 0x00, 0x66, 0x6c, 0x61, 0x74,
  0x74, 0x65, 0x6e, 0x2f, 0x52, 0x65, 0x73, 0x68, 0x61, 0x70, 0x65, 0x3b,
  0x6f, 0x6e, 0x6e, 0x78, 0x5f, 0x74, 0x66, 0x5f, 0x70, 0x72, 0x65, 0x66,
  0x69, 0x78, 0x5f, 0x52, 0x65, 0x73, 0x68, 0x61, 0x70, 0x65, 0x5f, 0x37,
  0x00, 0x00, 0x00, 0x00, 0x02, 0x00, 0x00, 0x00, 0x01, 0x00, 0x00, 0x00,
  0x20, 0x00, 0x00, 0x00, 0x96, 0xf7, 0xff, 0xff, 0x10, 0x00, 0x00, 0x00,
  0x10, 0x00, 0x00, 0x00, 0x19, 0x00, 0x00, 0x00, 0x14, 0x00, 0x00, 0x00,
  0x88, 0xf7, 0xff, 0xff, 0x04, 0x00, 0x00, 0x00, 0x4d, 0x65, 0x61, 0x6e,
  0x00, 0x00, 0x00, 0x00, 0x04, 0x00, 0x00, 0x00, 0x01, 0x00, 0x00, 0x00,
  0x20, 0x00, 0x00, 0x00, 0x01, 0x00, 0x00, 0x00, 0x01, 0x00, 0x00, 0x00,
  0xce, 0xf7, 0xff, 0xff, 0x10, 0x00, 0x00, 0x00, 0x10, 0x00, 0x00, 0x00,
  0x18, 0x00, 0x00, 0x00, 0x18, 0x00, 0x00, 0x00, 0xc0, 0xf7, 0xff, 0xff,
  0x0b, 0x00, 0x00, 0x00, 0x74, 0x72, 0x61, 0x6e, 0x73, 0x70, 0x6f, 0x73,
  0x65, 0x5f, 0x38, 0x00, 0x04, 0x00, 0x00, 0x00, 0x01, 0x00, 0x00, 0x00,
  0x20, 0x00, 0x00, 0x00, 0x05, 0x00, 0x00, 0x00, 0x4c, 0x00, 0x00, 0x00,
  0x0a, 0xf8, 0xff, 0xff, 0x10, 0x00, 0x00, 0x00, 0x10, 0x00, 0x00, 0x00,
  0x17, 0x00, 0x00, 0x00, 0x40, 0x00, 0x00, 0x00, 0xfc, 0xf7, 0xff, 0xff,
  0x31, 0x00, 0x00, 0x00, 0x6f, 0x6e, 0x6e, 0x78, 0x5f, 0x74, 0x66, 0x5f,
  0x70, 0x72, 0x65, 0x66, 0x69, 0x78, 0x5f, 0x52, 0x65, 0x6c, 0x75, 0x5f,
  0x35, 0x3b, 0x41, 0x64, 0x64, 0x5f, 0x32, 0x3b, 0x63, 0x6f, 0x6e, 0x76,
  0x6f, 0x6c, 0x75, 0x74, 0x69, 0x6f, 0x6e, 0x5f, 0x31, 0x3b, 0x43, 0x6f,
  0x6e, 0x73, 0x74, 0x5f, 0x35, 0x00, 0x00, 0x00, 0x04, 0x00, 0x00, 0x00,
  0x01, 0x00, 0x00, 0x00, 0x05, 0x00, 0x00, 0x00, 0x4c, 0x00, 0x00, 0x00,
  0x20, 0x00, 0x00, 0x00, 0x6e, 0xf8, 0xff, 0xff, 0x10, 0x00, 0x00, 0x00,
  0x10, 0x00, 0x00, 0x00, 0x16, 0x00, 0x00, 0x00, 0x3c, 0x00, 0x00, 0x00,
  0x60, 0xf8, 0xff, 0xff, 0x2d, 0x00, 0x00, 0x00, 0x6f, 0x6e, 0x6e, 0x78,
  0x5f, 0x74, 0x66, 0x5f, 0x70, 0x72, 0x65, 0x66, 0x69, 0x78, 0x5f, 0x52,
  0x65, 0x6c, 0x75, 0x5f, 0x33, 0x3b, 0x41, 0x64, 0x64, 0x5f, 0x31, 0x3b,
  0x64, 0x65, 0x70, 0x74, 0x68, 0x77, 0x69, 0x73, 0x65, 0x3b, 0x43, 0x6f,
  0x6e, 0x73, 0x74, 0x5f, 0x33, 0x00, 0x00, 0x00, 0x04, 0x00, 0x00, 0x00,
  0x01, 0x00, 0x00, 0x00, 0x05, 0x00, 0x00, 0x00, 0x4c, 0x00, 0x00, 0x00,
  0x40, 0x00, 0x00, 0x00, 0xce, 0xf8, 0xff, 0xff, 0x10, 0x00, 0x00, 0x00,
  0x10, 0x00, 0x00, 0x00, 0x15, 0x00, 0x00, 0x00, 0x18, 0x00, 0x00, 0x00,
  0xc0, 0xf8, 0xff, 0xff, 0x0b, 0x00, 0x00, 0x00, 0x74, 0x72, 0x61, 0x6e,
  0x73, 0x70, 0x6f, 0x73, 0x65, 0x5f, 0x34, 0x00, 0x04, 0x00, 0x00, 0x00,
  0x01, 0x00, 0x00, 0x00, 0x07, 0x00, 0x00, 0x00, 0x4e, 0x00, 0x00, 0x00,
  0x40, 0x00, 0x00, 0x00, 0x0a, 0xf9, 0xff, 0xff, 0x10, 0x00, 0x00, 0x00,
  0x10, 0x00, 0x00, 0x00, 0x14, 0x00, 0x00, 0x00, 0x14, 0x00, 0x00, 0x00,
  0xfc, 0xf8, 0xff, 0xff, 0x05, 0x00, 0x00, 0x00, 0x50, 0x61, 0x64, 0x5f,
  0x31, 0x00, 0x00, 0x00, 0x04, 0x00, 0x00, 0x00, 0x01, 0x00, 0x00, 0x00,
  0x40, 0x00, 0x00, 0x00, 0x07, 0x00, 0x00, 0x00, 0x4e, 0x00, 0x00, 0x00,
  0x42, 0xf9, 0xff, 0xff, 0x10, 0x00, 0x00, 0x00, 0x10, 0x00, 0x00, 0x00,
  0x13, 0x00, 0x00, 0x00, 0x18, 0x00, 0x00, 0x00, 0x34, 0xf9, 0xff, 0xff,
  0x0b, 0x00, 0x00, 0x00, 0x74, 0x72, 0x61, 0x6e, 0x73, 0x70, 0x6f, 0x73,
  0x65, 0x5f, 0x32, 0x00, 0x04, 0x00, 0x00, 0x00, 0x01, 0x00, 0x00, 0x00,
  0x40, 0x00, 0x00, 0x00, 0x05, 0x00, 0x00, 0x00, 0x4c, 0x00, 0x00, 0x00,
  0x7e, 0xf9, 0xff, 0xff, 0x10, 0x00, 0x00, 0x00, 0x10, 0x00, 0x00, 0x00,
  0x12, 0x00, 0x00, 0x00, 0x44, 0x00, 0x00, 0x00, 0x70, 0xf9, 0xff, 0xff,
  0x37, 0x00, 0x00, 0x00, 0x6f, 0x6e, 0x6e, 0x78, 0x5f, 0x74, 0x66, 0x5f,
  0x70, 0x72, 0x65, 0x66, 0x69, 0x78, 0x5f, 0x52, 0x65, 0x6c, 0x75, 0x5f,
  0x31, 0x3b, 0x41, 0x64, 0x64, 0x3b, 0x64, 0x65, 0x70, 0x74, 0x68, 0x77,
  0x69, 0x73, 0x65, 0x3b, 0x63, 0x6f, 0x6e, 0x76, 0x6f, 0x6c, 0x75, 0x74,
  0x69, 0x6f, 0x6e, 0x3b, 0x43, 0x6f, 0x6e, 0x73, 0x74, 0x5f, 0x31, 0x00,
  0x04, 0x00, 0x00, 0x00, 0x01, 0x00, 0x00, 0x00, 0x05, 0x00, 0x00, 0x00,
  0x4c, 0x00, 0x00, 0x00, 0x40, 0x00, 0x00, 0x00, 0xe6, 0xf9, 0xff, 0xff,
  0x10, 0x00, 0x00, 0x00, 0x10, 0x00, 0x00, 0x00, 0x11, 0x00, 0x00, 0x00,
  0x1c, 0x00, 0x00, 0x00, 0xd8, 0xf9, 0xff, 0xff, 0x0c, 0x00, 0x00, 0x00,
  0x74, 0x72, 0x61, 0x6e, 0x73, 0x70, 0x6f, 0x73, 0x65, 0x5f, 0x31, 0x31,
  0x00, 0x00, 0x00, 0x00, 0x04, 0x00, 0x00, 0x00, 0x01, 0x00, 0x00, 0x00,
  0x0c, 0x00, 0x00, 0x00, 0x99, 0x00, 0x00, 0x00, 0x01, 0x00, 0x00, 0x00,
  0x26, 0xfa, 0xff, 0xff, 0x10, 0x00, 0x00, 0x00, 0x10, 0x00, 0x00, 0x00,
  0x10, 0x00, 0x00, 0x00, 0x10, 0x00, 0x00, 0x00, 0x18, 0xfa, 0xff, 0xff,
  0x03, 0x00, 0x00, 0x00, 0x50, 0x61, 0x64, 0x00, 0x04, 0x00, 0x00, 0x00,
  0x01, 0x00, 0x00, 0x00, 0x01, 0x00, 0x00, 0x00, 0x0c, 0x00, 0x00, 0x00,
  0x99, 0x00, 0x00, 0x00, 0xa6, 0xfa, 0xff, 0xff, 0x14, 0x00, 0x00, 0x00,
  0x14, 0x00, 0x00, 0x00, 0x0f, 0x00, 0x00, 0x00, 0x00, 0x00, 0x00, 0x02,
  0x18, 0x00, 0x00, 0x00, 0x50, 0xfa, 0xff, 0xff, 0x0b, 0x00, 0x00, 0x00,
  0x74, 0x72, 0x61, 0x6e, 0x73, 0x70, 0x6f, 0x73, 0x65, 0x5f, 0x31, 0x00,
  0x01, 0x00, 0x00, 0x00, 0x04, 0x00, 0x00, 0x00, 0xda, 0xfa, 0xff, 0xff,
  0x20, 0x00, 0x00, 0x00, 0xc4, 0x02, 0x00, 0x00, 0x0e, 0x00, 0x00, 0x00,
  0x00, 0x00, 0x00, 0x09, 0xcc, 0x02, 0x00, 0x00, 0x0c, 0x00, 0x14, 0x00,
  0x10, 0x00, 0x0c, 0x00, 0x08, 0x00, 0x04, 0x00, 0x0c, 0x00, 0x00, 0x00,
  0x10, 0x00, 0x00, 0x00, 0x14, 0x01, 0x00, 0x00, 0x94, 0x01, 0x00, 0x00,
  0x14, 0x02, 0x00, 0x00, 0x20, 0x00, 0x00, 0x00, 0x00, 0x00, 0x00, 0x00,
  0x00, 0x00, 0x00, 0x00, 0x00, 0x00, 0x00, 0x00, 0x00, 0x00, 0x00, 0x00,
  0x00, 0x00, 0x00, 0x00, 0x00, 0x00, 0x00, 0x00, 0x00, 0x00, 0x00, 0x00,
  0x00, 0x00, 0x00, 0x00, 0x00, 0x00, 0x00, 0x00, 0x00, 0x00, 0x00, 0x00,
  0x00, 0x00, 0x00, 0x00, 0x00, 0x00, 0x00, 0x00, 0x00, 0x00, 0x00, 0x00,
  0x00, 0x00, 0x00, 0x00, 0x00, 0x00, 0x00, 0x00, 0x00, 0x00, 0x00, 0x00,
  0x00, 0x00, 0x00, 0x00, 0x00, 0x00, 0x00, 0x00, 0x00, 0x00, 0x00, 0x00,
  0x00, 0x00, 0x00, 0x00, 0x00, 0x00, 0x00, 0x00, 0x00, 0x00, 0x00, 0x00,
  0x00, 0x00, 0x00, 0x00, 0x00, 0x00, 0x00, 0x00, 0x00, 0x00, 0x00, 0x00,
  0x00, 0x00, 0x00, 0x00, 0x00, 0x00, 0x00, 0x00, 0x00, 0x00, 0x00, 0x00,
  0x00, 0x00, 0x00, 0x00, 0x00, 0x00, 0x00, 0x00, 0x00, 0x00, 0x00, 0x00,
  0x00, 0x00, 0x00, 0x00, 0x00, 0x00, 0x00, 0x00, 0x00, 0x00, 0x00, 0x00,
  0x00, 0x00, 0x00, 0x00, 0x00, 0x00, 0x00, 0x00, 0x00, 0x00, 0x00, 0x00,
  0x00, 0x00, 0x00, 0x00, 0x00, 0x00, 0x00, 0x00, 0x00, 0x00, 0x00, 0x00,
  0x00, 0x00, 0x00, 0x00, 0x00, 0x00, 0x00, 0x00, 0x00, 0x00, 0x00, 0x00,
  0x00, 0x00, 0x00, 0x00, 0x00, 0x00, 0x00, 0x00, 0x00, 0x00, 0x00, 0x00,
  0x00, 0x00, 0x00, 0x00, 0x00, 0x00, 0x00, 0x00, 0x00, 0x00, 0x00, 0x00,
  0x00, 0x00, 0x00, 0x00, 0x00, 0x00, 0x00, 0x00, 0x00, 0x00, 0x00, 0x00,
  0x00, 0x00, 0x00, 0x00, 0x00, 0x00, 0x00, 0x00, 0x00, 0x00, 0x00, 0x00,
  0x00, 0x00, 0x00, 0x00, 0x00, 0x00, 0x00, 0x00, 0x00, 0x00, 0x00, 0x00,
  0x00, 0x00, 0x00, 0x00, 0x00, 0x00, 0x00, 0x00, 0x00, 0x00, 0x00, 0x00,
  0x00, 0x00, 0x00, 0x00, 0x00, 0x00, 0x00, 0x00, 0x00, 0x00, 0x00, 0x00,
  0x00, 0x00, 0x00, 0x00, 0x20, 0x00, 0x00, 0x00, 0x21, 0x67, 0x15, 0x3d,
  0x6c, 0x85, 0x72, 0x3e, 0xf8, 0xfe, 0x20, 0x3e, 0xad, 0x13, 0x07, 0x3d,
  0xa3, 0x7d, 0x0f, 0x3d, 0x5a, 0xd5, 0xdc, 0x3c, 0x37, 0xb2, 0x2d, 0x3e,
  0x7d, 0x86, 0x20, 0x3d, 0x9f, 0x6d, 0x10, 0x3d, 0x41, 0xe3, 0x9e, 0x3d,
  0x8b, 0x0e, 0x55, 0x3d, 0xbf, 0x4a, 0x2b, 0x3e, 0x58, 0x86, 0x3d, 0x3d,
  0x73, 0xe1, 0x9e, 0x3d, 0x52, 0x48, 0x14, 0x3d, 0x06, 0xa0, 0x06, 0x3d,
  0x96, 0x48, 0xff, 0x3c, 0xdf, 0xf8, 0xdc, 0x3d, 0xc6, 0xfc, 0x19, 0x3d,
  0x35, 0xd3, 0x2d, 0x3d, 0xb4, 0xd1, 0x70, 0x3e, 0xe3, 0xc3, 0x93, 0x3d,
  0x11, 0x4a, 0xbd, 0x3c, 0xe9, 0x7d, 0x5e, 0x3d, 0xe0, 0xb7, 0x15, 0x3d,
  0xd8, 0x63, 0x6f, 0x3e, 0x9f, 0x07, 0xf7, 0x3c, 0x0e, 0x46, 0x4a, 0x3d,
  0xce, 0x6a, 0xf9, 0x3c, 0x71, 0x6d, 0xe5, 0x3c, 0x2e, 0xf8, 0x0e, 0x3d,
  0x64, 0x7a, 0xe0, 0x3c, 0x20, 0x00, 0x00, 0x00, 0x39, 0xb8, 0x6b, 0x40,
  0x61, 0xa0, 0xf0, 0x41, 0xbe, 0x4f, 0x6b, 0x40, 0x86, 0x05, 0x86, 0x40,
  0xda, 0x53, 0xfb, 0x3f, 0xaf, 0x1b, 0x5b, 0x40, 0x79, 0xec, 0x23, 0x41,
  0x70, 0x45, 0x9f, 0x40, 0xc4, 0x4c, 0x8f, 0x40, 0x7a, 0xa5, 0x1d, 0x41,
  0x1a, 0x18, 0x04, 0x40, 0x7b, 0x28, 0x1d, 0x40, 0x4b, 0x0b, 0xbc, 0x40,
  0xb0, 0xa3, 0x1d, 0x41, 0xc1, 0x1f, 0x93, 0x40, 0xa8, 0xb5, 0x25, 0x40,
  0x05, 0x4a, 0x7d, 0x40, 0xed, 0x3e, 0x5b, 0x41, 0xcc, 0xc8, 0x98, 0x40,
  0x6a, 0x88, 0x29, 0x40, 0x11, 0xf0, 0xee, 0x41, 0x5b, 0x9c, 0x12, 0x41,
  0x7d, 0xcf, 0x3b, 0x40, 0xed, 0xc0, 0xdc, 0x40, 0xdc, 0x4c, 0x35, 0x40,
  0x30, 0x2c, 0xcf, 0x40, 0x90, 0x19, 0x75, 0x40, 0x6c, 0x1c, 0xfb, 0x3f,
  0x29, 0x17, 0x01, 0x40, 0xeb, 0xbd, 0xe7, 0x3f, 0x3e, 0xda, 0x8d, 0x40,
  0x6f, 0xb9, 0x5e, 0x40, 0x20, 0x00, 0x00, 0x00, 0x53, 0x3c, 0x94, 0xc0,
  0xae, 0xe5, 0xdb, 0xbf, 0xfa, 0xbc, 0x9f, 0xc1, 0xf4, 0x74, 0x79, 0xc0,
  0xa8, 0x5e, 0x8e, 0xc0, 0xc1, 0x3f, 0x08, 0xc0, 0xd3, 0x56, 0xac, 0xc1,
  0x0d, 0x70, 0x99, 0xc0, 0x17, 0x96, 0x58, 0xc0, 0x69, 0x9f, 0xa5, 0xc0,
  0x6e, 0x64, 0xd3, 0xc0, 0x2a, 0xf4, 0xa9, 0xc1, 0xe2, 0x0d, 0xb4, 0xc0,
  0x7a, 0x7f, 0x02, 0xc1, 0xed, 0x2c, 0x43, 0xc0, 0xc6, 0x92, 0x85, 0xc0,
  0x8b, 0xb8, 0x44, 0xbf, 0xfb, 0xc9, 0x7d, 0xc0, 0xb1, 0x66, 0x70, 0xc0,
  0x8f, 0x77, 0xac, 0xc0, 0x79, 0x10, 0xd7, 0xbf, 0x4d, 0xfc, 0x48, 0xc0,
  0x4a, 0xc9, 0x01, 0xc0, 0x2e, 0x04, 0x46, 0xc0, 0x70, 0x8c, 0x94, 0xc0,
  0x10, 0x85, 0xed, 0xc1, 0x62, 0xf9, 0x3f, 0xc0, 0x82, 0xb1, 0xc8, 0xc0,
  0xf8, 0x77, 0x77, 0xc0, 0x96, 0xa2, 0x63, 0xc0, 0x1a, 0x20, 0x25, 0xc0,
  0xcb, 0x5e, 0x32, 0xc0, 0x0d, 0x00, 0x00, 0x00, 0x63, 0x6f, 0x6e, 0x76,
  0x6f, 0x6c, 0x75, 0x74, 0x69, 0x6f, 0x6e, 0x5f, 0x31, 0x00, 0x00, 0x00,
  0x04, 0x00, 0x00, 0x00, 0x20, 0x00, 0x00, 0x00, 0x01, 0x00, 0x00, 0x00,
  0x01, 0x00, 0x00, 0x00, 0x40, 0x00, 0x00, 0x00, 0x82, 0xfd, 0xff, 0xff,
  0x10, 0x00, 0x00, 0x00, 0x10, 0x00, 0x00, 0x00, 0x0d, 0x00, 0x00, 0x00,
  0x18, 0x00, 0x00, 0x00, 0x74, 0xfd, 0xff, 0xff, 0x09, 0x00, 0x00, 0x00,
  0x64, 0x65, 0x70, 0x74, 0x68, 0x77, 0x69, 0x73, 0x65, 0x00, 0x00, 0x00,
  0x04, 0x00, 0x00, 0x00, 0x01, 0x00, 0x00, 0x00, 0x03, 0x00, 0x00, 0x00,
  0x03, 0x00, 0x00, 0x00, 0x40, 0x00, 0x00, 0x00, 0xbe, 0xfd, 0xff, 0xff,
  0x10, 0x00, 0x00, 0x00, 0x10, 0x00, 0x00, 0x00, 0x0c, 0x00, 0x00, 0x00,
  0x18, 0x00, 0x00, 0x00, 0xb0, 0xfd, 0xff, 0xff, 0x0b, 0x00, 0x00, 0x00,
  0x63, 0x6f, 0x6e, 0x76, 0x6f, 0x6c, 0x75, 0x74, 0x69, 0x6f, 0x6e, 0x00,
  0x04, 0x00, 0x00, 0x00, 0x40, 0x00, 0x00, 0x00, 0x03, 0x00, 0x00, 0x00,
  0x03, 0x00, 0x00, 0x00, 0x01, 0x00, 0x00, 0x00, 0xfa, 0xfd, 0xff, 0xff,
  0x10, 0x00, 0x00, 0x00, 0x10, 0x00, 0x00, 0x00, 0x0b, 0x00, 0x00, 0x00,
  0x14, 0x00, 0x00, 0x00, 0xec, 0xfd, 0xff, 0xff, 0x06, 0x00, 0x00, 0x00,
  0x4d, 0x61, 0x74, 0x4d, 0x75, 0x6c, 0x00, 0x00, 0x02, 0x00, 0x00, 0x00,
  0x02, 0x00, 0x00, 0x00, 0x20, 0x00, 0x00, 0x00, 0x2a, 0xfe, 0xff, 0xff,
  0x10, 0x00, 0x00, 0x00, 0x10, 0x00, 0x00, 0x00, 0x0a, 0x00, 0x00, 0x00,
  0x14, 0x00, 0x00, 0x00, 0x1c, 0xfe, 0xff, 0xff, 0x07, 0x00, 0x00, 0x00,
  0x43, 0x6f, 0x6e, 0x73, 0x74, 0x5f, 0x38, 0x00, 0x01, 0x00, 0x00, 0x00,
  0x02, 0x00, 0x00, 0x00, 0x56, 0xfe, 0xff, 0xff, 0x10, 0x00, 0x00, 0x00,
  0x10, 0x00, 0x00, 0x00, 0x09, 0x00, 0x00, 0x00, 0x14, 0x00, 0x00, 0x00,
  0x48, 0xfe, 0xff, 0xff, 0x07, 0x00, 0x00, 0x00, 0x43, 0x6f, 0x6e, 0x73,
  0x74, 0x5f, 0x35, 0x00, 0x01, 0x00, 0x00, 0x00, 0x20, 0x00, 0x00, 0x00,
  0x82, 0xfe, 0xff, 0xff, 0x10, 0x00, 0x00, 0x00, 0x10, 0x00, 0x00, 0x00,
  0x08, 0x00, 0x00, 0x00, 0x14, 0x00, 0x00, 0x00, 0x74, 0xfe, 0xff, 0xff,
  0x07, 0x00, 0x00, 0x00, 0x43, 0x6f, 0x6e, 0x73, 0x74, 0x5f, 0x33, 0x00,
  0x01, 0x00, 0x00, 0x00, 0x40, 0x00, 0x00, 0x00, 0xae, 0xfe, 0xff, 0xff,
  0x10, 0x00, 0x00, 0x00, 0x10, 0x00, 0x00, 0x00, 0x07, 0x00, 0x00, 0x00,
  0x14, 0x00, 0x00, 0x00, 0xa0, 0xfe, 0xff, 0xff, 0x07, 0x00, 0x00, 0x00,
  0x43, 0x6f, 0x6e, 0x73, 0x74, 0x5f, 0x31, 0x00, 0x01, 0x00, 0x00, 0x00,
  0x40, 0x00, 0x00, 0x00, 0x26, 0xff, 0xff, 0xff, 0x14, 0x00, 0x00, 0x00,
  0x14, 0x00, 0x00, 0x00, 0x06, 0x00, 0x00, 0x00, 0x00, 0x00, 0x00, 0x02,
  0x14, 0x00, 0x00, 0x00, 0xd0, 0xfe, 0xff, 0xff, 0x05, 0x00, 0x00, 0x00,
  0x43, 0x6f, 0x6e, 0x73, 0x74, 0x00, 0x00, 0x00, 0x02, 0x00, 0x00, 0x00,
  0x04, 0x00, 0x00, 0x00, 0x02, 0x00, 0x00, 0x00, 0x5a, 0xff, 0xff, 0xff,
  0x14, 0x00, 0x00, 0x00, 0x14, 0x00, 0x00, 0x00, 0x05, 0x00, 0x00, 0x00,
  0x00, 0x00, 0x00, 0x02, 0x1c, 0x00, 0x00, 0x00, 0x04, 0xff, 0xff, 0xff,
  0x0d, 0x00, 0x00, 0x00, 0x66, 0x6c, 0x61, 0x74, 0x74, 0x65, 0x6e, 0x2f,
  0x43, 0x6f, 0x6e, 0x73, 0x74, 0x00, 0x00, 0x00, 0x01, 0x00, 0x00, 0x00,
  0x02, 0x00, 0x00, 0x00, 0x92, 0xff, 0xff, 0xff, 0x14, 0x00, 0x00, 0x00,
  0x14, 0x00, 0x00, 0x00, 0x04, 0x00, 0x00, 0x00, 0x00, 0x00, 0x00, 0x02,
  0x14, 0x00, 0x00, 0x00, 0x3c, 0xff, 0xff, 0xff, 0x07, 0x00, 0x00, 0x00,
  0x73, 0x70, 0x6c, 0x69, 0x74, 0x5f, 0x32, 0x00, 0x01, 0x00, 0x00, 0x00,
  0x02, 0x00, 0x00, 0x00, 0xc2, 0xff, 0xff, 0xff, 0x14, 0x00, 0x00, 0x00,
  0x14, 0x00, 0x00, 0x00, 0x03, 0x00, 0x00, 0x00, 0x00, 0x00, 0x00, 0x02,
  0x20, 0x00, 0x00, 0x00, 0x6c, 0xff, 0xff, 0xff, 0x10, 0x00, 0x00, 0x00,
  0x74, 0x72, 0x61, 0x6e, 0x73, 0x70, 0x6f, 0x73, 0x65, 0x5f, 0x31, 0x2f,
  0x70, 0x65, 0x72, 0x6d, 0x00, 0x00, 0x00, 0x00, 0x01, 0x00, 0x00, 0x00,
  0x04, 0x00, 0x00, 0x00, 0x00, 0x00, 0x0e, 0x00, 0x18, 0x00, 0x14, 0x00,
  0x13, 0x00, 0x0c, 0x00, 0x08, 0x00, 0x04, 0x00, 0x0e, 0x00, 0x00, 0x00,
  0x14, 0x00, 0x00, 0x00, 0x14, 0x00, 0x00, 0x00, 0x02, 0x00, 0x00, 0x00,
  0x00, 0x00, 0x00, 0x02, 0x20, 0x00, 0x00, 0x00, 0xb8, 0xff, 0xff, 0xff,
  0x10, 0x00, 0x00, 0x00, 0x74, 0x72, 0x61, 0x6e, 0x73, 0x70, 0x6f, 0x73,
  0x65, 0x5f, 0x32, 0x2f, 0x70, 0x65, 0x72, 0x6d, 0x00, 0x00, 0x00, 0x00,
  0x01, 0x00, 0x00, 0x00, 0x04, 0x00, 0x00, 0x00, 0x00, 0x00, 0x0e, 0x00,
  0x14, 0x00, 0x10, 0x00, 0x00, 0x00, 0x0c, 0x00, 0x08, 0x00, 0x04, 0x00,
  0x0e, 0x00, 0x00, 0x00, 0x14, 0x00, 0x00, 0x00, 0x14, 0x00, 0x00, 0x00,
  0x01, 0x00, 0x00, 0x00, 0x28, 0x00, 0x00, 0x00, 0x04, 0x00, 0x04, 0x00,
  0x04, 0x00, 0x00, 0x00, 0x17, 0x00, 0x00, 0x00, 0x73, 0x65, 0x72, 0x76,
  0x69, 0x6e, 0x67, 0x5f, 0x64, 0x65, 0x66, 0x61, 0x75, 0x6c, 0x74, 0x5f,
  0x69, 0x6e, 0x70, 0x75, 0x74, 0x3a, 0x30, 0x00, 0x04, 0x00, 0x00, 0x00,
  0x01, 0x00, 0x00, 0x00, 0x01, 0x00, 0x00, 0x00, 0x0a, 0x00, 0x00, 0x00,
  0x97, 0x00, 0x00, 0x00, 0x07, 0x00, 0x00, 0x00, 0x88, 0x00, 0x00, 0x00,
  0x6c, 0x00, 0x00, 0x00, 0x58, 0x00, 0x00, 0x00, 0x3c, 0x00, 0x00, 0x00,
  0x28, 0x00, 0x00, 0x00, 0x18, 0x00, 0x00, 0x00, 0x04, 0x00, 0x00, 0x00,
  0xc8, 0xff, 0xff, 0xff, 0x09, 0x00, 0x00, 0x00, 0x09, 0x00, 0x00, 0x00,
  0x00, 0x00, 0x00, 0x09, 0xb0, 0xff, 0xff, 0xff, 0x28, 0x00, 0x00, 0x00,
  0x00, 0x00, 0x00, 0x28, 0xe4, 0xff, 0xff, 0xff, 0x04, 0x00, 0x00, 0x00,
  0x06, 0x00, 0x00, 0x00, 0x00, 0x00, 0x00, 0x04, 0xcc, 0xff, 0xff, 0xff,
  0x27, 0x00, 0x00, 0x00, 0x00, 0x00, 0x00, 0x27, 0x0c, 0x00, 0x10, 0x00,
  0x0f, 0x00, 0x00, 0x00, 0x08, 0x00, 0x04, 0x00, 0x0c, 0x00, 0x00, 0x00,
  0x03, 0x00, 0x00, 0x00, 0x05, 0x00, 0x00, 0x00, 0x00, 0x00, 0x00, 0x03,
  0xf4, 0xff, 0xff, 0xff, 0x16, 0x00, 0x00, 0x00, 0x00, 0x00, 0x00, 0x16,
  0x0c, 0x00, 0x0c, 0x00, 0x0b, 0x00, 0x00, 0x00, 0x00, 0x00, 0x04, 0x00,
  0x0c, 0x00, 0x00, 0x00, 0x22, 0x00, 0x00, 0x00, 0x00, 0x00, 0x00, 0x22
};
unsigned int results_seizure_binary_shallow_checkpoint_poi_15_fold_4_mobilenet_s_shallow_model_quant_dr_tflite_len = 11712;
