#include "streams/biosignals/biosignal_stream.h"

const unsigned char focal_int8_pr[] = {
  0x1c, 0x00, 0x00, 0x00, 0x54, 0x46, 0x4c, 0x33, 0x14, 0x00, 0x20, 0x00,
  0x1c, 0x00, 0x18, 0x00, 0x14, 0x00, 0x10, 0x00, 0x0c, 0x00, 0x00, 0x00,
  0x08, 0x00, 0x04, 0x00, 0x14, 0x00, 0x00, 0x00, 0x1c, 0x00, 0x00, 0x00,
  0x80, 0x00, 0x00, 0x00, 0xb0, 0x00, 0x00, 0x00, 0xc8, 0x05, 0x00, 0x00,
  0xd8, 0x05, 0x00, 0x00, 0x9c, 0x13, 0x00, 0x00, 0x03, 0x00, 0x00, 0x00,
  0x01, 0x00, 0x00, 0x00, 0x04, 0x00, 0x00, 0x00, 0xc6, 0xf8, 0xff, 0xff,
  0x0c, 0x00, 0x00, 0x00, 0x1c, 0x00, 0x00, 0x00, 0x38, 0x00, 0x00, 0x00,
  0x0f, 0x00, 0x00, 0x00, 0x73, 0x65, 0x72, 0x76, 0x69, 0x6e, 0x67, 0x5f,
  0x64, 0x65, 0x66, 0x61, 0x75, 0x6c, 0x74, 0x00, 0x01, 0x00, 0x00, 0x00,
  0x04, 0x00, 0x00, 0x00, 0xc4, 0xff, 0xff, 0xff, 0x10, 0x00, 0x00, 0x00,
  0x04, 0x00, 0x00, 0x00, 0x06, 0x00, 0x00, 0x00, 0x6f, 0x75, 0x74, 0x70,
  0x75, 0x74, 0x00, 0x00, 0x01, 0x00, 0x00, 0x00, 0x04, 0x00, 0x00, 0x00,
  0xd6, 0xfa, 0xff, 0xff, 0x04, 0x00, 0x00, 0x00, 0x05, 0x00, 0x00, 0x00,
  0x69, 0x6e, 0x70, 0x75, 0x74, 0x00, 0x00, 0x00, 0x01, 0x00, 0x00, 0x00,
  0x0c, 0x00, 0x00, 0x00, 0x08, 0x00, 0x0c, 0x00, 0x08, 0x00, 0x04, 0x00,
  0x08, 0x00, 0x00, 0x00, 0x12, 0x00, 0x00, 0x00, 0x04, 0x00, 0x00, 0x00,
  0x13, 0x00, 0x00, 0x00, 0x6d, 0x69, 0x6e, 0x5f, 0x72, 0x75, 0x6e, 0x74,
  0x69, 0x6d, 0x65, 0x5f, 0x76, 0x65, 0x72, 0x73, 0x69, 0x6f, 0x6e, 0x00,
  0x13, 0x00, 0x00, 0x00, 0x14, 0x05, 0x00, 0x00, 0x0c, 0x05, 0x00, 0x00,
  0xdc, 0x04, 0x00, 0x00, 0xb4, 0x04, 0x00, 0x00, 0x94, 0x04, 0x00, 0x00,
  0x7c, 0x04, 0x00, 0x00, 0x64, 0x04, 0x00, 0x00, 0x14, 0x02, 0x00, 0x00,
  0x04, 0x01, 0x00, 0x00, 0x74, 0x00, 0x00, 0x00, 0x5c, 0x00, 0x00, 0x00,
  0x54, 0x00, 0x00, 0x00, 0x4c, 0x00, 0x00, 0x00, 0x44, 0x00, 0x00, 0x00,
  0x3c, 0x00, 0x00, 0x00, 0x34, 0x00, 0x00, 0x00, 0x2c, 0x00, 0x00, 0x00,
  0x24, 0x00, 0x00, 0x00, 0x04, 0x00, 0x00, 0x00, 0x6e, 0xfb, 0xff, 0xff,
  0x04, 0x00, 0x00, 0x00, 0x10, 0x00, 0x00, 0x00, 0x31, 0x2e, 0x31, 0x34,
  0x2e, 0x30, 0x00, 0x00, 0x00, 0x00, 0x00, 0x00, 0x00, 0x00, 0x00, 0x00,
  0x18, 0xee, 0xff, 0xff, 0x1c, 0xee, 0xff, 0xff, 0x20, 0xee, 0xff, 0xff,
  0x24, 0xee, 0xff, 0xff, 0x28, 0xee, 0xff, 0xff, 0x2c, 0xee, 0xff, 0xff,
  0x30, 0xee, 0xff, 0xff, 0xa6, 0xfb, 0xff, 0xff, 0x04, 0x00, 0x00, 0x00,
  0x08, 0x00, 0x00, 0x00, 0xa6, 0xfb, 0xff, 0xff, 0x4a, 0x03, 0x00, 0x00,
  0xba, 0xfb, 0xff, 0xff, 0x04, 0x00, 0x00, 0x00, 0x80, 0x00, 0x00, 0x00,
  0xd3, 0xda, 0x44, 0xe4, 0x07, 0xfa, 0xd2, 0xe0, 0xda, 0x53, 0xcc, 0x3e,
  0x42, 0x28, 0x48, 0x58, 0x45, 0xd5, 0xc4, 0xcf, 0x56, 0x2c, 0xe3, 0xdf,
  0xc8, 0x3c, 0x23, 0x3e, 0x4d, 0xe3, 0x56, 0x56, 0x61, 0x47, 0xe3, 0x42,
  0x4d, 0xd2, 0x2b, 0xd8, 0xd4, 0xd2, 0xd3, 0x1a, 0x36, 0xcf, 0x41, 0x6c,
  0xdb, 0x63, 0x33, 0x2d, 0xd1, 0xce, 0xe5, 0x33, 0x43, 0x58, 0x57, 0x36,
  0x3b, 0x55, 0xd1, 0x7f, 0x2b, 0x26, 0xa8, 0x35, 0xff, 0xea, 0x33, 0x2f,
  0x2e, 0xac, 0x23, 0xb6, 0xbb, 0xd0, 0xba, 0xc4, 0xd3, 0x2a, 0x1c, 0x28,
  0xb5, 0xc6, 0x3a, 0x36, 0x23, 0xda, 0xc1, 0xa9, 0xc7, 0x36, 0xae, 0xae,
  0x91, 0xc9, 0x0d, 0xb9, 0xa8, 0x32, 0xbd, 0x32, 0x37, 0x2b, 0x32, 0xed,
  0xc0, 0x18, 0xb9, 0x81, 0x22, 0xac, 0xc1, 0xda, 0x1f, 0x31, 0x36, 0xde,
  0xd3, 0xaf, 0xae, 0xd1, 0xce, 0xbe, 0x24, 0x88, 0x46, 0xfc, 0xff, 0xff,
  0x04, 0x00, 0x00, 0x00, 0x00, 0x01, 0x00, 0x00, 0x3a, 0xf5, 0xff, 0xff,
  0xbc, 0x01, 0x00, 0x00, 0x4d, 0x00, 0x00, 0x00, 0xba, 0xf9, 0xff, 0xff,
  0xae, 0x04, 0x00, 0x00, 0xf6, 0xff, 0xff, 0xff, 0xf4, 0xf6, 0xff, 0xff,
  0x6f, 0xf5, 0xff, 0xff, 0x8b, 0xf7, 0xff, 0xff, 0x3e, 0x00, 0x00, 0x00,
  0xdd, 0xf9, 0xff, 0xff, 0x37, 0x06, 0x00, 0x00, 0x6a, 0x06, 0x00, 0x00,
  0x71, 0x06, 0x00, 0x00, 0x65, 0x00, 0x00, 0x00, 0x2e, 0x00, 0x00, 0x00,
  0x1e, 0x01, 0x00, 0x00, 0x9a, 0xf7, 0xff, 0xff, 0xbf, 0xf8, 0xff, 0xff,
  0xae, 0xf9, 0xff, 0xff, 0x54, 0xff, 0xff, 0xff, 0xaf, 0xfe, 0xff, 0xff,
  0xe4, 0xf6, 0xff, 0xff, 0xd3, 0xf8, 0xff, 0xff, 0xdf, 0xf6, 0xff, 0xff,
  0x70, 0x07, 0x00, 0x00, 0x9a, 0xff, 0xff, 0xff, 0x63, 0x00, 0x00, 0x00,
  0x9e, 0x00, 0x00, 0x00, 0xdf, 0xf6, 0xff, 0xff, 0x34, 0x00, 0x00, 0x00,
  0x19, 0x00, 0x00, 0x00, 0xe4, 0xff, 0xff, 0xff, 0x1d, 0x01, 0x00, 0x00,
  0xf1, 0x01, 0x00, 0x00, 0x07, 0x07, 0x00, 0x00, 0x72, 0xff, 0xff, 0xff,
  0xde, 0xf5, 0xff, 0xff, 0x4f, 0x07, 0x00, 0x00, 0xfa, 0xf7, 0xff, 0xff,
  0x99, 0xf9, 0xff, 0xff, 0x8d, 0xf7, 0xff, 0xff, 0x40, 0xf6, 0xff, 0xff,
  0x08, 0x04, 0x00, 0x00, 0x64, 0x07, 0x00, 0x00, 0x1d, 0xfc, 0xff, 0xff,
  0x50, 0xff, 0xff, 0xff, 0x3b, 0x00, 0x00, 0x00, 0xc6, 0x01, 0x00, 0x00,
  0x21, 0x05, 0x00, 0x00, 0xaf, 0x06, 0x00, 0x00, 0x7b, 0x05, 0x00, 0x00,
  0xe5, 0xfb, 0xff, 0xff, 0x26, 0xf7, 0xff, 0xff, 0x7a, 0xf7, 0xff, 0xff,
  0x7f, 0x05, 0x00, 0x00, 0x2a, 0x01, 0x00, 0x00, 0x98, 0xff, 0xff, 0xff,
  0x54, 0x00, 0x00, 0x00, 0xc1, 0xff, 0xff, 0xff, 0x6c, 0x01, 0x00, 0x00,
  0xdb, 0x00, 0x00, 0x00, 0x1f, 0x02, 0x00, 0x00, 0x43, 0x00, 0x00, 0x00,
  0x52, 0xfd, 0xff, 0xff, 0x04, 0x00, 0x00, 0x00, 0x40, 0x02, 0x00, 0x00,
  0x60, 0x29, 0x79, 0x9d, 0x12, 0x1e, 0x78, 0x7f, 0x65, 0x3c, 0x5d, 0x7f,
  0x17, 0x23, 0x03, 0xf8, 0xbc, 0xbd, 0xfa, 0x1e, 0xe7, 0x20, 0xb1, 0x28,
  0xf2, 0x81, 0x7c, 0x2f, 0x29, 0x0b, 0xe8, 0x32, 0x1e, 0x0c, 0x7f, 0x2f,
  0x0b, 0xe1, 0x26, 0x02, 0x32, 0xd2, 0xe3, 0x81, 0x9f, 0xcf, 0xf4, 0x1b,
  0x21, 0x47, 0xf8, 0x81, 0x25, 0x22, 0x39, 0x3d, 0x3e, 0xbc, 0x54, 0x2e,
  0x1d, 0x66, 0x7f, 0x1a, 0x3b, 0x10, 0x62, 0x40, 0x4e, 0x2b, 0x7f, 0x71,
  0x1e, 0x2f, 0x35, 0x2c, 0xf4, 0x43, 0x26, 0x3b, 0x7f, 0xea, 0xe3, 0x28,
  0x41, 0x37, 0x94, 0x27, 0x48, 0x81, 0x0d, 0x49, 0x30, 0xe2, 0x08, 0xe6,
  0x22, 0x7f, 0x2b, 0xe6, 0x81, 0xd9, 0xfc, 0x92, 0xc7, 0x1b, 0xd3, 0xfa,
  0x02, 0xa4, 0x81, 0xef, 0xc9, 0xe9, 0xfa, 0xcd, 0xfb, 0xf1, 0x81, 0xb4,
  0xf9, 0xef, 0xec, 0xf6, 0xe7, 0xd3, 0x5e, 0x1e, 0x81, 0xfd, 0xeb, 0xef,
  0x05, 0x04, 0xfd, 0xdd, 0x2c, 0xfe, 0x4a, 0xaa, 0x0c, 0x0b, 0x81, 0x5e,
  0x2f, 0xe0, 0x0d, 0xa9, 0x81, 0xc9, 0xf2, 0x20, 0x22, 0x18, 0x73, 0x07,
  0x17, 0x1d, 0x1c, 0x44, 0x7f, 0x30, 0x11, 0x4c, 0x18, 0x3c, 0x32, 0x13,
  0x22, 0x7f, 0x2c, 0x37, 0x41, 0x17, 0xce, 0x1e, 0xf2, 0x02, 0x7f, 0x39,
  0x4a, 0x16, 0x3f, 0xba, 0xfe, 0x81, 0x92, 0xab, 0x41, 0x43, 0x45, 0x23,
  0x98, 0x81, 0xbe, 0x06, 0x37, 0xe6, 0x5f, 0x0f, 0x5a, 0x0d, 0xce, 0x1f,
  0x5d, 0x59, 0x7f, 0x25, 0x25, 0x38, 0x17, 0x29, 0xf6, 0x34, 0x7f, 0x2b,
  0xf8, 0x44, 0x17, 0x41, 0x54, 0x52, 0x13, 0x7f, 0x73, 0x05, 0x81, 0x88,
  0xe4, 0xe6, 0xc7, 0xe9, 0x15, 0xb7, 0x02, 0x30, 0x42, 0xd1, 0x81, 0x87,
  0x12, 0x30, 0xf5, 0x7c, 0x02, 0x81, 0x19, 0xca, 0xe5, 0xe9, 0xee, 0x30,
  0x4c, 0x81, 0x32, 0xed, 0x05, 0xc0, 0xff, 0x54, 0xb9, 0x3c, 0x40, 0x16,
  0x42, 0x00, 0x2d, 0x63, 0x32, 0x7f, 0xc6, 0xed, 0x3d, 0x69, 0x1d, 0xa1,
  0x65, 0xfe, 0x81, 0x18, 0xd7, 0x0b, 0xe8, 0x4c, 0xd2, 0x03, 0x6c, 0x81,
  0x2a, 0x39, 0x27, 0xf6, 0xbb, 0xde, 0x81, 0xca, 0xb2, 0x0c, 0xe1, 0xf5,
  0xfd, 0x81, 0xbf, 0x3a, 0xf6, 0xfc, 0xdd, 0xeb, 0xbd, 0xec, 0xd2, 0xd8,
  0x19, 0x19, 0x7f, 0xe3, 0x81, 0xaf, 0xf7, 0xcb, 0xd4, 0x04, 0xdb, 0xe2,
  0x1c, 0x2e, 0x38, 0xeb, 0xb9, 0xa6, 0xdb, 0x81, 0x56, 0x1f, 0x4c, 0x27,
  0x51, 0xec, 0x63, 0x42, 0x64, 0x7f, 0xe9, 0x81, 0x95, 0xf7, 0xe9, 0xe6,
  0x00, 0xdf, 0xc9, 0x0a, 0x50, 0x51, 0xf2, 0x03, 0x07, 0x07, 0x6c, 0x7f,
  0x40, 0x46, 0x16, 0xc5, 0x34, 0xe4, 0x1e, 0x7f, 0x25, 0x17, 0x6b, 0x1c,
  0x08, 0x16, 0xf4, 0x13, 0x7f, 0x6a, 0xfa, 0x6d, 0x13, 0x58, 0xfb, 0x69,
  0x41, 0x57, 0x7f, 0x28, 0xad, 0xaa, 0x7f, 0xf7, 0xfd, 0x07, 0x81, 0x07,
  0xec, 0x81, 0xa2, 0xfb, 0xbe, 0xd7, 0x1e, 0xd0, 0xcc, 0x3b, 0x7f, 0x6f,
  0xf9, 0x04, 0xf9, 0x05, 0x14, 0x06, 0x2e, 0x40, 0x16, 0xaf, 0x81, 0x02,
  0x1d, 0x23, 0xa2, 0xab, 0x1c, 0x26, 0x73, 0xe7, 0xd1, 0x7f, 0xae, 0xb6,
  0x51, 0x55, 0x29, 0xf6, 0x2b, 0x0f, 0x81, 0x33, 0xc9, 0x8a, 0x81, 0xec,
  0x47, 0x71, 0x30, 0xdf, 0x85, 0xd1, 0xfa, 0x81, 0xaa, 0xef, 0xd9, 0xd9,
  0xfa, 0xee, 0xd6, 0xd6, 0x81, 0xc6, 0x42, 0x53, 0xee, 0xe0, 0xd6, 0xc2,
  0x45, 0x7a, 0x7f, 0xeb, 0x0e, 0xeb, 0x08, 0x23, 0xf8, 0x21, 0x39, 0x5b,
  0x08, 0x23, 0xe3, 0x28, 0x5f, 0x7f, 0x31, 0x23, 0x76, 0x0d, 0xd2, 0x47,
  0x2b, 0x69, 0x7f, 0xff, 0x81, 0xd7, 0xf7, 0xd8, 0xe1, 0xe4, 0xec, 0xf8,
  0xfc, 0xe8, 0x01, 0xd7, 0x81, 0xc8, 0x05, 0x01, 0x2c, 0x18, 0x25, 0x40,
  0x23, 0x99, 0x9a, 0x81, 0x3a, 0xf0, 0xf3, 0xe4, 0x1d, 0x43, 0x29, 0x8f,
  0x37, 0x3f, 0x81, 0xfc, 0x37, 0x24, 0xe7, 0x81, 0xb9, 0x17, 0xfa, 0x1d,
  0xfb, 0xc4, 0x49, 0xcd, 0x81, 0x8c, 0xf5, 0x49, 0xf8, 0x44, 0x56, 0xaf,
  0xa8, 0x81, 0xb6, 0xcc, 0x08, 0x27, 0x3a, 0x7f, 0x73, 0x27, 0x07, 0x28,
  0xb7, 0xb7, 0xd0, 0x2d, 0x02, 0xa2, 0xfe, 0x12, 0x5c, 0xf9, 0x81, 0x44,
  0x9e, 0xff, 0xff, 0xff, 0x04, 0x00, 0x00, 0x00, 0x08, 0x00, 0x00, 0x00,
  0xff, 0xff, 0xff, 0xff, 0x40, 0x00, 0x00, 0x00, 0xb2, 0xff, 0xff, 0xff,
  0x04, 0x00, 0x00, 0x00, 0x08, 0x00, 0x00, 0x00, 0x02, 0x00, 0x00, 0x00,
  0x03, 0x00, 0x00, 0x00, 0xc6, 0xff, 0xff, 0xff, 0x04, 0x00, 0x00, 0x00,
  0x10, 0x00, 0x00, 0x00, 0x00, 0x00, 0x00, 0x00, 0x03, 0x00, 0x00, 0x00,
  0x01, 0x00, 0x00, 0x00, 0x02, 0x00, 0x00, 0x00, 0xe2, 0xff, 0xff, 0xff,
  0x04, 0x00, 0x00, 0x00, 0x10, 0x00, 0x00, 0x00, 0x01, 0x00, 0x00, 0x00,
  0x0c, 0x00, 0x00, 0x00, 0x18, 0x00, 0x00, 0x00, 0x01, 0x00, 0x00, 0x00,
  0x00, 0x00, 0x06, 0x00, 0x08, 0x00, 0x04, 0x00, 0x06, 0x00, 0x00, 0x00,
  0x04, 0x00, 0x00, 0x00, 0x20, 0x00, 0x00, 0x00, 0x00, 0x00, 0x00, 0x00,
  0x00, 0x00, 0x00, 0x00, 0x00, 0x00, 0x00, 0x00, 0x00, 0x00, 0x00, 0x00,
  0x01, 0x00, 0x00, 0x00, 0x01, 0x00, 0x00, 0x00, 0x01, 0x00, 0x00, 0x00,
  0x01, 0x00, 0x00, 0x00, 0xc0, 0xf2, 0xff, 0xff, 0xc4, 0xf2, 0xff, 0xff,
  0x0f, 0x00, 0x00, 0x00, 0x4d, 0x4c, 0x49, 0x52, 0x20, 0x43, 0x6f, 0x6e,
  0x76, 0x65, 0x72, 0x74, 0x65, 0x64, 0x2e, 0x00, 0x01, 0x00, 0x00, 0x00,
  0x14, 0x00, 0x00, 0x00, 0x00, 0x00, 0x0e, 0x00, 0x18, 0x00, 0x14, 0x00,
  0x10, 0x00, 0x0c, 0x00, 0x08, 0x00, 0x04, 0x00, 0x0e, 0x00, 0x00, 0x00,
  0x14, 0x00, 0x00, 0x00, 0x1c, 0x00, 0x00, 0x00, 0xbc, 0x01, 0x00, 0x00,
  0xc0, 0x01, 0x00, 0x00, 0xc4, 0x01, 0x00, 0x00, 0x04, 0x00, 0x00, 0x00,
  0x6d, 0x61, 0x69, 0x6e, 0x00, 0x00, 0x00, 0x00, 0x07, 0x00, 0x00, 0x00,
  0x74, 0x01, 0x00, 0x00, 0x3c, 0x01, 0x00, 0x00, 0xdc, 0x00, 0x00, 0x00,
  0xa4, 0x00, 0x00, 0x00, 0x64, 0x00, 0x00, 0x00, 0x3c, 0x00, 0x00, 0x00,
  0x04, 0x00, 0x00, 0x00, 0x46, 0xff, 0xff, 0xff, 0x14, 0x00, 0x00, 0x00,
  0x00, 0x00, 0x00, 0x08, 0x10, 0x00, 0x00, 0x00, 0x14, 0x00, 0x00, 0x00,
  0x05, 0x00, 0x00, 0x00, 0x50, 0xf3, 0xff, 0xff, 0x01, 0x00, 0x00, 0x00,
  0x10, 0x00, 0x00, 0x00, 0x03, 0x00, 0x00, 0x00, 0x0f, 0x00, 0x00, 0x00,
  0x08, 0x00, 0x00, 0x00, 0x09, 0x00, 0x00, 0x00, 0x1a, 0xff, 0xff, 0xff,
  0x0c, 0x00, 0x00, 0x00, 0x10, 0x00, 0x00, 0x00, 0x01, 0x00, 0x00, 0x00,
  0x01, 0x00, 0x00, 0x00, 0x0f, 0x00, 0x00, 0x00, 0x02, 0x00, 0x00, 0x00,
  0x0e, 0x00, 0x00, 0x00, 0x05, 0x00, 0x00, 0x00, 0x9e, 0xff, 0xff, 0xff,
  0x1c, 0x00, 0x00, 0x00, 0x00, 0x00, 0x00, 0x1b, 0x1c, 0x00, 0x00, 0x00,
  0x20, 0x00, 0x00, 0x00, 0x04, 0x00, 0x00, 0x00, 0x00, 0x00, 0x06, 0x00,
  0x08, 0x00, 0x07, 0x00, 0x06, 0x00, 0x00, 0x00, 0x00, 0x00, 0x00, 0x01,
  0x01, 0x00, 0x00, 0x00, 0x0e, 0x00, 0x00, 0x00, 0x02, 0x00, 0x00, 0x00,
  0x0d, 0x00, 0x00, 0x00, 0x04, 0x00, 0x00, 0x00, 0x7a, 0xff, 0xff, 0xff,
  0x0c, 0x00, 0x00, 0x00, 0x10, 0x00, 0x00, 0x00, 0x03, 0x00, 0x00, 0x00,
  0x01, 0x00, 0x00, 0x00, 0x0d, 0x00, 0x00, 0x00, 0x02, 0x00, 0x00, 0x00,
  0x0c, 0x00, 0x00, 0x00, 0x03, 0x00, 0x00, 0x00, 0x00, 0x00, 0x0e, 0x00,
  0x18, 0x00, 0x14, 0x00, 0x10, 0x00, 0x0c, 0x00, 0x0b, 0x00, 0x04, 0x00,
  0x0e, 0x00, 0x00, 0x00, 0x20, 0x00, 0x00, 0x00, 0x00, 0x00, 0x00, 0x01,
  0x2c, 0x00, 0x00, 0x00, 0x30, 0x00, 0x00, 0x00, 0x02, 0x00, 0x00, 0x00,
  0x0c, 0x00, 0x14, 0x00, 0x13, 0x00, 0x0c, 0x00, 0x08, 0x00, 0x07, 0x00,
  0x0c, 0x00, 0x00, 0x00, 0x00, 0x00, 0x00, 0x01, 0x02, 0x00, 0x00, 0x00,
  0x02, 0x00, 0x00, 0x00, 0x00, 0x00, 0x00, 0x01, 0x01, 0x00, 0x00, 0x00,
  0x0c, 0x00, 0x00, 0x00, 0x03, 0x00, 0x00, 0x00, 0x0b, 0x00, 0x00, 0x00,
  0x06, 0x00, 0x00, 0x00, 0x07, 0x00, 0x00, 0x00, 0x00, 0x00, 0x0a, 0x00,
  0x10, 0x00, 0x0c, 0x00, 0x08, 0x00, 0x04, 0x00, 0x0a, 0x00, 0x00, 0x00,
  0x0c, 0x00, 0x00, 0x00, 0x10, 0x00, 0x00, 0x00, 0x01, 0x00, 0x00, 0x00,
  0x01, 0x00, 0x00, 0x00, 0x0b, 0x00, 0x00, 0x00, 0x02, 0x00, 0x00, 0x00,
  0x0a, 0x00, 0x00, 0x00, 0x02, 0x00, 0x00, 0x00, 0x00, 0x00, 0x0e, 0x00,
  0x14, 0x00, 0x00, 0x00, 0x10, 0x00, 0x0c, 0x00, 0x0b, 0x00, 0x04, 0x00,
  0x0e, 0x00, 0x00, 0x00, 0x10, 0x00, 0x00, 0x00, 0x00, 0x00, 0x00, 0x16,
  0x0c, 0x00, 0x00, 0x00, 0x10, 0x00, 0x00, 0x00, 0xa4, 0xf4, 0xff, 0xff,
  0x01, 0x00, 0x00, 0x00, 0x0a, 0x00, 0x00, 0x00, 0x02, 0x00, 0x00, 0x00,
  0x00, 0x00, 0x00, 0x00, 0x01, 0x00, 0x00, 0x00, 0x01, 0x00, 0x00, 0x00,
  0x10, 0x00, 0x00, 0x00, 0x01, 0x00, 0x00, 0x00, 0x00, 0x00, 0x00, 0x00,
  0x11, 0x00, 0x00, 0x00, 0x60, 0x0b, 0x00, 0x00, 0x14, 0x0b, 0x00, 0x00,
  0xdc, 0x0a, 0x00, 0x00, 0x9c, 0x0a, 0x00, 0x00, 0x68, 0x0a, 0x00, 0x00,
  0x2c, 0x0a, 0x00, 0x00, 0xd4, 0x06, 0x00, 0x00, 0x90, 0x03, 0x00, 0x00,
  0x3c, 0x03, 0x00, 0x00, 0xe8, 0x02, 0x00, 0x00, 0x8c, 0x02, 0x00, 0x00,
  0x28, 0x02, 0x00, 0x00, 0xa4, 0x01, 0x00, 0x00, 0x40, 0x01, 0x00, 0x00,
  0xe4, 0x00, 0x00, 0x00, 0x68, 0x00, 0x00, 0x00, 0x04, 0x00, 0x00, 0x00,
  0xf2, 0xf4, 0xff, 0xff, 0x14, 0x00, 0x00, 0x00, 0x34, 0x00, 0x00, 0x00,
  0x11, 0x00, 0x00, 0x00, 0x00, 0x00, 0x00, 0x09, 0x40, 0x00, 0x00, 0x00,
  0xe4, 0xf4, 0xff, 0xff, 0x08, 0x00, 0x00, 0x00, 0x14, 0x00, 0x00, 0x00,
  0x01, 0x00, 0x00, 0x00, 0xfe, 0xff, 0xff, 0xff, 0xff, 0xff, 0xff, 0xff,
  0x00, 0x00, 0x00, 0x00, 0x01, 0x00, 0x00, 0x00, 0x9f, 0x44, 0x06, 0x3f,
  0x11, 0x00, 0x00, 0x00, 0x50, 0x61, 0x72, 0x74, 0x69, 0x74, 0x69, 0x6f,
  0x6e, 0x65, 0x64, 0x43, 0x61, 0x6c, 0x6c, 0x3a, 0x30, 0x00, 0x00, 0x00,
  0x02, 0x00, 0x00, 0x00, 0x01, 0x00, 0x00, 0x00, 0x02, 0x00, 0x00, 0x00,
  0x52, 0xf5, 0xff, 0xff, 0x14, 0x00, 0x00, 0x00, 0x34, 0x00, 0x00, 0x00,
  0x10, 0x00, 0x00, 0x00, 0x00, 0x00, 0x00, 0x09, 0x58, 0x00, 0x00, 0x00,
  0x44, 0xf5, 0xff, 0xff, 0x08, 0x00, 0x00, 0x00, 0x14, 0x00, 0x00, 0x00,
  0x01, 0x00, 0x00, 0x00, 0x80, 0xff, 0xff, 0xff, 0xff, 0xff, 0xff, 0xff,
  0x00, 0x00, 0x00, 0x00, 0x01, 0x00, 0x00, 0x00, 0x71, 0x36, 0x0c, 0x3d,
  0x28, 0x00, 0x00, 0x00, 0x66, 0x6c, 0x61, 0x74, 0x74, 0x65, 0x6e, 0x2f,
  0x52, 0x65, 0x73, 0x68, 0x61, 0x70, 0x65, 0x3b, 0x6f, 0x6e, 0x6e, 0x78,
  0x5f, 0x74, 0x66, 0x5f, 0x70, 0x72, 0x65, 0x66, 0x69, 0x78, 0x5f, 0x52,
  0x65, 0x73, 0x68, 0x61, 0x70, 0x65, 0x5f, 0x33, 0x00, 0x00, 0x00, 0x00,
  0x02, 0x00, 0x00, 0x00, 0x01, 0x00, 0x00, 0x00, 0x40, 0x00, 0x00, 0x00,
  0xca, 0xf5, 0xff, 0xff, 0x14, 0x00, 0x00, 0x00, 0x30, 0x00, 0x00, 0x00,
  0x0f, 0x00, 0x00, 0x00, 0x00, 0x00, 0x00, 0x09, 0x30, 0x00, 0x00, 0x00,
  0xbc, 0xf5, 0xff, 0xff, 0x08, 0x00, 0x00, 0x00, 0x10, 0x00, 0x00, 0x00,
  0x01, 0x00, 0x00, 0x00, 0x80, 0xff, 0xff, 0xff, 0xff, 0xff, 0xff, 0xff,
  0x01, 0x00, 0x00, 0x00, 0x71, 0x36, 0x0c, 0x3d, 0x04, 0x00, 0x00, 0x00,
  0x4d, 0x65, 0x61, 0x6e, 0x00, 0x00, 0x00, 0x00, 0x04, 0x00, 0x00, 0x00,
  0x01, 0x00, 0x00, 0x00, 0x40, 0x00, 0x00, 0x00, 0x01, 0x00, 0x00, 0x00,
  0x01, 0x00, 0x00, 0x00, 0x22, 0xf6, 0xff, 0xff, 0x14, 0x00, 0x00, 0x00,
  0x34, 0x00, 0x00, 0x00, 0x0e, 0x00, 0x00, 0x00, 0x00, 0x00, 0x00, 0x09,
  0x38, 0x00, 0x00, 0x00, 0x14, 0xf6, 0xff, 0xff, 0x08, 0x00, 0x00, 0x00,
  0x14, 0x00, 0x00, 0x00, 0x01, 0x00, 0x00, 0x00, 0x80, 0xff, 0xff, 0xff,
  0xff, 0xff, 0xff, 0xff, 0x00, 0x00, 0x00, 0x00, 0x01, 0x00, 0x00, 0x00,
  0x39, 0xe9, 0x4f, 0x3e, 0x0b, 0x00, 0x00, 0x00, 0x74, 0x72, 0x61, 0x6e,
  0x73, 0x70, 0x6f, 0x73, 0x65, 0x5f, 0x32, 0x00, 0x04, 0x00, 0x00, 0x00,
  0x01, 0x00, 0x00, 0x00, 0x40, 0x00, 0x00, 0x00, 0x05, 0x00, 0x00, 0x00,
  0x0b, 0x00, 0x00, 0x00, 0x82, 0xf6, 0xff, 0xff, 0x14, 0x00, 0x00, 0x00,
  0x30, 0x00, 0x00, 0x00, 0x0d, 0x00, 0x00, 0x00, 0x00, 0x00, 0x00, 0x09,
  0x58, 0x00, 0x00, 0x00, 0x74, 0xf6, 0xff, 0xff, 0x08, 0x00, 0x00, 0x00,
  0x10, 0x00, 0x00, 0x00, 0x01, 0x00, 0x00, 0x00, 0x80, 0xff, 0xff, 0xff,
  0xff, 0xff, 0xff, 0xff, 0x01, 0x00, 0x00, 0x00, 0x39, 0xe9, 0x4f, 0x3e,
  0x2d, 0x00, 0x00, 0x00, 0x6f, 0x6e, 0x6e, 0x78, 0x5f, 0x74, 0x66, 0x5f,
  0x70, 0x72, 0x65, 0x66, 0x69, 0x78, 0x5f, 0x52, 0x65, 0x6c, 0x75, 0x5f,
  0x31, 0x3b, 0x41, 0x64, 0x64, 0x3b, 0x63, 0x6f, 0x6e, 0x76, 0x6f, 0x6c,
  0x75, 0x74, 0x69, 0x6f, 0x6e, 0x3b, 0x43, 0x6f, 0x6e, 0x73, 0x74, 0x5f,
  0x31, 0x00, 0x00, 0x00, 0x04, 0x00, 0x00, 0x00, 0x01, 0x00, 0x00, 0x00,
  0x05, 0x00, 0x00, 0x00, 0x0b, 0x00, 0x00, 0x00, 0x40, 0x00, 0x00, 0x00,
  0x02, 0xf7, 0xff, 0xff, 0x14, 0x00, 0x00, 0x00, 0x30, 0x00, 0x00, 0x00,
  0x0c, 0x00, 0x00, 0x00, 0x00, 0x00, 0x00, 0x09, 0x38, 0x00, 0x00, 0x00,
  0xf4, 0xf6, 0xff, 0xff, 0x08, 0x00, 0x00, 0x00, 0x10, 0x00, 0x00, 0x00,
  0x01, 0x00, 0x00, 0x00, 0x1c, 0x00, 0x00, 0x00, 0x00, 0x00, 0x00, 0x00,
  0x01, 0x00, 0x00, 0x00, 0xe4, 0xe3, 0xa3, 0x40, 0x0c, 0x00, 0x00, 0x00,
  0x74, 0x72, 0x61, 0x6e, 0x73, 0x70, 0x6f, 0x73, 0x65, 0x5f, 0x31, 0x31,
  0x00, 0x00, 0x00, 0x00, 0x04, 0x00, 0x00, 0x00, 0x01, 0x00, 0x00, 0x00,
  0x0c, 0x00, 0x00, 0x00, 0x18, 0x00, 0x00, 0x00, 0x01, 0x00, 0x00, 0x00,
  0x62, 0xf7, 0xff, 0xff, 0x14, 0x00, 0x00, 0x00, 0x34, 0x00, 0x00, 0x00,
  0x0b, 0x00, 0x00, 0x00, 0x00, 0x00, 0x00, 0x09, 0x30, 0x00, 0x00, 0x00,
  0x54, 0xf7, 0xff, 0xff, 0x08, 0x00, 0x00, 0x00, 0x14, 0x00, 0x00, 0x00,
  0x01, 0x00, 0x00, 0x00, 0x1c, 0x00, 0x00, 0x00, 0x00, 0x00, 0x00, 0x00,
  0x00, 0x00, 0x00, 0x00, 0x01, 0x00, 0x00, 0x00, 0xe4, 0xe3, 0xa3, 0x40,
  0x03, 0x00, 0x00, 0x00, 0x50, 0x61, 0x64, 0x00, 0x04, 0x00, 0x00, 0x00,
  0x01, 0x00, 0x00, 0x00, 0x01, 0x00, 0x00, 0x00, 0x0c, 0x00, 0x00, 0x00,
  0x18, 0x00, 0x00, 0x00, 0xba, 0xf7, 0xff, 0xff, 0x14, 0x00, 0x00, 0x00,
  0x34, 0x00, 0x00, 0x00, 0x0a, 0x00, 0x00, 0x00, 0x00, 0x00, 0x00, 0x02,
  0x34, 0x00, 0x00, 0x00, 0xac, 0xf7, 0xff, 0xff, 0x08, 0x00, 0x00, 0x00,
  0x14, 0x00, 0x00, 0x00, 0x01, 0x00, 0x00, 0x00, 0x00, 0x00, 0x00, 0x00,
  0x00, 0x00, 0x00, 0x00, 0x00, 0x00, 0x00, 0x00, 0x01, 0x00, 0x00, 0x00,
  0x86, 0x96, 0x89, 0x39, 0x07, 0x00, 0x00, 0x00, 0x43, 0x6f, 0x6e, 0x73,
  0x74, 0x5f, 0x34, 0x00, 0x01, 0x00, 0x00, 0x00, 0x02, 0x00, 0x00, 0x00,
  0x0a, 0xf8, 0xff, 0xff, 0x14, 0x00, 0x00, 0x00, 0x30, 0x00, 0x00, 0x00,
  0x09, 0x00, 0x00, 0x00, 0x00, 0x00, 0x00, 0x09, 0x30, 0x00, 0x00, 0x00,
  0xfc, 0xf7, 0xff, 0xff, 0x08, 0x00, 0x00, 0x00, 0x10, 0x00, 0x00, 0x00,
  0x01, 0x00, 0x00, 0x00, 0x00, 0x00, 0x00, 0x00, 0x00, 0x00, 0x00, 0x00,
  0x01, 0x00, 0x00, 0x00, 0x37, 0x35, 0xfb, 0x3b, 0x06, 0x00, 0x00, 0x00,
  0x4d, 0x61, 0x74, 0x4d, 0x75, 0x6c, 0x00, 0x00, 0x02, 0x00, 0x00, 0x00,
  0x02, 0x00, 0x00, 0x00, 0x40, 0x00, 0x00, 0x00, 0x5a, 0xf8, 0xff, 0xff,
  0x14, 0x00, 0x00, 0x00, 0x24, 0x03, 0x00, 0x00, 0x08, 0x00, 0x00, 0x00,
  0x00, 0x00, 0x00, 0x02, 0x24, 0x03, 0x00, 0x00, 0x4c, 0xf8, 0xff, 0xff,
  0x08, 0x00, 0x00, 0x00, 0x08, 0x02, 0x00, 0x00, 0x40, 0x00, 0x00, 0x00,
  0x00, 0x00, 0x00, 0x00, 0x00, 0x00, 0x00, 0x00, 0x00, 0x00, 0x00, 0x00,
  0x00, 0x00, 0x00, 0x00, 0x00, 0x00, 0x00, 0x00, 0x00, 0x00, 0x00, 0x00,
  0x00, 0x00, 0x00, 0x00, 0x00, 0x00, 0x00, 0x00, 0x00, 0x00, 0x00, 0x00,
  0x00, 0x00, 0x00, 0x00, 0x00, 0x00, 0x00, 0x00, 0x00, 0x00, 0x00, 0x00,
  0x00, 0x00, 0x00, 0x00, 0x00, 0x00, 0x00, 0x00, 0x00, 0x00, 0x00, 0x00,
  0x00, 0x00, 0x00, 0x00, 0x00, 0x00, 0x00, 0x00, 0x00, 0x00, 0x00, 0x00,
  0x00, 0x00, 0x00, 0x00, 0x00, 0x00, 0x00, 0x00, 0x00, 0x00, 0x00, 0x00,
  0x00, 0x00, 0x00, 0x00, 0x00, 0x00, 0x00, 0x00, 0x00, 0x00, 0x00, 0x00,
  0x00, 0x00, 0x00, 0x00, 0x00, 0x00, 0x00, 0x00, 0x00, 0x00, 0x00, 0x00,
  0x00, 0x00, 0x00, 0x00, 0x00, 0x00, 0x00, 0x00, 0x00, 0x00, 0x00, 0x00,
  0x00, 0x00, 0x00, 0x00, 0x00, 0x00, 0x00, 0x00, 0x00, 0x00, 0x00, 0x00,
  0x00, 0x00, 0x00, 0x00, 0x00, 0x00, 0x00, 0x00, 0x00, 0x00, 0x00, 0x00,
  0x00, 0x00, 0x00, 0x00, 0x00, 0x00, 0x00, 0x00, 0x00, 0x00, 0x00, 0x00,
  0x00, 0x00, 0x00, 0x00, 0x00, 0x00, 0x00, 0x00, 0x00, 0x00, 0x00, 0x00,
  0x00, 0x00, 0x00, 0x00, 0x00, 0x00, 0x00, 0x00, 0x00, 0x00, 0x00, 0x00,
  0x00, 0x00, 0x00, 0x00, 0x00, 0x00, 0x00, 0x00, 0x00, 0x00, 0x00, 0x00,
  0x00, 0x00, 0x00, 0x00, 0x00, 0x00, 0x00, 0x00, 0x00, 0x00, 0x00, 0x00,
  0x00, 0x00, 0x00, 0x00, 0x00, 0x00, 0x00, 0x00, 0x00, 0x00, 0x00, 0x00,
  0x00, 0x00, 0x00, 0x00, 0x00, 0x00, 0x00, 0x00, 0x00, 0x00, 0x00, 0x00,
  0x00, 0x00, 0x00, 0x00, 0x00, 0x00, 0x00, 0x00, 0x00, 0x00, 0x00, 0x00,
  0x00, 0x00, 0x00, 0x00, 0x00, 0x00, 0x00, 0x00, 0x00, 0x00, 0x00, 0x00,
  0x00, 0x00, 0x00, 0x00, 0x00, 0x00, 0x00, 0x00, 0x00, 0x00, 0x00, 0x00,
  0x00, 0x00, 0x00, 0x00, 0x00, 0x00, 0x00, 0x00, 0x00, 0x00, 0x00, 0x00,
  0x00, 0x00, 0x00, 0x00, 0x00, 0x00, 0x00, 0x00, 0x00, 0x00, 0x00, 0x00,
  0x00, 0x00, 0x00, 0x00, 0x00, 0x00, 0x00, 0x00, 0x00, 0x00, 0x00, 0x00,
  0x00, 0x00, 0x00, 0x00, 0x00, 0x00, 0x00, 0x00, 0x00, 0x00, 0x00, 0x00,
  0x00, 0x00, 0x00, 0x00, 0x00, 0x00, 0x00, 0x00, 0x00, 0x00, 0x00, 0x00,
  0x00, 0x00, 0x00, 0x00, 0x00, 0x00, 0x00, 0x00, 0x00, 0x00, 0x00, 0x00,
  0x00, 0x00, 0x00, 0x00, 0x00, 0x00, 0x00, 0x00, 0x00, 0x00, 0x00, 0x00,
  0x00, 0x00, 0x00, 0x00, 0x00, 0x00, 0x00, 0x00, 0x00, 0x00, 0x00, 0x00,
  0x00, 0x00, 0x00, 0x00, 0x00, 0x00, 0x00, 0x00, 0x00, 0x00, 0x00, 0x00,
  0x00, 0x00, 0x00, 0x00, 0x00, 0x00, 0x00, 0x00, 0x00, 0x00, 0x00, 0x00,
  0x00, 0x00, 0x00, 0x00, 0x00, 0x00, 0x00, 0x00, 0x00, 0x00, 0x00, 0x00,
  0x00, 0x00, 0x00, 0x00, 0x00, 0x00, 0x00, 0x00, 0x00, 0x00, 0x00, 0x00,
  0x00, 0x00, 0x00, 0x00, 0x00, 0x00, 0x00, 0x00, 0x00, 0x00, 0x00, 0x00,
  0x00, 0x00, 0x00, 0x00, 0x00, 0x00, 0x00, 0x00, 0x00, 0x00, 0x00, 0x00,
  0x00, 0x00, 0x00, 0x00, 0x00, 0x00, 0x00, 0x00, 0x00, 0x00, 0x00, 0x00,
  0x00, 0x00, 0x00, 0x00, 0x00, 0x00, 0x00, 0x00, 0x00, 0x00, 0x00, 0x00,
  0x00, 0x00, 0x00, 0x00, 0x00, 0x00, 0x00, 0x00, 0x00, 0x00, 0x00, 0x00,
  0x00, 0x00, 0x00, 0x00, 0x00, 0x00, 0x00, 0x00, 0x00, 0x00, 0x00, 0x00,
  0x00, 0x00, 0x00, 0x00, 0x00, 0x00, 0x00, 0x00, 0x00, 0x00, 0x00, 0x00,
  0x00, 0x00, 0x00, 0x00, 0x00, 0x00, 0x00, 0x00, 0x00, 0x00, 0x00, 0x00,
  0x00, 0x00, 0x00, 0x00, 0x00, 0x00, 0x00, 0x00, 0x40, 0x00, 0x00, 0x00,
  0xde, 0xc5, 0xdc, 0x39, 0x55, 0xd1, 0xc7, 0x39, 0xb1, 0x8b, 0xb0, 0x3b,
  0xa7, 0x51, 0x52, 0x3a, 0xc5, 0xbc, 0xd8, 0x39, 0x34, 0x42, 0x90, 0x3a,
  0xb9, 0x89, 0x04, 0x3a, 0x84, 0x08, 0xe6, 0x39, 0x3e, 0x70, 0x22, 0x3a,
  0xd4, 0x5c, 0x9d, 0x3b, 0x8b, 0x5c, 0x49, 0x3a, 0xf1, 0x06, 0x23, 0x3a,
  0x23, 0xcb, 0x28, 0x3a, 0x71, 0x7f, 0x34, 0x3a, 0x3a, 0x24, 0x49, 0x3b,
  0xe8, 0x0a, 0x93, 0x3b, 0xeb, 0xb2, 0x66, 0x3a, 0x83, 0xc0, 0x1f, 0x3a,
  0x4c, 0x73, 0x2d, 0x3a, 0xbb, 0x09, 0x4c, 0x3a, 0x61, 0x0f, 0x60, 0x3a,
  0x98, 0xbe, 0x75, 0x3a, 0x75, 0xb6, 0x07, 0x3a, 0x7d, 0x59, 0x39, 0x3a,
  0xf1, 0x9b, 0x06, 0x3a, 0x7b, 0xd3, 0x14, 0x3a, 0xce, 0x54, 0x72, 0x3a,
  0xe5, 0xd3, 0x13, 0x3b, 0x3a, 0xe5, 0x17, 0x3b, 0x9a, 0x74, 0x0f, 0x3a,
  0x10, 0xc9, 0x39, 0x3b, 0x24, 0xab, 0xb1, 0x3b, 0x72, 0xfb, 0x18, 0x3a,
  0x0a, 0x45, 0x77, 0x3a, 0xb5, 0x93, 0xf1, 0x39, 0xde, 0x29, 0x20, 0x3a,
  0x3a, 0xdd, 0x93, 0x3a, 0x79, 0x25, 0xfa, 0x39, 0xb1, 0x4a, 0x20, 0x3a,
  0x36, 0xe8, 0x28, 0x3a, 0x6b, 0xe9, 0x46, 0x3a, 0x8e, 0xe4, 0x22, 0x3a,
  0xe3, 0x88, 0x00, 0x3a, 0xc4, 0x5b, 0x60, 0x3a, 0x5e, 0x99, 0x21, 0x3a,
  0x8e, 0xd7, 0x0c, 0x3a, 0x33, 0xb8, 0x9b, 0x3a, 0xc6, 0x74, 0x34, 0x3b,
  0x3e, 0xb9, 0xf4, 0x39, 0x4e, 0xa6, 0x35, 0x3a, 0x05, 0x84, 0x34, 0x3a,
  0x95, 0x86, 0x46, 0x3a, 0xc6, 0x1b, 0x02, 0x3a, 0x23, 0x50, 0x18, 0x3a,
  0x1c, 0x66, 0x01, 0x3a, 0xba, 0x2f, 0x48, 0x3a, 0xf0, 0x9c, 0x68, 0x3a,
  0x6d, 0x6b, 0x8f, 0x3a, 0x03, 0x67, 0x8f, 0x3b, 0x3e, 0x58, 0x8f, 0x3a,
  0xc0, 0x61, 0x4a, 0x3a, 0x36, 0x00, 0x7e, 0x3a, 0x4d, 0x7d, 0xac, 0x39,
  0xa4, 0xb5, 0xe9, 0x3a, 0x07, 0x00, 0x00, 0x00, 0x43, 0x6f, 0x6e, 0x73,
  0x74, 0x5f, 0x31, 0x00, 0x01, 0x00, 0x00, 0x00, 0x40, 0x00, 0x00, 0x00,
  0x9a, 0xfb, 0xff, 0xff, 0x14, 0x00, 0x00, 0x00, 0x28, 0x03, 0x00, 0x00,
  0x07, 0x00, 0x00, 0x00, 0x00, 0x00, 0x00, 0x09, 0x2c, 0x03, 0x00, 0x00,
  0x8c, 0xfb, 0xff, 0xff, 0x08, 0x00, 0x00, 0x00, 0x0c, 0x02, 0x00, 0x00,
  0x40, 0x00, 0x00, 0x00, 0x00, 0x00, 0x00, 0x00, 0x00, 0x00, 0x00, 0x00,
  0x00, 0x00, 0x00, 0x00, 0x00, 0x00, 0x00, 0x00, 0x00, 0x00, 0x00, 0x00,
  0x00, 0x00, 0x00, 0x00, 0x00, 0x00, 0x00, 0x00, 0x00, 0x00, 0x00, 0x00,
  0x00, 0x00, 0x00, 0x00, 0x00, 0x00, 0x00, 0x00, 0x00, 0x00, 0x00, 0x00,
  0x00, 0x00, 0x00, 0x00, 0x00, 0x00, 0x00, 0x00, 0x00, 0x00, 0x00, 0x00,
  0x00, 0x00, 0x00, 0x00, 0x00, 0x00, 0x00, 0x00, 0x00, 0x00, 0x00, 0x00,
  0x00, 0x00, 0x00, 0x00, 0x00, 0x00, 0x00, 0x00, 0x00, 0x00, 0x00, 0x00,
  0x00, 0x00, 0x00, 0x00, 0x00, 0x00, 0x00, 0x00, 0x00, 0x00, 0x00, 0x00,
  0x00, 0x00, 0x00, 0x00, 0x00, 0x00, 0x00, 0x00, 0x00, 0x00, 0x00, 0x00,
  0x00, 0x00, 0x00, 0x00, 0x00, 0x00, 0x00, 0x00, 0x00, 0x00, 0x00, 0x00,
  0x00, 0x00, 0x00, 0x00, 0x00, 0x00, 0x00, 0x00, 0x00, 0x00, 0x00, 0x00,
  0x00, 0x00, 0x00, 0x00, 0x00, 0x00, 0x00, 0x00, 0x00, 0x00, 0x00, 0x00,
  0x00, 0x00, 0x00, 0x00, 0x00, 0x00, 0x00, 0x00, 0x00, 0x00, 0x00, 0x00,
  0x00, 0x00, 0x00, 0x00, 0x00, 0x00, 0x00, 0x00, 0x00, 0x00, 0x00, 0x00,
  0x00, 0x00, 0x00, 0x00, 0x00, 0x00, 0x00, 0x00, 0x00, 0x00, 0x00, 0x00,
  0x00, 0x00, 0x00, 0x00, 0x00, 0x00, 0x00, 0x00, 0x00, 0x00, 0x00, 0x00,
  0x00, 0x00, 0x00, 0x00, 0x00, 0x00, 0x00, 0x00, 0x00, 0x00, 0x00, 0x00,
  0x00, 0x00, 0x00, 0x00, 0x00, 0x00, 0x00, 0x00, 0x00, 0x00, 0x00, 0x00,
  0x00, 0x00, 0x00, 0x00, 0x00, 0x00, 0x00, 0x00, 0x00, 0x00, 0x00, 0x00,
  0x00, 0x00, 0x00, 0x00, 0x00, 0x00, 0x00, 0x00, 0x00, 0x00, 0x00, 0x00,
  0x00, 0x00, 0x00, 0x00, 0x00, 0x00, 0x00, 0x00, 0x00, 0x00, 0x00, 0x00,
  0x00, 0x00, 0x00, 0x00, 0x00, 0x00, 0x00, 0x00, 0x00, 0x00, 0x00, 0x00,
  0x00, 0x00, 0x00, 0x00, 0x00, 0x00, 0x00, 0x00, 0x00, 0x00, 0x00, 0x00,
  0x00, 0x00, 0x00, 0x00, 0x00, 0x00, 0x00, 0x00, 0x00, 0x00, 0x00, 0x00,
  0x00, 0x00, 0x00, 0x00, 0x00, 0x00, 0x00, 0x00, 0x00, 0x00, 0x00, 0x00,
  0x00, 0x00, 0x00, 0x00, 0x00, 0x00, 0x00, 0x00, 0x00, 0x00, 0x00, 0x00,
  0x00, 0x00, 0x00, 0x00, 0x00, 0x00, 0x00, 0x00, 0x00, 0x00, 0x00, 0x00,
  0x00, 0x00, 0x00, 0x00, 0x00, 0x00, 0x00, 0x00, 0x00, 0x00, 0x00, 0x00,
  0x00, 0x00, 0x00, 0x00, 0x00, 0x00, 0x00, 0x00, 0x00, 0x00, 0x00, 0x00,
  0x00, 0x00, 0x00, 0x00, 0x00, 0x00, 0x00, 0x00, 0x00, 0x00, 0x00, 0x00,
  0x00, 0x00, 0x00, 0x00, 0x00, 0x00, 0x00, 0x00, 0x00, 0x00, 0x00, 0x00,
  0x00, 0x00, 0x00, 0x00, 0x00, 0x00, 0x00, 0x00, 0x00, 0x00, 0x00, 0x00,
  0x00, 0x00, 0x00, 0x00, 0x00, 0x00, 0x00, 0x00, 0x00, 0x00, 0x00, 0x00,
  0x00, 0x00, 0x00, 0x00, 0x00, 0x00, 0x00, 0x00, 0x00, 0x00, 0x00, 0x00,
  0x00, 0x00, 0x00, 0x00, 0x00, 0x00, 0x00, 0x00, 0x00, 0x00, 0x00, 0x00,
  0x00, 0x00, 0x00, 0x00, 0x00, 0x00, 0x00, 0x00, 0x00, 0x00, 0x00, 0x00,
  0x00, 0x00, 0x00, 0x00, 0x00, 0x00, 0x00, 0x00, 0x00, 0x00, 0x00, 0x00,
  0x00, 0x00, 0x00, 0x00, 0x00, 0x00, 0x00, 0x00, 0x00, 0x00, 0x00, 0x00,
  0x00, 0x00, 0x00, 0x00, 0x00, 0x00, 0x00, 0x00, 0x00, 0x00, 0x00, 0x00,
  0x00, 0x00, 0x00, 0x00, 0x00, 0x00, 0x00, 0x00, 0x00, 0x00, 0x00, 0x00,
  0x00, 0x00, 0x00, 0x00, 0x00, 0x00, 0x00, 0x00, 0x00, 0x00, 0x00, 0x00,
  0x00, 0x00, 0x00, 0x00, 0x00, 0x00, 0x00, 0x00, 0x00, 0x00, 0x00, 0x00,
  0x00, 0x00, 0x00, 0x00, 0x00, 0x00, 0x00, 0x00, 0x00, 0x00, 0x00, 0x00,
  0x00, 0x00, 0x00, 0x00, 0x40, 0x00, 0x00, 0x00, 0x0f, 0x6d, 0xac, 0x38,
  0x4d, 0x0f, 0x9c, 0x38, 0x52, 0xe2, 0x89, 0x3a, 0xe8, 0x42, 0x24, 0x39,
  0x33, 0x46, 0xa9, 0x38, 0xc5, 0x55, 0x61, 0x39, 0xf4, 0x06, 0xcf, 0x38,
  0x90, 0xa8, 0xb3, 0x38, 0x7a, 0xbb, 0xfd, 0x38, 0xc3, 0xcd, 0x75, 0x3a,
  0xf7, 0x43, 0x1d, 0x39, 0xdf, 0xa6, 0xfe, 0x38, 0x5c, 0xd4, 0x03, 0x39,
  0x82, 0xf8, 0x0c, 0x39, 0xfb, 0x17, 0x1d, 0x3a, 0x07, 0xaf, 0x65, 0x3a,
  0xa6, 0x2d, 0x34, 0x39, 0x3a, 0x89, 0xf9, 0x38, 0x73, 0x77, 0x07, 0x39,
  0x1a, 0x5b, 0x1f, 0x39, 0x4a, 0xfe, 0x2e, 0x39, 0xd9, 0xed, 0x3f, 0x39,
  0x77, 0xfc, 0xd3, 0x38, 0x8f, 0xc2, 0x10, 0x39, 0x2b, 0x43, 0xd2, 0x38,
  0x34, 0x78, 0xe8, 0x38, 0x69, 0x43, 0x3d, 0x39, 0xfa, 0xe8, 0xe6, 0x39,
  0x8e, 0x43, 0xed, 0x39, 0x9d, 0x14, 0xe0, 0x38, 0xb3, 0x19, 0x11, 0x3a,
  0xd2, 0xc2, 0x8a, 0x3a, 0x24, 0xf6, 0xee, 0x38, 0xca, 0x1e, 0x41, 0x39,
  0x99, 0xac, 0xbc, 0x38, 0xcb, 0x2d, 0xfa, 0x38, 0x8d, 0xf7, 0x66, 0x39,
  0xf4, 0x5d, 0xc3, 0x38, 0x11, 0x61, 0xfa, 0x38, 0x11, 0xeb, 0x03, 0x39,
  0x2c, 0x5a, 0x1b, 0x39, 0x29, 0x71, 0xfe, 0x38, 0x23, 0xc6, 0xc8, 0x38,
  0xf3, 0x39, 0x2f, 0x39, 0xd6, 0x6b, 0xfc, 0x38, 0x8d, 0xff, 0xdb, 0x38,
  0xbb, 0x3c, 0x73, 0x39, 0x2d, 0xf0, 0x0c, 0x3a, 0xbb, 0x21, 0xbf, 0x38,
  0xcc, 0xde, 0x0d, 0x39, 0x15, 0xfc, 0x0c, 0x39, 0xfb, 0x0c, 0x1b, 0x39,
  0x75, 0x3b, 0xcb, 0x38, 0x8d, 0xea, 0xed, 0x38, 0xb1, 0x1f, 0xca, 0x38,
  0x06, 0x59, 0x1c, 0x39, 0x5c, 0xac, 0x35, 0x39, 0x48, 0x06, 0x60, 0x39,
  0x63, 0xff, 0x5f, 0x3a, 0x51, 0xe8, 0x5f, 0x39, 0xf8, 0x0f, 0x1e, 0x39,
  0x9b, 0x60, 0x46, 0x39, 0x53, 0xb7, 0x86, 0x38, 0x97, 0x87, 0xb6, 0x39,
  0x0b, 0x00, 0x00, 0x00, 0x63, 0x6f, 0x6e, 0x76, 0x6f, 0x6c, 0x75, 0x74,
  0x69, 0x6f, 0x6e, 0x00, 0x04, 0x00, 0x00, 0x00, 0x40, 0x00, 0x00, 0x00,
  0x03, 0x00, 0x00, 0x00, 0x03, 0x00, 0x00, 0x00, 0x01, 0x00, 0x00, 0x00,
  0xee, 0xfe, 0xff, 0xff, 0x14, 0x00, 0x00, 0x00, 0x14, 0x00, 0x00, 0x00,
  0x06, 0x00, 0x00, 0x00, 0x00, 0x00, 0x00, 0x02, 0x1c, 0x00, 0x00, 0x00,
  0x28, 0xff, 0xff, 0xff, 0x0d, 0x00, 0x00, 0x00, 0x66, 0x6c, 0x61, 0x74,
  0x74, 0x65, 0x6e, 0x2f, 0x43, 0x6f, 0x6e, 0x73, 0x74, 0x00, 0x00, 0x00,
  0x01, 0x00, 0x00, 0x00, 0x02, 0x00, 0x00, 0x00, 0x26, 0xff, 0xff, 0xff,
  0x14, 0x00, 0x00, 0x00, 0x14, 0x00, 0x00, 0x00, 0x05, 0x00, 0x00, 0x00,
  0x00, 0x00, 0x00, 0x02, 0x14, 0x00, 0x00, 0x00, 0x60, 0xff, 0xff, 0xff,
  0x07, 0x00, 0x00, 0x00, 0x73, 0x70, 0x6c, 0x69, 0x74, 0x5f, 0x31, 0x00,
  0x01, 0x00, 0x00, 0x00, 0x02, 0x00, 0x00, 0x00, 0x56, 0xff, 0xff, 0xff,
  0x14, 0x00, 0x00, 0x00, 0x14, 0x00, 0x00, 0x00, 0x04, 0x00, 0x00, 0x00,
  0x00, 0x00, 0x00, 0x02, 0x20, 0x00, 0x00, 0x00, 0x90, 0xff, 0xff, 0xff,
  0x10, 0x00, 0x00, 0x00, 0x74, 0x72, 0x61, 0x6e, 0x73, 0x70, 0x6f, 0x73,
  0x65, 0x5f, 0x32, 0x2f, 0x70, 0x65, 0x72, 0x6d, 0x00, 0x00, 0x00, 0x00,
  0x01, 0x00, 0x00, 0x00, 0x04, 0x00, 0x00, 0x00, 0x92, 0xff, 0xff, 0xff,
  0x14, 0x00, 0x00, 0x00, 0x14, 0x00, 0x00, 0x00, 0x03, 0x00, 0x00, 0x00,
  0x00, 0x00, 0x00, 0x02, 0x18, 0x00, 0x00, 0x00, 0xcc, 0xff, 0xff, 0xff,
  0x0b, 0x00, 0x00, 0x00, 0x74, 0x72, 0x61, 0x6e, 0x73, 0x70, 0x6f, 0x73,
  0x65, 0x5f, 0x31, 0x00, 0x01, 0x00, 0x00, 0x00, 0x04, 0x00, 0x00, 0x00,
  0xc6, 0xff, 0xff, 0xff, 0x18, 0x00, 0x00, 0x00, 0x18, 0x00, 0x00, 0x00,
  0x02, 0x00, 0x00, 0x00, 0x00, 0x00, 0x00, 0x02, 0x18, 0x00, 0x00, 0x00,
  0x04, 0x00, 0x04, 0x00, 0x04, 0x00, 0x00, 0x00, 0x05, 0x00, 0x00, 0x00,
  0x43, 0x6f, 0x6e, 0x73, 0x74, 0x00, 0x00, 0x00, 0x02, 0x00, 0x00, 0x00,
  0x04, 0x00, 0x00, 0x00, 0x02, 0x00, 0x00, 0x00, 0x00, 0x00, 0x0e, 0x00,
  0x18, 0x00, 0x14, 0x00, 0x13, 0x00, 0x0c, 0x00, 0x08, 0x00, 0x04, 0x00,
  0x0e, 0x00, 0x00, 0x00, 0x20, 0x00, 0x00, 0x00, 0x3c, 0x00, 0x00, 0x00,
  0x01, 0x00, 0x00, 0x00, 0x00, 0x00, 0x00, 0x09, 0x4c, 0x00, 0x00, 0x00,
  0x0c, 0x00, 0x0c, 0x00, 0x00, 0x00, 0x00, 0x00, 0x08, 0x00, 0x04, 0x00,
  0x0c, 0x00, 0x00, 0x00, 0x08, 0x00, 0x00, 0x00, 0x10, 0x00, 0x00, 0x00,
  0x01, 0x00, 0x00, 0x00, 0x1c, 0x00, 0x00, 0x00, 0x00, 0x00, 0x00, 0x00,
  0x01, 0x00, 0x00, 0x00, 0xe4, 0xe3, 0xa3, 0x40, 0x17, 0x00, 0x00, 0x00,
  0x73, 0x65, 0x72, 0x76, 0x69, 0x6e, 0x67, 0x5f, 0x64, 0x65, 0x66, 0x61,
  0x75, 0x6c, 0x74, 0x5f, 0x69, 0x6e, 0x70, 0x75, 0x74, 0x3a, 0x30, 0x00,
  0x04, 0x00, 0x00, 0x00, 0x01, 0x00, 0x00, 0x00, 0x01, 0x00, 0x00, 0x00,
  0x0a, 0x00, 0x00, 0x00, 0x16, 0x00, 0x00, 0x00, 0x06, 0x00, 0x00, 0x00,
  0x7c, 0x00, 0x00, 0x00, 0x60, 0x00, 0x00, 0x00, 0x40, 0x00, 0x00, 0x00,
  0x2c, 0x00, 0x00, 0x00, 0x18, 0x00, 0x00, 0x00, 0x04, 0x00, 0x00, 0x00,
  0xa8, 0xff, 0xff, 0xff, 0x09, 0x00, 0x00, 0x00, 0x04, 0x00, 0x00, 0x00,
  0x00, 0x00, 0x00, 0x09, 0xb8, 0xff, 0xff, 0xff, 0x28, 0x00, 0x00, 0x00,
  0x02, 0x00, 0x00, 0x00, 0x00, 0x00, 0x00, 0x28, 0xc8, 0xff, 0xff, 0xff,
  0x27, 0x00, 0x00, 0x00, 0x02, 0x00, 0x00, 0x00, 0x00, 0x00, 0x00, 0x27,
  0xd8, 0xff, 0xff, 0xff, 0x03, 0x00, 0x00, 0x00, 0x03, 0x00, 0x00, 0x00,
  0x00, 0x00, 0x00, 0x03, 0x0c, 0x00, 0x0c, 0x00, 0x0b, 0x00, 0x00, 0x00,
  0x00, 0x00, 0x04, 0x00, 0x0c, 0x00, 0x00, 0x00, 0x16, 0x00, 0x00, 0x00,
  0x00, 0x00, 0x00, 0x16, 0x0c, 0x00, 0x10, 0x00, 0x0f, 0x00, 0x00, 0x00,
  0x08, 0x00, 0x04, 0x00, 0x0c, 0x00, 0x00, 0x00, 0x22, 0x00, 0x00, 0x00,
  0x02, 0x00, 0x00, 0x00, 0x00, 0x00, 0x00, 0x22
};
const unsigned int focal_int8_pr_len = 5216;
