unsigned char results_seizure_binary_onelayer_checkpoint_poi_8_fold_5_mobilenet_s_onelayer_model_quant_dr_tflite[] = {
  0x1c, 0x00, 0x00, 0x00, 0x54, 0x46, 0x4c, 0x33, 0x14, 0x00, 0x20, 0x00,
  0x1c, 0x00, 0x18, 0x00, 0x14, 0x00, 0x10, 0x00, 0x0c, 0x00, 0x00, 0x00,
  0x08, 0x00, 0x04, 0x00, 0x14, 0x00, 0x00, 0x00, 0x1c, 0x00, 0x00, 0x00,
  0x80, 0x00, 0x00, 0x00, 0xb0, 0x00, 0x00, 0x00, 0x08, 0x0e, 0x00, 0x00,
  0x18, 0x0e, 0x00, 0x00, 0x60, 0x14, 0x00, 0x00, 0x03, 0x00, 0x00, 0x00,
  0x01, 0x00, 0x00, 0x00, 0x04, 0x00, 0x00, 0x00, 0x86, 0xf0, 0xff, 0xff,
  0x0c, 0x00, 0x00, 0x00, 0x1c, 0x00, 0x00, 0x00, 0x38, 0x00, 0x00, 0x00,
  0x0f, 0x00, 0x00, 0x00, 0x73, 0x65, 0x72, 0x76, 0x69, 0x6e, 0x67, 0x5f,
  0x64, 0x65, 0x66, 0x61, 0x75, 0x6c, 0x74, 0x00, 0x01, 0x00, 0x00, 0x00,
  0x04, 0x00, 0x00, 0x00, 0xc4, 0xff, 0xff, 0xff, 0x10, 0x00, 0x00, 0x00,
  0x04, 0x00, 0x00, 0x00, 0x06, 0x00, 0x00, 0x00, 0x6f, 0x75, 0x74, 0x70,
  0x75, 0x74, 0x00, 0x00, 0x01, 0x00, 0x00, 0x00, 0x04, 0x00, 0x00, 0x00,
  0x86, 0xf2, 0xff, 0xff, 0x04, 0x00, 0x00, 0x00, 0x05, 0x00, 0x00, 0x00,
  0x69, 0x6e, 0x70, 0x75, 0x74, 0x00, 0x00, 0x00, 0x01, 0x00, 0x00, 0x00,
  0x0c, 0x00, 0x00, 0x00, 0x08, 0x00, 0x0c, 0x00, 0x08, 0x00, 0x04, 0x00,
  0x08, 0x00, 0x00, 0x00, 0x12, 0x00, 0x00, 0x00, 0x04, 0x00, 0x00, 0x00,
  0x13, 0x00, 0x00, 0x00, 0x6d, 0x69, 0x6e, 0x5f, 0x72, 0x75, 0x6e, 0x74,
  0x69, 0x6d, 0x65, 0x5f, 0x76, 0x65, 0x72, 0x73, 0x69, 0x6f, 0x6e, 0x00,
  0x13, 0x00, 0x00, 0x00, 0x54, 0x0d, 0x00, 0x00, 0x4c, 0x0d, 0x00, 0x00,
  0x2c, 0x0d, 0x00, 0x00, 0x0c, 0x0d, 0x00, 0x00, 0xf4, 0x0c, 0x00, 0x00,
  0xc4, 0x0c, 0x00, 0x00, 0xb4, 0x0b, 0x00, 0x00, 0x9c, 0x0b, 0x00, 0x00,
  0x8c, 0x09, 0x00, 0x00, 0x7c, 0x00, 0x00, 0x00, 0x5c, 0x00, 0x00, 0x00,
  0x54, 0x00, 0x00, 0x00, 0x4c, 0x00, 0x00, 0x00, 0x44, 0x00, 0x00, 0x00,
  0x3c, 0x00, 0x00, 0x00, 0x34, 0x00, 0x00, 0x00, 0x2c, 0x00, 0x00, 0x00,
  0x24, 0x00, 0x00, 0x00, 0x04, 0x00, 0x00, 0x00, 0x1e, 0xf3, 0xff, 0xff,
  0x04, 0x00, 0x00, 0x00, 0x10, 0x00, 0x00, 0x00, 0x31, 0x2e, 0x36, 0x2e,
  0x30, 0x00, 0x00, 0x00, 0x00, 0x00, 0x00, 0x00, 0x00, 0x00, 0x00, 0x00,
  0xe8, 0xec, 0xff, 0xff, 0xec, 0xec, 0xff, 0xff, 0xf0, 0xec, 0xff, 0xff,
  0xf4, 0xec, 0xff, 0xff, 0xf8, 0xec, 0xff, 0xff, 0xfc, 0xec, 0xff, 0xff,
  0x00, 0xed, 0xff, 0xff, 0x56, 0xf3, 0xff, 0xff, 0x04, 0x00, 0x00, 0x00,
  0x10, 0x00, 0x00, 0x00, 0x01, 0x00, 0x00, 0x00, 0x0c, 0x00, 0x00, 0x00,
  0x18, 0x00, 0x00, 0x00, 0x01, 0x00, 0x00, 0x00, 0x72, 0xf3, 0xff, 0xff,
  0x04, 0x00, 0x00, 0x00, 0x00, 0x09, 0x00, 0x00, 0x69, 0xd3, 0x00, 0x3c,
  0x7f, 0x79, 0x5f, 0x3b, 0xbd, 0x57, 0x23, 0x3c, 0x01, 0x6a, 0x05, 0xbc,
  0xe5, 0x9c, 0xc5, 0x3a, 0xe7, 0xa4, 0x22, 0x3b, 0xbd, 0x49, 0x21, 0x3c,
  0x35, 0x14, 0x2b, 0x3c, 0xca, 0x08, 0x08, 0x3c, 0x2e, 0x96, 0x92, 0x3b,
  0xfc, 0x93, 0xe3, 0x3b, 0x2e, 0xd7, 0x1a, 0x3c, 0x72, 0x87, 0xdf, 0x3a,
  0x0f, 0xcd, 0x2a, 0x3b, 0xa7, 0xf8, 0x74, 0x39, 0x73, 0x8c, 0x1a, 0xba,
  0xe2, 0x3a, 0xa6, 0xbb, 0x26, 0x47, 0xa4, 0xbb, 0x9c, 0xeb, 0xd9, 0xbb,
  0x06, 0xa8, 0x02, 0x3d, 0x05, 0xd0, 0xd3, 0xbc, 0xc3, 0x10, 0x0b, 0x3d,
  0xd2, 0xa8, 0xa9, 0xbd, 0xdf, 0xf6, 0x2b, 0x3d, 0x8a, 0xdb, 0x6b, 0xbc,
  0x8d, 0xce, 0x08, 0xbe, 0xde, 0x1a, 0x06, 0x3e, 0x85, 0x16, 0xf0, 0x3b,
  0x51, 0x34, 0xd3, 0x3b, 0x51, 0xc0, 0xe4, 0x3a, 0x01, 0x76, 0x71, 0xbb,
  0x51, 0x5c, 0x01, 0x3c, 0x52, 0x92, 0x9b, 0x3b, 0xc7, 0x98, 0xee, 0x3a,
  0x62, 0xfa, 0xa2, 0x3c, 0x9d, 0x5c, 0xf1, 0x3b, 0xe2, 0x34, 0x6f, 0x3a,
  0x0d, 0xd9, 0x24, 0xbb, 0x62, 0x45, 0x48, 0x3b, 0x67, 0xc4, 0x2f, 0x39,
  0x20, 0x71, 0x84, 0x3b, 0x96, 0x25, 0x73, 0xbb, 0x57, 0x3d, 0x1b, 0xbb,
  0xa7, 0xf3, 0x27, 0xbc, 0xf6, 0xcf, 0xff, 0xbb, 0xb0, 0x0d, 0x2c, 0xbc,
  0x6d, 0xe1, 0x2d, 0xbb, 0x7d, 0xbd, 0xba, 0x3b, 0xe6, 0x80, 0xe9, 0x3b,
  0x09, 0xde, 0x7a, 0x3c, 0xdc, 0x36, 0xda, 0xba, 0x19, 0x93, 0xdf, 0xbc,
  0xfc, 0x86, 0x02, 0x3c, 0xb9, 0xf1, 0xf0, 0x3b, 0x1d, 0xa7, 0xb7, 0x3b,
  0x48, 0xc9, 0xc6, 0x3b, 0xa5, 0xba, 0xc7, 0x3b, 0xe0, 0xa8, 0xdc, 0xbb,
  0x3d, 0xde, 0x07, 0x3c, 0xa8, 0xa0, 0x94, 0x3b, 0x53, 0x6e, 0x3c, 0x3b,
  0x6a, 0x91, 0x24, 0x3c, 0xe6, 0x68, 0x4d, 0x3c, 0x42, 0x87, 0x11, 0x3b,
  0x86, 0x2d, 0xa6, 0x3b, 0x49, 0x5a, 0xb8, 0x3a, 0x6f, 0x5f, 0x09, 0x3c,
  0x6f, 0xfb, 0xb4, 0x3b, 0x26, 0xd7, 0xd9, 0x3b, 0x57, 0xb3, 0x6f, 0x3b,
  0x3f, 0x41, 0x32, 0x3c, 0x9b, 0x3d, 0x1f, 0x3c, 0xd5, 0x64, 0x70, 0x3b,
  0x74, 0xb7, 0xbb, 0x3b, 0xf6, 0xcf, 0xd1, 0x3b, 0x0b, 0xb5, 0xae, 0x3b,
  0x1e, 0x7c, 0xbf, 0xba, 0xe2, 0x80, 0x05, 0x3c, 0xb5, 0x25, 0x98, 0x3b,
  0x8f, 0x7e, 0xea, 0x3b, 0x03, 0xc0, 0x7b, 0x3c, 0xd9, 0x2e, 0xa7, 0xbc,
  0x2b, 0xb4, 0xdd, 0xbc, 0x31, 0x7d, 0x19, 0x3d, 0x1e, 0x5c, 0x79, 0x3d,
  0x1c, 0xc3, 0x51, 0x3d, 0x0b, 0x41, 0xcf, 0xbd, 0x37, 0xa6, 0x16, 0x3d,
  0xed, 0x2a, 0x8a, 0x3d, 0x27, 0xe2, 0xf3, 0xbd, 0x6b, 0xab, 0xfc, 0x3a,
  0xa9, 0x1c, 0x33, 0x3c, 0x40, 0xdb, 0xeb, 0x3b, 0x47, 0xe3, 0x94, 0xbb,
  0xdd, 0x7d, 0xa6, 0x3a, 0x45, 0x91, 0x80, 0xbb, 0x3e, 0x53, 0xa8, 0x3b,
  0x6f, 0x09, 0x9c, 0x3c, 0x2c, 0x12, 0xd1, 0x3b, 0xd3, 0x55, 0x4d, 0xbb,
  0x91, 0xa9, 0x7c, 0xbc, 0x44, 0xdf, 0x9b, 0xbb, 0xba, 0x25, 0x04, 0xba,
  0xca, 0x75, 0x5b, 0xbc, 0x45, 0x0e, 0xe3, 0xbb, 0xe4, 0x8d, 0x53, 0x3b,
  0x6e, 0x2c, 0xb4, 0xbb, 0xb4, 0x86, 0x4e, 0xba, 0x63, 0xe9, 0x97, 0x39,
  0x0e, 0x55, 0x3e, 0xbc, 0xb3, 0xcc, 0x82, 0xbc, 0x36, 0x30, 0x0c, 0xbb,
  0xff, 0xef, 0xe2, 0xbb, 0x1f, 0xfd, 0x39, 0xbb, 0xb3, 0x38, 0x3f, 0xba,
  0xe0, 0xb2, 0xd1, 0xbb, 0x36, 0x02, 0x31, 0xba, 0x7b, 0xea, 0x03, 0xbb,
  0x91, 0xde, 0x8b, 0xbc, 0x17, 0x7d, 0x28, 0xbc, 0xce, 0x96, 0x77, 0xba,
  0x9d, 0xc3, 0x16, 0xbb, 0xff, 0xcb, 0x30, 0xbb, 0x21, 0x6d, 0xaf, 0xba,
  0xb8, 0x6f, 0x5d, 0xbb, 0x11, 0x81, 0xc5, 0xbb, 0xbe, 0x58, 0x67, 0x3d,
  0x6a, 0xb3, 0x92, 0x3c, 0xcb, 0xdd, 0x9b, 0xbd, 0x9e, 0x77, 0xc9, 0xba,
  0x31, 0x82, 0x52, 0xbc, 0xab, 0x9d, 0x27, 0xbc, 0x42, 0x61, 0x4b, 0x3b,
  0x1c, 0x80, 0x10, 0x3b, 0x3b, 0x46, 0xc8, 0xba, 0xed, 0xc8, 0xfb, 0xbc,
  0x50, 0x50, 0x1d, 0x3d, 0xc2, 0x27, 0x0e, 0xbb, 0x29, 0x87, 0x85, 0x3d,
  0x4d, 0x50, 0x9a, 0xbd, 0xff, 0x6c, 0x32, 0x3c, 0x9a, 0xd0, 0x23, 0x3c,
  0xa9, 0xe3, 0xe3, 0xbd, 0x3c, 0x71, 0xa8, 0x3d, 0x49, 0x9a, 0x05, 0x3c,
  0x07, 0x9a, 0xb5, 0xbb, 0xe0, 0x53, 0x0d, 0x3b, 0xec, 0x7f, 0x74, 0xbc,
  0x4b, 0xc5, 0xb2, 0xbc, 0xbf, 0x89, 0x1b, 0xbc, 0x2d, 0xf6, 0x20, 0xbb,
  0x6d, 0xdc, 0xb1, 0x3b, 0xe8, 0x87, 0xc1, 0x3b, 0x00, 0x7e, 0x3a, 0x3b,
  0x1e, 0x7f, 0x5f, 0x3c, 0x9e, 0x6a, 0x4d, 0x3a, 0x8d, 0xf4, 0x32, 0x3b,
  0x39, 0x6c, 0x60, 0x3b, 0xee, 0xcf, 0x5b, 0x3b, 0xdd, 0x8d, 0x04, 0x3c,
  0x28, 0x96, 0x77, 0x3c, 0x40, 0xc4, 0xbb, 0x3b, 0x3e, 0x03, 0x0f, 0x3b,
  0xbb, 0x83, 0x21, 0x3c, 0xf6, 0xfe, 0x4a, 0x3b, 0xed, 0x32, 0xfe, 0x3b,
  0xef, 0x95, 0xd4, 0x3b, 0xea, 0xa7, 0x22, 0x3b, 0x5f, 0x3b, 0x90, 0x3b,
  0x84, 0x68, 0x86, 0x3c, 0xab, 0x50, 0xbc, 0x3b, 0xe7, 0x6c, 0x08, 0x3c,
  0xd3, 0x60, 0x22, 0x3c, 0x9a, 0x50, 0x67, 0x3b, 0x56, 0x84, 0xf8, 0xbb,
  0x42, 0x3d, 0x97, 0x3b, 0xee, 0x17, 0x0d, 0xbb, 0x1b, 0x70, 0xc1, 0x39,
  0x64, 0x1c, 0x9e, 0x3c, 0xad, 0xed, 0x0c, 0x3c, 0x3e, 0xb2, 0x4b, 0x3c,
  0x11, 0x8f, 0x72, 0x3b, 0x5d, 0x5b, 0x2c, 0x3c, 0x62, 0x3b, 0x3e, 0xbc,
  0x8c, 0xaf, 0xbd, 0xb9, 0x4d, 0xa0, 0xad, 0xbc, 0x53, 0xba, 0x96, 0xbc,
  0x24, 0x46, 0x67, 0xbc, 0xf2, 0x8e, 0x32, 0x3c, 0x69, 0x73, 0x48, 0x3c,
  0x82, 0xaa, 0x4e, 0x3c, 0x1d, 0x79, 0xd1, 0x3b, 0x04, 0x06, 0x9c, 0xbc,
  0xfd, 0x6d, 0xbe, 0xbc, 0xbe, 0xe2, 0x46, 0xbc, 0xfc, 0x4d, 0x8c, 0x3a,
  0x25, 0x2c, 0x26, 0x3c, 0x81, 0xe9, 0x9c, 0xbb, 0xda, 0x74, 0x1d, 0x3c,
  0x52, 0x59, 0xca, 0x3a, 0x34, 0x5c, 0x14, 0x3c, 0xd6, 0x33, 0xa8, 0x3a,
  0x42, 0x98, 0xa6, 0xbb, 0x92, 0xc6, 0x4c, 0x3b, 0xf1, 0xac, 0x19, 0x3c,
  0xb5, 0xff, 0x12, 0x3c, 0x7e, 0x54, 0x52, 0x3c, 0xac, 0xd7, 0xa7, 0x3b,
  0x26, 0xb8, 0xa7, 0x3b, 0x40, 0xf0, 0xfc, 0x3b, 0xe4, 0x01, 0x53, 0x3b,
  0xb9, 0x44, 0xba, 0x3b, 0xf6, 0xdb, 0xb2, 0xba, 0xa8, 0x4b, 0xea, 0x3b,
  0x0a, 0xa1, 0x8f, 0x3c, 0x61, 0xc4, 0xc4, 0x3b, 0x8c, 0x05, 0x4b, 0xba,
  0xcf, 0x29, 0xe0, 0x3b, 0xee, 0x7f, 0x17, 0x3b, 0x3d, 0x05, 0xd7, 0x3b,
  0xf9, 0xc9, 0x09, 0x3c, 0x69, 0x77, 0x07, 0x3c, 0x77, 0x2b, 0xf8, 0x3a,
  0xa5, 0x9e, 0x50, 0x3c, 0x7b, 0x62, 0x3c, 0x3c, 0x4e, 0xef, 0x1b, 0x3a,
  0x44, 0xa7, 0x66, 0xbc, 0xe6, 0xb0, 0x59, 0xbc, 0x0f, 0x75, 0x48, 0xbb,
  0xb0, 0xf3, 0x3f, 0xbb, 0x5c, 0xcb, 0xcd, 0xbb, 0x6b, 0x90, 0x23, 0xbb,
  0x0e, 0xa6, 0x1a, 0x3b, 0x32, 0x6e, 0x04, 0xbc, 0xd2, 0x2c, 0xa1, 0x39,
  0x4d, 0x6d, 0x0e, 0x3c, 0xcc, 0x84, 0x44, 0x3c, 0x13, 0xf2, 0x0a, 0xbc,
  0xe2, 0xc8, 0xbb, 0xbc, 0x47, 0x3a, 0xb2, 0xbc, 0xf1, 0x93, 0x58, 0x3b,
  0xb4, 0x51, 0x0d, 0x3c, 0xb8, 0xcf, 0x01, 0xbb, 0x73, 0xcd, 0x5f, 0x3d,
  0xcc, 0x68, 0x4f, 0x3a, 0x28, 0x1b, 0x65, 0xbd, 0xd5, 0xe5, 0x35, 0x3c,
  0x50, 0xc9, 0xc3, 0xbc, 0x3f, 0x6f, 0x44, 0xbc, 0xee, 0x23, 0x29, 0xbc,
  0xb0, 0xb6, 0xff, 0xbb, 0xbb, 0xc1, 0xac, 0x3c, 0x5c, 0x7e, 0x0d, 0x3d,
  0x07, 0x69, 0x6b, 0xbd, 0xcd, 0xca, 0xb7, 0x3c, 0xee, 0xe2, 0x0a, 0xbc,
  0x5c, 0xce, 0x07, 0x3b, 0x08, 0xb3, 0xed, 0xbc, 0x11, 0x4f, 0xa8, 0xb9,
  0x17, 0x30, 0x1b, 0x3d, 0x9e, 0xdf, 0x02, 0xbd, 0x5b, 0x31, 0xd3, 0x3b,
  0x09, 0xb7, 0xde, 0x3b, 0x25, 0xf6, 0x19, 0x3b, 0xeb, 0x96, 0xe5, 0x3b,
  0x08, 0xb8, 0x5b, 0x38, 0x4f, 0x2d, 0x9f, 0x3b, 0x36, 0x9d, 0x2c, 0x3c,
  0xa3, 0x4f, 0xae, 0x3b, 0x74, 0x54, 0x5e, 0x3c, 0xc9, 0x98, 0x04, 0xbd,
  0xcc, 0xc1, 0x2f, 0xbc, 0x11, 0x1d, 0x0b, 0x3d, 0xa0, 0xfa, 0x6d, 0x3d,
  0xd7, 0x0d, 0x83, 0x3c, 0x5b, 0x96, 0x57, 0xbd, 0x3c, 0x49, 0x65, 0x3d,
  0x82, 0xeb, 0x66, 0xba, 0x80, 0xf7, 0x8f, 0xbd, 0x07, 0x38, 0xcc, 0x3c,
  0x14, 0x96, 0x33, 0xbd, 0x0a, 0x4e, 0x43, 0x3c, 0xa7, 0x94, 0xcd, 0xbc,
  0x03, 0xa9, 0xa5, 0x3d, 0x32, 0xc0, 0x48, 0xbd, 0x45, 0x5d, 0x6c, 0x3b,
  0xe5, 0x1c, 0xe9, 0x3d, 0x4c, 0xad, 0x09, 0xbe, 0xa0, 0xfa, 0x9b, 0x3b,
  0xc0, 0x5e, 0xd4, 0x3b, 0xca, 0x0b, 0x92, 0x3b, 0x1b, 0xad, 0x90, 0xba,
  0x6d, 0xa3, 0x01, 0xbc, 0x67, 0xcf, 0x7c, 0xbb, 0x38, 0x18, 0x6d, 0xbc,
  0x48, 0x77, 0xcb, 0xbb, 0x0f, 0xf1, 0x10, 0xbc, 0xe9, 0x91, 0x0f, 0x3b,
  0x5f, 0xa1, 0xbc, 0xbb, 0x9f, 0x54, 0x09, 0xbb, 0xff, 0x1a, 0x28, 0xba,
  0x8c, 0x9c, 0xbf, 0xbc, 0xe9, 0xc4, 0x43, 0xbc, 0xcb, 0x82, 0x2f, 0x3c,
  0x76, 0x73, 0xea, 0xba, 0xe3, 0x43, 0x40, 0xba, 0x2a, 0x7f, 0x4b, 0xbb,
  0xb4, 0xdc, 0xf3, 0xba, 0xec, 0x43, 0xc5, 0xbb, 0xaa, 0x57, 0xf0, 0xba,
  0x9b, 0x5b, 0x87, 0xbb, 0x1c, 0xc7, 0x6a, 0xbb, 0x73, 0xa3, 0x15, 0x3b,
  0x32, 0x8d, 0x15, 0x3b, 0x40, 0x33, 0x3b, 0x3c, 0xf6, 0x46, 0x60, 0xbb,
  0x6f, 0x39, 0x78, 0xbc, 0xcc, 0xc6, 0x1e, 0xbc, 0x23, 0x32, 0x8c, 0xba,
  0x01, 0xca, 0xd0, 0xbb, 0xa9, 0xdd, 0xaa, 0xbb, 0x68, 0x00, 0xe9, 0x39,
  0xe4, 0x73, 0x92, 0xbb, 0x6c, 0xae, 0x6c, 0xbb, 0x29, 0xa2, 0xc8, 0x3b,
  0x45, 0xfd, 0x24, 0x3c, 0x57, 0xbf, 0x4b, 0x3c, 0x8d, 0xe7, 0x99, 0xbb,
  0xe0, 0x3e, 0x7f, 0xbc, 0x1b, 0x2c, 0xa3, 0xbc, 0x87, 0xee, 0x04, 0xbc,
  0x9e, 0x29, 0xe5, 0xbc, 0xff, 0x84, 0x9a, 0x3c, 0xc7, 0xbe, 0x3c, 0x3b,
  0x52, 0xb4, 0xe8, 0x3b, 0x06, 0x70, 0x70, 0x3b, 0x0e, 0x81, 0xf8, 0x3b,
  0xe2, 0x21, 0xf5, 0xba, 0xfa, 0xbc, 0x16, 0x3c, 0x6b, 0x7e, 0xca, 0x3b,
  0x43, 0x0e, 0x18, 0x3c, 0x38, 0xd7, 0x41, 0x3c, 0x77, 0xb3, 0x37, 0xbb,
  0x4f, 0x6c, 0x78, 0xbc, 0x18, 0x35, 0x51, 0xbc, 0x45, 0xbf, 0x8a, 0xba,
  0x04, 0x86, 0x34, 0xbb, 0x0b, 0x94, 0x48, 0xbb, 0xa6, 0xb0, 0x20, 0xb8,
  0x07, 0x58, 0x82, 0xbb, 0x7b, 0x1d, 0xd8, 0xbb, 0x86, 0x45, 0x9f, 0x3a,
  0x12, 0xf9, 0x24, 0x3c, 0x52, 0xdf, 0x27, 0x3c, 0xc3, 0x73, 0xec, 0xba,
  0xae, 0x06, 0xb5, 0x39, 0xe3, 0x23, 0x6a, 0x3a, 0x0b, 0xf6, 0x60, 0x3a,
  0x6f, 0x7e, 0x5f, 0x3c, 0x3b, 0xe3, 0x82, 0x3c, 0xb0, 0x5a, 0x1b, 0x3c,
  0xfe, 0xbb, 0x28, 0x3c, 0xff, 0x10, 0x59, 0x3b, 0x6f, 0x3d, 0x0e, 0xbc,
  0xd4, 0x72, 0xfe, 0x3b, 0x24, 0x6a, 0x87, 0xbb, 0x4c, 0xb0, 0x8f, 0x3b,
  0x78, 0x23, 0x9a, 0x3c, 0x8a, 0x02, 0xb6, 0x3b, 0xe8, 0x94, 0x39, 0x3b,
  0xcd, 0x26, 0x54, 0x3c, 0x14, 0x1a, 0x62, 0x3b, 0x34, 0x22, 0x7c, 0x3a,
  0xf4, 0x1c, 0x2f, 0x3b, 0xb5, 0x84, 0xb8, 0xba, 0x3b, 0xfa, 0x13, 0x3b,
  0x47, 0x74, 0x7c, 0x3c, 0x11, 0xd6, 0x52, 0x3c, 0xc3, 0xc2, 0x21, 0xba,
  0x1f, 0x95, 0x2b, 0x3c, 0x58, 0x3a, 0xf4, 0x3a, 0xfe, 0xb7, 0x0a, 0x3c,
  0x3d, 0xc1, 0xf4, 0xb9, 0xe1, 0x09, 0x25, 0x3c, 0xa2, 0x7d, 0xcb, 0x3b,
  0x2e, 0xc4, 0x08, 0x3c, 0x97, 0x34, 0x47, 0x3c, 0xd0, 0x10, 0xda, 0x3b,
  0x5e, 0x69, 0x64, 0xbc, 0xbd, 0x6d, 0x6c, 0xbc, 0x7f, 0xdb, 0xad, 0x3c,
  0x31, 0x57, 0xcd, 0xba, 0xb5, 0x71, 0x12, 0xba, 0x4e, 0x61, 0x94, 0x3a,
  0x3e, 0x3f, 0xad, 0xbc, 0x57, 0x66, 0x99, 0x3a, 0x6b, 0x64, 0x21, 0xbb,
  0xfe, 0x72, 0x7a, 0xbc, 0x65, 0xf1, 0x39, 0xbc, 0x59, 0x9c, 0x11, 0xba,
  0xf0, 0x0c, 0x02, 0xbc, 0xc9, 0x7a, 0xa0, 0xbb, 0x9b, 0x21, 0x6b, 0x3b,
  0xe3, 0xce, 0xbd, 0xbb, 0x3c, 0x8d, 0xcc, 0xbb, 0xc0, 0x23, 0xcb, 0x3b,
  0x8e, 0x47, 0x5a, 0x3c, 0xb2, 0x5d, 0x3e, 0x3c, 0x7e, 0x1f, 0x4c, 0xba,
  0x0e, 0x43, 0xec, 0x39, 0x6c, 0xaa, 0x46, 0xba, 0x4a, 0x8e, 0x09, 0x3a,
  0x9e, 0x8d, 0x07, 0x3b, 0xb6, 0x71, 0x2b, 0x3a, 0x16, 0x5a, 0x2e, 0x3c,
  0x00, 0x14, 0x72, 0x3c, 0xc1, 0xee, 0xa3, 0x3b, 0xae, 0x26, 0x9a, 0xbc,
  0x42, 0x56, 0xf1, 0xbc, 0xd3, 0x3e, 0xd0, 0x39, 0x67, 0xea, 0xdf, 0x3b,
  0x09, 0xb1, 0x03, 0x3c, 0xd6, 0x5b, 0xb2, 0xbc, 0xad, 0x4f, 0x3a, 0xbd,
  0x82, 0x02, 0x75, 0x3c, 0x0f, 0x34, 0xa6, 0x3c, 0x5f, 0xbd, 0x7d, 0x3d,
  0x89, 0x8a, 0x5b, 0xbc, 0x39, 0xb4, 0xcd, 0xbc, 0x4d, 0xd6, 0x8b, 0x3d,
  0x10, 0x0a, 0x35, 0xbd, 0x39, 0x84, 0x23, 0xbd, 0x11, 0xdc, 0xf1, 0x3b,
  0x80, 0x48, 0xff, 0x3b, 0xab, 0x64, 0x77, 0x3b, 0xd3, 0xb3, 0x63, 0xba,
  0x6f, 0x73, 0x7e, 0x3b, 0xd9, 0x77, 0xb8, 0x3a, 0x78, 0xa3, 0x3d, 0xbc,
  0x00, 0x94, 0x97, 0x3b, 0x38, 0x4c, 0xa4, 0xbb, 0x3d, 0xc4, 0x82, 0xbc,
  0x0e, 0xc3, 0x8c, 0xbc, 0x09, 0x3b, 0x33, 0xbb, 0x90, 0x75, 0x1d, 0x3c,
  0xdd, 0xbb, 0x7a, 0x3c, 0x97, 0xc9, 0xd4, 0x3b, 0x17, 0x53, 0x93, 0xbb,
  0xa2, 0x52, 0x88, 0xbc, 0x98, 0x3c, 0xd1, 0xbb, 0x20, 0xb5, 0x54, 0xba,
  0x1d, 0xe2, 0x8b, 0xbc, 0x51, 0xe7, 0x3d, 0xbc, 0x0f, 0x47, 0x15, 0xbb,
  0x15, 0x20, 0xad, 0xbb, 0xce, 0x88, 0xab, 0xbb, 0x96, 0x77, 0x62, 0xba,
  0x2f, 0x2e, 0x22, 0xbb, 0x22, 0x37, 0xb7, 0xbb, 0x25, 0x32, 0xcb, 0xbb,
  0xe1, 0xd6, 0x99, 0xbc, 0xbe, 0xfa, 0x0c, 0xbc, 0xd8, 0x01, 0x1f, 0x3c,
  0x5f, 0x27, 0x49, 0x3c, 0x19, 0xef, 0x32, 0xbb, 0x09, 0x1a, 0x9c, 0xbb,
  0x51, 0xc9, 0xcc, 0xbb, 0x65, 0x0e, 0x17, 0xbc, 0x04, 0xb3, 0xdb, 0x3b,
  0x0a, 0xdb, 0x41, 0x3c, 0xfe, 0xa4, 0x49, 0x3c, 0xd8, 0xf1, 0x05, 0xbb,
  0x2a, 0x8e, 0xaf, 0x3a, 0x2c, 0xdd, 0x02, 0xbb, 0x13, 0x55, 0x44, 0x3a,
  0x4b, 0x25, 0x5f, 0x3b, 0x23, 0x98, 0x53, 0xba, 0xed, 0x86, 0x73, 0x3b,
  0x90, 0x2a, 0xd3, 0x3b, 0xd2, 0x6a, 0x28, 0x3c, 0x24, 0xb4, 0x74, 0x3a,
  0x42, 0x9d, 0x82, 0x3b, 0xdd, 0xc3, 0x57, 0xbb, 0x5a, 0x34, 0x96, 0x3b,
  0x87, 0x82, 0x30, 0x3c, 0xb8, 0x0e, 0x6c, 0x3c, 0xd2, 0x69, 0x99, 0x3b,
  0xd0, 0x03, 0x5b, 0x3b, 0x35, 0xa0, 0x39, 0x3c, 0x47, 0x2f, 0xa0, 0x3a,
  0x5e, 0x6e, 0x92, 0xbb, 0xfc, 0x1d, 0xdf, 0x3b, 0x00, 0xf6, 0x88, 0x3b,
  0x88, 0x80, 0x25, 0x3c, 0x72, 0x8b, 0x48, 0x3c, 0x8a, 0xfd, 0x10, 0xb9,
  0x54, 0x20, 0x9b, 0xbc, 0x93, 0xa3, 0xc8, 0xbb, 0x05, 0x65, 0xa9, 0xba,
  0x17, 0x6c, 0xc1, 0xbb, 0x5b, 0x43, 0x95, 0xbb, 0x69, 0x7b, 0x8a, 0xbb,
  0xb8, 0x89, 0x41, 0xbb, 0x61, 0x79, 0xa1, 0xba, 0xe8, 0xae, 0x2c, 0xba,
  0xb5, 0xe8, 0x89, 0xbb, 0x3d, 0x60, 0x81, 0x39, 0x08, 0x7e, 0xe9, 0xbb,
  0x03, 0x41, 0xb4, 0xbc, 0x60, 0x26, 0x1f, 0xbc, 0x0c, 0xcb, 0x55, 0x3a,
  0xe6, 0xa8, 0x17, 0x39, 0x7b, 0x36, 0xfc, 0x3b, 0x98, 0xed, 0xa8, 0x3b,
  0xf4, 0xc3, 0x01, 0x3c, 0xff, 0xd5, 0x5e, 0x3c, 0x04, 0x22, 0xf7, 0x3b,
  0x9a, 0xb6, 0xb3, 0xbc, 0xfc, 0xee, 0xb2, 0xbc, 0x3b, 0x46, 0xde, 0xbc,
  0xd3, 0x33, 0x4a, 0x3c, 0x72, 0xa6, 0x5b, 0xbb, 0xaf, 0xb7, 0x3c, 0xbc,
  0xb3, 0xe9, 0xc2, 0xbc, 0x2d, 0x71, 0xce, 0x3c, 0x0f, 0xda, 0x68, 0x3d,
  0x44, 0x24, 0x0e, 0x3d, 0xe4, 0xc2, 0xc5, 0xbd, 0xb9, 0x5a, 0x40, 0x3d,
  0x5f, 0x67, 0x5c, 0x3d, 0x64, 0x3f, 0xde, 0xbd, 0x0c, 0x78, 0x46, 0xba,
  0xe3, 0x9e, 0x41, 0x3c, 0x03, 0x12, 0xff, 0x3b, 0x58, 0x3d, 0xaf, 0xbb,
  0x80, 0x28, 0xde, 0xbc, 0xd3, 0xbf, 0x77, 0xbc, 0x8e, 0xad, 0xa0, 0x3b,
  0xee, 0xf4, 0xad, 0xba, 0x63, 0x30, 0xcb, 0x3b, 0x83, 0xd7, 0x46, 0xba,
  0xda, 0xa1, 0x14, 0xbc, 0x03, 0xeb, 0x33, 0x3c, 0x5b, 0x16, 0xfa, 0xbb,
  0xd8, 0xd3, 0x9c, 0xbc, 0xbc, 0xd1, 0x8e, 0xbc, 0x6f, 0x2e, 0xd0, 0xba,
  0xf2, 0xdd, 0x34, 0x3c, 0x18, 0xc9, 0x99, 0xba, 0x2e, 0x5f, 0x53, 0x3c,
  0xb5, 0x96, 0x85, 0x3c, 0x23, 0x8b, 0x79, 0xbc, 0x82, 0x14, 0x89, 0xbc,
  0xda, 0xd3, 0xc4, 0xbc, 0x1a, 0x3a, 0x65, 0xbc, 0x99, 0xbf, 0x1f, 0xbc,
  0xa8, 0x63, 0xc9, 0x3a, 0x18, 0x1b, 0xf2, 0x3b, 0xff, 0x59, 0x73, 0x3b,
  0xe4, 0xa9, 0x05, 0x3c, 0xdf, 0xdf, 0xf1, 0x3b, 0x6e, 0xa1, 0x22, 0x3b,
  0x0c, 0x0a, 0xfa, 0x39, 0x44, 0x79, 0x29, 0x3b, 0xba, 0x1b, 0x99, 0xbb,
  0xf3, 0x1b, 0x9a, 0xbb, 0x8f, 0x83, 0x48, 0xbb, 0xa3, 0xcd, 0x80, 0x3c,
  0x14, 0xeb, 0x0e, 0x3a, 0x72, 0x21, 0x06, 0xbd, 0xa0, 0xdb, 0x30, 0xba,
  0xb2, 0xe7, 0xc7, 0x3b, 0xec, 0x85, 0x03, 0x3d, 0x14, 0x1c, 0x28, 0xbb,
  0x88, 0x1a, 0x35, 0xbd, 0x48, 0xb4, 0xc2, 0x3c, 0x7e, 0xfc, 0xff, 0xff,
  0x04, 0x00, 0x00, 0x00, 0x00, 0x02, 0x00, 0x00, 0x48, 0xe4, 0xae, 0xbe,
  0x3f, 0xf8, 0x96, 0xbe, 0x95, 0x71, 0x05, 0x3f, 0x28, 0xb8, 0x5b, 0xbe,
  0xfe, 0x0d, 0x66, 0x3d, 0xba, 0x3c, 0x31, 0xbd, 0x11, 0x56, 0xb5, 0xbe,
  0x20, 0x28, 0x7c, 0xbe, 0x28, 0x6b, 0x95, 0xbe, 0x23, 0x10, 0x23, 0x3f,
  0xf8, 0x6e, 0xca, 0xbe, 0x0d, 0xa2, 0xf4, 0x3e, 0x70, 0x4d, 0x02, 0x3f,
  0xb1, 0x50, 0x9d, 0x3e, 0x6d, 0x6c, 0x0d, 0x3f, 0x02, 0x00, 0x2d, 0x3f,
  0xba, 0xb6, 0x06, 0x3f, 0x49, 0x26, 0xaa, 0xbe, 0x2e, 0x4d, 0xeb, 0xbe,
  0x57, 0x64, 0xbf, 0xbe, 0x5d, 0x01, 0x29, 0x3f, 0x50, 0x48, 0xac, 0x3e,
  0xb1, 0x49, 0x66, 0xbe, 0xda, 0x35, 0x83, 0xbe, 0xac, 0xd2, 0xdc, 0xbe,
  0x36, 0x3e, 0xea, 0x3e, 0x13, 0xbc, 0x8a, 0x3e, 0x60, 0x9a, 0xf2, 0x3e,
  0x84, 0x39, 0x16, 0x3f, 0x58, 0x8b, 0x63, 0xbe, 0x26, 0x9d, 0x29, 0x3f,
  0x31, 0x55, 0x29, 0x3f, 0x0b, 0xae, 0x3e, 0x3f, 0x0e, 0xb0, 0x0b, 0x3f,
  0x9a, 0x75, 0x62, 0xbe, 0x69, 0x4e, 0x02, 0x3f, 0x7b, 0x01, 0x17, 0x3f,
  0x5e, 0x0e, 0xb3, 0xbe, 0xe6, 0x57, 0xaa, 0x3e, 0x3e, 0x73, 0x9d, 0xbe,
  0x88, 0xd3, 0xac, 0xbe, 0x20, 0x8f, 0xb4, 0xbe, 0xb2, 0xac, 0xae, 0xbe,
  0x2b, 0xb1, 0x4b, 0x3e, 0x14, 0x84, 0xd4, 0x3e, 0x98, 0xda, 0xc0, 0xbe,
  0x83, 0xe6, 0xfd, 0x3e, 0xc4, 0x6e, 0x54, 0x3f, 0x27, 0xca, 0x90, 0xbe,
  0x8d, 0xbd, 0x41, 0x3f, 0x9d, 0x55, 0xc7, 0x3e, 0xb1, 0xcd, 0xaf, 0x3e,
  0x33, 0xb5, 0xb6, 0xbe, 0x7c, 0x8f, 0xc3, 0xbe, 0x40, 0xb4, 0x53, 0xbe,
  0xfa, 0x4f, 0xc6, 0x3e, 0x07, 0x4c, 0x04, 0x3f, 0x3f, 0xfd, 0x2c, 0x3f,
  0x84, 0x75, 0x2a, 0x3f, 0x6f, 0xb1, 0xd2, 0x3e, 0x5f, 0xd2, 0xe6, 0x3e,
  0xe1, 0xeb, 0x26, 0x3f, 0xa9, 0x69, 0xba, 0xbe, 0xcd, 0x3e, 0x79, 0x3f,
  0x65, 0x9c, 0xaa, 0x3e, 0x99, 0xf7, 0x95, 0x3e, 0xd2, 0x65, 0x2d, 0xbf,
  0xf5, 0x69, 0xd0, 0x3e, 0x98, 0x7d, 0xa8, 0xbb, 0x08, 0xdc, 0x2f, 0xbe,
  0xa0, 0xb2, 0xc6, 0x3e, 0x9a, 0x63, 0xb7, 0x3e, 0x42, 0x7f, 0xb3, 0x3e,
  0x72, 0x7e, 0x25, 0xbf, 0xce, 0x6e, 0x87, 0x3e, 0x65, 0xa1, 0x10, 0xbf,
  0xba, 0xfb, 0x07, 0xbf, 0xb0, 0xb6, 0xba, 0xbe, 0x91, 0x8d, 0x09, 0xbf,
  0xfb, 0x0a, 0xec, 0xbe, 0x14, 0x08, 0xb2, 0xbe, 0xdb, 0xf6, 0xa2, 0x3e,
  0x4a, 0xa8, 0x5d, 0x3e, 0xb0, 0x6e, 0x9c, 0x3e, 0x7f, 0x03, 0x14, 0xbf,
  0x14, 0xd1, 0xe2, 0xbe, 0x34, 0xd6, 0xe2, 0x3e, 0xa8, 0x5c, 0xd4, 0x3e,
  0x23, 0xe8, 0x8a, 0x3e, 0xe1, 0xdc, 0x96, 0xbe, 0x87, 0xca, 0xf7, 0xbe,
  0x4c, 0x08, 0x2b, 0xbf, 0x4f, 0x8e, 0xe1, 0xbe, 0x3a, 0x4d, 0xd2, 0x3e,
  0x37, 0xce, 0x20, 0xbf, 0x42, 0x92, 0x20, 0xbf, 0x2f, 0xfe, 0x59, 0xbf,
  0x37, 0x9e, 0xd8, 0xbe, 0x5e, 0x76, 0xcd, 0x3d, 0x7c, 0xa1, 0x0a, 0xbf,
  0x39, 0xd2, 0x2b, 0xbf, 0x62, 0xfc, 0xc3, 0x3e, 0x22, 0xa1, 0x02, 0xbf,
  0xc1, 0x59, 0xc3, 0x3e, 0xfc, 0x41, 0xd9, 0x3e, 0x5b, 0xb7, 0xa8, 0x3e,
  0x6b, 0x97, 0xc5, 0x3e, 0x65, 0xd5, 0x16, 0xbe, 0x8c, 0xd2, 0xf9, 0xbe,
  0xb8, 0x24, 0x39, 0x3e, 0xaa, 0x6e, 0x0a, 0xbf, 0x7f, 0x55, 0x78, 0xbf,
  0x76, 0xf4, 0x86, 0x3e, 0x28, 0x7c, 0x25, 0xbf, 0x18, 0xfc, 0xf5, 0xbe,
  0xc4, 0x30, 0x96, 0xbe, 0x09, 0xa9, 0x6f, 0x3e, 0xa1, 0x43, 0xbf, 0x3e,
  0x61, 0x9a, 0xd5, 0x3e, 0x98, 0xfc, 0x86, 0xbe, 0xbb, 0x10, 0xb2, 0xbe,
  0x26, 0x75, 0x1f, 0xbf, 0x4e, 0x87, 0x21, 0xbf, 0x83, 0xfb, 0xb6, 0xbe,
  0xc7, 0x0f, 0xc5, 0xbe, 0x56, 0x12, 0x01, 0xbf, 0xb6, 0xcb, 0x8d, 0x3e,
  0x97, 0xd9, 0x6b, 0xbf, 0x8a, 0xfe, 0xff, 0xff, 0x04, 0x00, 0x00, 0x00,
  0x08, 0x00, 0x00, 0x00, 0xfc, 0xad, 0x95, 0xbe, 0x09, 0x4a, 0x62, 0x3e,
  0x9e, 0xfe, 0xff, 0xff, 0x04, 0x00, 0x00, 0x00, 0x00, 0x01, 0x00, 0x00,
  0x2c, 0xa7, 0x94, 0xbf, 0x92, 0x5e, 0x2d, 0x3e, 0x42, 0x67, 0xd5, 0x3e,
  0x09, 0xee, 0xa4, 0xbf, 0xca, 0xa4, 0xfd, 0x3e, 0x60, 0x3a, 0x3b, 0xbc,
  0x11, 0xe9, 0x95, 0xbf, 0xf5, 0xe3, 0x97, 0xbf, 0x6c, 0xb6, 0xab, 0xbf,
  0x0b, 0xf0, 0x97, 0x3e, 0x56, 0x81, 0x9a, 0xbf, 0xf0, 0x3f, 0x7d, 0x3f,
  0x8c, 0x55, 0x87, 0x3f, 0x0f, 0x54, 0x91, 0x3f, 0x6e, 0x23, 0x9e, 0x3e,
  0xa0, 0x21, 0x55, 0x3e, 0x90, 0xf0, 0x80, 0x3e, 0x5d, 0xbd, 0xa7, 0xbf,
  0x01, 0x3c, 0x9d, 0xbf, 0x0d, 0x2e, 0xa1, 0xbf, 0xf2, 0x61, 0x16, 0xbe,
  0x17, 0xb9, 0xa1, 0xbe, 0x44, 0x8e, 0x9a, 0xbf, 0xa8, 0x39, 0xa6, 0xbf,
  0x7e, 0x96, 0x99, 0xbf, 0xb0, 0x56, 0x8a, 0x3f, 0xb3, 0xc3, 0xc1, 0xbd,
  0x11, 0x11, 0x64, 0x3e, 0x50, 0x0d, 0xbb, 0x3e, 0x68, 0xaf, 0xa3, 0xbf,
  0xde, 0x44, 0x17, 0x3e, 0x28, 0x6f, 0x09, 0x3e, 0x60, 0x2c, 0x84, 0xbc,
  0x00, 0xa9, 0x89, 0x3e, 0x8f, 0x4b, 0x6a, 0x3e, 0x7b, 0xb1, 0x8c, 0x3f,
  0x50, 0x91, 0x24, 0xbe, 0xc4, 0x64, 0x9e, 0xbf, 0xae, 0x75, 0x92, 0x3f,
  0x8b, 0x69, 0xa9, 0xbf, 0x84, 0x3a, 0x9f, 0xbf, 0x50, 0x00, 0xac, 0xbf,
  0x84, 0xa7, 0x9c, 0xbf, 0xae, 0x11, 0x62, 0x3f, 0xa4, 0x51, 0x95, 0x3f,
  0x98, 0xc9, 0x08, 0xbf, 0x9f, 0xc0, 0x55, 0xbe, 0x12, 0x05, 0x27, 0x3e,
  0x80, 0xe4, 0x58, 0x3e, 0x6e, 0xd5, 0x68, 0x3f, 0xbe, 0xd8, 0x96, 0x3f,
  0x95, 0xfc, 0x87, 0x3f, 0x1b, 0x96, 0x05, 0xbf, 0xcf, 0x83, 0xa8, 0xbf,
  0xa2, 0xe2, 0x89, 0xbf, 0xcd, 0x8f, 0x89, 0x3f, 0x4c, 0x2d, 0x87, 0x3e,
  0xcc, 0x41, 0xe8, 0xbd, 0x65, 0x01, 0xbd, 0x3e, 0x40, 0x8a, 0x8c, 0xbd,
  0x53, 0xc9, 0x8f, 0x3e, 0x07, 0x5c, 0x59, 0x3e, 0x00, 0x1a, 0x37, 0x3e,
  0xd0, 0x92, 0xf5, 0x3d, 0xaa, 0xff, 0xff, 0xff, 0x04, 0x00, 0x00, 0x00,
  0x20, 0x00, 0x00, 0x00, 0x00, 0x00, 0x00, 0x00, 0x00, 0x00, 0x00, 0x00,
  0x00, 0x00, 0x00, 0x00, 0x00, 0x00, 0x00, 0x00, 0x01, 0x00, 0x00, 0x00,
  0x01, 0x00, 0x00, 0x00, 0x01, 0x00, 0x00, 0x00, 0x01, 0x00, 0x00, 0x00,
  0xd6, 0xff, 0xff, 0xff, 0x04, 0x00, 0x00, 0x00, 0x08, 0x00, 0x00, 0x00,
  0xff, 0xff, 0xff, 0xff, 0x40, 0x00, 0x00, 0x00, 0xea, 0xff, 0xff, 0xff,
  0x04, 0x00, 0x00, 0x00, 0x08, 0x00, 0x00, 0x00, 0x02, 0x00, 0x00, 0x00,
  0x03, 0x00, 0x00, 0x00, 0x00, 0x00, 0x06, 0x00, 0x08, 0x00, 0x04, 0x00,
  0x06, 0x00, 0x00, 0x00, 0x04, 0x00, 0x00, 0x00, 0x10, 0x00, 0x00, 0x00,
  0x00, 0x00, 0x00, 0x00, 0x03, 0x00, 0x00, 0x00, 0x01, 0x00, 0x00, 0x00,
  0x02, 0x00, 0x00, 0x00, 0xd0, 0xf9, 0xff, 0xff, 0xd4, 0xf9, 0xff, 0xff,
  0x0f, 0x00, 0x00, 0x00, 0x4d, 0x4c, 0x49, 0x52, 0x20, 0x43, 0x6f, 0x6e,
  0x76, 0x65, 0x72, 0x74, 0x65, 0x64, 0x2e, 0x00, 0x01, 0x00, 0x00, 0x00,
  0x14, 0x00, 0x00, 0x00, 0x00, 0x00, 0x0e, 0x00, 0x18, 0x00, 0x14, 0x00,
  0x10, 0x00, 0x0c, 0x00, 0x08, 0x00, 0x04, 0x00, 0x0e, 0x00, 0x00, 0x00,
  0x14, 0x00, 0x00, 0x00, 0x1c, 0x00, 0x00, 0x00, 0xbc, 0x01, 0x00, 0x00,
  0xc0, 0x01, 0x00, 0x00, 0xc4, 0x01, 0x00, 0x00, 0x04, 0x00, 0x00, 0x00,
  0x6d, 0x61, 0x69, 0x6e, 0x00, 0x00, 0x00, 0x00, 0x07, 0x00, 0x00, 0x00,
  0x74, 0x01, 0x00, 0x00, 0x3c, 0x01, 0x00, 0x00, 0xdc, 0x00, 0x00, 0x00,
  0xa4, 0x00, 0x00, 0x00, 0x64, 0x00, 0x00, 0x00, 0x3c, 0x00, 0x00, 0x00,
  0x04, 0x00, 0x00, 0x00, 0x46, 0xff, 0xff, 0xff, 0x14, 0x00, 0x00, 0x00,
  0x00, 0x00, 0x00, 0x08, 0x10, 0x00, 0x00, 0x00, 0x14, 0x00, 0x00, 0x00,
  0x05, 0x00, 0x00, 0x00, 0x60, 0xfa, 0xff, 0xff, 0x01, 0x00, 0x00, 0x00,
  0x10, 0x00, 0x00, 0x00, 0x03, 0x00, 0x00, 0x00, 0x0f, 0x00, 0x00, 0x00,
  0x07, 0x00, 0x00, 0x00, 0x06, 0x00, 0x00, 0x00, 0x1a, 0xff, 0xff, 0xff,
  0x0c, 0x00, 0x00, 0x00, 0x10, 0x00, 0x00, 0x00, 0x01, 0x00, 0x00, 0x00,
  0x01, 0x00, 0x00, 0x00, 0x0f, 0x00, 0x00, 0x00, 0x02, 0x00, 0x00, 0x00,
  0x0e, 0x00, 0x00, 0x00, 0x03, 0x00, 0x00, 0x00, 0x9e, 0xff, 0xff, 0xff,
  0x1c, 0x00, 0x00, 0x00, 0x00, 0x00, 0x00, 0x1b, 0x1c, 0x00, 0x00, 0x00,
  0x20, 0x00, 0x00, 0x00, 0x04, 0x00, 0x00, 0x00, 0x00, 0x00, 0x06, 0x00,
  0x08, 0x00, 0x07, 0x00, 0x06, 0x00, 0x00, 0x00, 0x00, 0x00, 0x00, 0x01,
  0x01, 0x00, 0x00, 0x00, 0x0e, 0x00, 0x00, 0x00, 0x02, 0x00, 0x00, 0x00,
  0x0d, 0x00, 0x00, 0x00, 0x02, 0x00, 0x00, 0x00, 0x7a, 0xff, 0xff, 0xff,
  0x0c, 0x00, 0x00, 0x00, 0x10, 0x00, 0x00, 0x00, 0x03, 0x00, 0x00, 0x00,
  0x01, 0x00, 0x00, 0x00, 0x0d, 0x00, 0x00, 0x00, 0x02, 0x00, 0x00, 0x00,
  0x0c, 0x00, 0x00, 0x00, 0x01, 0x00, 0x00, 0x00, 0x00, 0x00, 0x0e, 0x00,
  0x18, 0x00, 0x14, 0x00, 0x10, 0x00, 0x0c, 0x00, 0x0b, 0x00, 0x04, 0x00,
  0x0e, 0x00, 0x00, 0x00, 0x20, 0x00, 0x00, 0x00, 0x00, 0x00, 0x00, 0x01,
  0x2c, 0x00, 0x00, 0x00, 0x30, 0x00, 0x00, 0x00, 0x02, 0x00, 0x00, 0x00,
  0x0c, 0x00, 0x14, 0x00, 0x13, 0x00, 0x0c, 0x00, 0x08, 0x00, 0x07, 0x00,
  0x0c, 0x00, 0x00, 0x00, 0x00, 0x00, 0x00, 0x01, 0x02, 0x00, 0x00, 0x00,
  0x02, 0x00, 0x00, 0x00, 0x00, 0x00, 0x00, 0x01, 0x01, 0x00, 0x00, 0x00,
  0x0c, 0x00, 0x00, 0x00, 0x03, 0x00, 0x00, 0x00, 0x0b, 0x00, 0x00, 0x00,
  0x08, 0x00, 0x00, 0x00, 0x05, 0x00, 0x00, 0x00, 0x00, 0x00, 0x0a, 0x00,
  0x10, 0x00, 0x0c, 0x00, 0x08, 0x00, 0x04, 0x00, 0x0a, 0x00, 0x00, 0x00,
  0x0c, 0x00, 0x00, 0x00, 0x10, 0x00, 0x00, 0x00, 0x01, 0x00, 0x00, 0x00,
  0x01, 0x00, 0x00, 0x00, 0x0b, 0x00, 0x00, 0x00, 0x02, 0x00, 0x00, 0x00,
  0x0a, 0x00, 0x00, 0x00, 0x09, 0x00, 0x00, 0x00, 0x00, 0x00, 0x0e, 0x00,
  0x14, 0x00, 0x00, 0x00, 0x10, 0x00, 0x0c, 0x00, 0x0b, 0x00, 0x04, 0x00,
  0x0e, 0x00, 0x00, 0x00, 0x10, 0x00, 0x00, 0x00, 0x00, 0x00, 0x00, 0x16,
  0x0c, 0x00, 0x00, 0x00, 0x10, 0x00, 0x00, 0x00, 0xb4, 0xfb, 0xff, 0xff,
  0x01, 0x00, 0x00, 0x00, 0x0a, 0x00, 0x00, 0x00, 0x02, 0x00, 0x00, 0x00,
  0x00, 0x00, 0x00, 0x00, 0x04, 0x00, 0x00, 0x00, 0x01, 0x00, 0x00, 0x00,
  0x10, 0x00, 0x00, 0x00, 0x01, 0x00, 0x00, 0x00, 0x00, 0x00, 0x00, 0x00,
  0x11, 0x00, 0x00, 0x00, 0x0c, 0x04, 0x00, 0x00, 0xbc, 0x03, 0x00, 0x00,
  0x78, 0x03, 0x00, 0x00, 0x3c, 0x03, 0x00, 0x00, 0x04, 0x03, 0x00, 0x00,
  0xd4, 0x02, 0x00, 0x00, 0xa4, 0x02, 0x00, 0x00, 0x70, 0x02, 0x00, 0x00,
  0x30, 0x02, 0x00, 0x00, 0xf8, 0x01, 0x00, 0x00, 0xc0, 0x01, 0x00, 0x00,
  0x7c, 0x01, 0x00, 0x00, 0x18, 0x01, 0x00, 0x00, 0xd8, 0x00, 0x00, 0x00,
  0x9c, 0x00, 0x00, 0x00, 0x44, 0x00, 0x00, 0x00, 0x04, 0x00, 0x00, 0x00,
  0x46, 0xfc, 0xff, 0xff, 0x10, 0x00, 0x00, 0x00, 0x10, 0x00, 0x00, 0x00,
  0x11, 0x00, 0x00, 0x00, 0x20, 0x00, 0x00, 0x00, 0x38, 0xfc, 0xff, 0xff,
  0x11, 0x00, 0x00, 0x00, 0x50, 0x61, 0x72, 0x74, 0x69, 0x74, 0x69, 0x6f,
  0x6e, 0x65, 0x64, 0x43, 0x61, 0x6c, 0x6c, 0x3a, 0x30, 0x00, 0x00, 0x00,
  0x02, 0x00, 0x00, 0x00, 0x01, 0x00, 0x00, 0x00, 0x02, 0x00, 0x00, 0x00,
  0x82, 0xfc, 0xff, 0xff, 0x10, 0x00, 0x00, 0x00, 0x10, 0x00, 0x00, 0x00,
  0x10, 0x00, 0x00, 0x00, 0x38, 0x00, 0x00, 0x00, 0x74, 0xfc, 0xff, 0xff,
  0x28, 0x00, 0x00, 0x00, 0x66, 0x6c, 0x61, 0x74, 0x74, 0x65, 0x6e, 0x2f,
  0x52, 0x65, 0x73, 0x68, 0x61, 0x70, 0x65, 0x3b, 0x6f, 0x6e, 0x6e, 0x78,
  0x5f, 0x74, 0x66, 0x5f, 0x70, 0x72, 0x65, 0x66, 0x69, 0x78, 0x5f, 0x52,
  0x65, 0x73, 0x68, 0x61, 0x70, 0x65, 0x5f, 0x33, 0x00, 0x00, 0x00, 0x00,
  0x02, 0x00, 0x00, 0x00, 0x01, 0x00, 0x00, 0x00, 0x40, 0x00, 0x00, 0x00,
  0xd6, 0xfc, 0xff, 0xff, 0x10, 0x00, 0x00, 0x00, 0x10, 0x00, 0x00, 0x00,
  0x0f, 0x00, 0x00, 0x00, 0x14, 0x00, 0x00, 0x00, 0xc8, 0xfc, 0xff, 0xff,
  0x04, 0x00, 0x00, 0x00, 0x4d, 0x65, 0x61, 0x6e, 0x00, 0x00, 0x00, 0x00,
  0x04, 0x00, 0x00, 0x00, 0x01, 0x00, 0x00, 0x00, 0x40, 0x00, 0x00, 0x00,
  0x01, 0x00, 0x00, 0x00, 0x01, 0x00, 0x00, 0x00, 0x0e, 0xfd, 0xff, 0xff,
  0x10, 0x00, 0x00, 0x00, 0x10, 0x00, 0x00, 0x00, 0x0e, 0x00, 0x00, 0x00,
  0x18, 0x00, 0x00, 0x00, 0x00, 0xfd, 0xff, 0xff, 0x0b, 0x00, 0x00, 0x00,
  0x74, 0x72, 0x61, 0x6e, 0x73, 0x70, 0x6f, 0x73, 0x65, 0x5f, 0x32, 0x00,
  0x04, 0x00, 0x00, 0x00, 0x01, 0x00, 0x00, 0x00, 0x40, 0x00, 0x00, 0x00,
  0x05, 0x00, 0x00, 0x00, 0x0b, 0x00, 0x00, 0x00, 0x4a, 0xfd, 0xff, 0xff,
  0x10, 0x00, 0x00, 0x00, 0x10, 0x00, 0x00, 0x00, 0x0d, 0x00, 0x00, 0x00,
  0x3c, 0x00, 0x00, 0x00, 0x3c, 0xfd, 0xff, 0xff, 0x2d, 0x00, 0x00, 0x00,
  0x6f, 0x6e, 0x6e, 0x78, 0x5f, 0x74, 0x66, 0x5f, 0x70, 0x72, 0x65, 0x66,
  0x69, 0x78, 0x5f, 0x52, 0x65, 0x6c, 0x75, 0x5f, 0x31, 0x3b, 0x41, 0x64,
  0x64, 0x3b, 0x63, 0x6f, 0x6e, 0x76, 0x6f, 0x6c, 0x75, 0x74, 0x69, 0x6f,
  0x6e, 0x3b, 0x43, 0x6f, 0x6e, 0x73, 0x74, 0x5f, 0x31, 0x00, 0x00, 0x00,
  0x04, 0x00, 0x00, 0x00, 0x01, 0x00, 0x00, 0x00, 0x05, 0x00, 0x00, 0x00,
  0x0b, 0x00, 0x00, 0x00, 0x40, 0x00, 0x00, 0x00, 0xaa, 0xfd, 0xff, 0xff,
  0x10, 0x00, 0x00, 0x00, 0x10, 0x00, 0x00, 0x00, 0x0c, 0x00, 0x00, 0x00,
  0x1c, 0x00, 0x00, 0x00, 0x9c, 0xfd, 0xff, 0xff, 0x0c, 0x00, 0x00, 0x00,
  0x74, 0x72, 0x61, 0x6e, 0x73, 0x70, 0x6f, 0x73, 0x65, 0x5f, 0x31, 0x31,
  0x00, 0x00, 0x00, 0x00, 0x04, 0x00, 0x00, 0x00, 0x01, 0x00, 0x00, 0x00,
  0x0c, 0x00, 0x00, 0x00, 0x18, 0x00, 0x00, 0x00, 0x01, 0x00, 0x00, 0x00,
  0xea, 0xfd, 0xff, 0xff, 0x10, 0x00, 0x00, 0x00, 0x10, 0x00, 0x00, 0x00,
  0x0b, 0x00, 0x00, 0x00, 0x10, 0x00, 0x00, 0x00, 0xdc, 0xfd, 0xff, 0xff,
  0x03, 0x00, 0x00, 0x00, 0x50, 0x61, 0x64, 0x00, 0x04, 0x00, 0x00, 0x00,
  0x01, 0x00, 0x00, 0x00, 0x01, 0x00, 0x00, 0x00, 0x0c, 0x00, 0x00, 0x00,
  0x18, 0x00, 0x00, 0x00, 0x6a, 0xfe, 0xff, 0xff, 0x14, 0x00, 0x00, 0x00,
  0x14, 0x00, 0x00, 0x00, 0x0a, 0x00, 0x00, 0x00, 0x00, 0x00, 0x00, 0x02,
  0x18, 0x00, 0x00, 0x00, 0x14, 0xfe, 0xff, 0xff, 0x0b, 0x00, 0x00, 0x00,
  0x74, 0x72, 0x61, 0x6e, 0x73, 0x70, 0x6f, 0x73, 0x65, 0x5f, 0x31, 0x00,
  0x01, 0x00, 0x00, 0x00, 0x04, 0x00, 0x00, 0x00, 0x52, 0xfe, 0xff, 0xff,
  0x10, 0x00, 0x00, 0x00, 0x10, 0x00, 0x00, 0x00, 0x09, 0x00, 0x00, 0x00,
  0x18, 0x00, 0x00, 0x00, 0x44, 0xfe, 0xff, 0xff, 0x0b, 0x00, 0x00, 0x00,
  0x63, 0x6f, 0x6e, 0x76, 0x6f, 0x6c, 0x75, 0x74, 0x69, 0x6f, 0x6e, 0x00,
  0x04, 0x00, 0x00, 0x00, 0x40, 0x00, 0x00, 0x00, 0x03, 0x00, 0x00, 0x00,
  0x03, 0x00, 0x00, 0x00, 0x01, 0x00, 0x00, 0x00, 0x8e, 0xfe, 0xff, 0xff,
  0x10, 0x00, 0x00, 0x00, 0x10, 0x00, 0x00, 0x00, 0x08, 0x00, 0x00, 0x00,
  0x14, 0x00, 0x00, 0x00, 0x80, 0xfe, 0xff, 0xff, 0x06, 0x00, 0x00, 0x00,
  0x4d, 0x61, 0x74, 0x4d, 0x75, 0x6c, 0x00, 0x00, 0x02, 0x00, 0x00, 0x00,
  0x02, 0x00, 0x00, 0x00, 0x40, 0x00, 0x00, 0x00, 0xbe, 0xfe, 0xff, 0xff,
  0x10, 0x00, 0x00, 0x00, 0x10, 0x00, 0x00, 0x00, 0x07, 0x00, 0x00, 0x00,
  0x14, 0x00, 0x00, 0x00, 0xb0, 0xfe, 0xff, 0xff, 0x07, 0x00, 0x00, 0x00,
  0x43, 0x6f, 0x6e, 0x73, 0x74, 0x5f, 0x34, 0x00, 0x01, 0x00, 0x00, 0x00,
  0x02, 0x00, 0x00, 0x00, 0xea, 0xfe, 0xff, 0xff, 0x10, 0x00, 0x00, 0x00,
  0x10, 0x00, 0x00, 0x00, 0x06, 0x00, 0x00, 0x00, 0x14, 0x00, 0x00, 0x00,
  0xdc, 0xfe, 0xff, 0xff, 0x07, 0x00, 0x00, 0x00, 0x43, 0x6f, 0x6e, 0x73,
  0x74, 0x5f, 0x31, 0x00, 0x01, 0x00, 0x00, 0x00, 0x40, 0x00, 0x00, 0x00,
  0x62, 0xff, 0xff, 0xff, 0x14, 0x00, 0x00, 0x00, 0x14, 0x00, 0x00, 0x00,
  0x05, 0x00, 0x00, 0x00, 0x00, 0x00, 0x00, 0x02, 0x14, 0x00, 0x00, 0x00,
  0x0c, 0xff, 0xff, 0xff, 0x05, 0x00, 0x00, 0x00, 0x43, 0x6f, 0x6e, 0x73,
  0x74, 0x00, 0x00, 0x00, 0x02, 0x00, 0x00, 0x00, 0x04, 0x00, 0x00, 0x00,
  0x02, 0x00, 0x00, 0x00, 0x96, 0xff, 0xff, 0xff, 0x14, 0x00, 0x00, 0x00,
  0x14, 0x00, 0x00, 0x00, 0x04, 0x00, 0x00, 0x00, 0x00, 0x00, 0x00, 0x02,
  0x1c, 0x00, 0x00, 0x00, 0x40, 0xff, 0xff, 0xff, 0x0d, 0x00, 0x00, 0x00,
  0x66, 0x6c, 0x61, 0x74, 0x74, 0x65, 0x6e, 0x2f, 0x43, 0x6f, 0x6e, 0x73,
  0x74, 0x00, 0x00, 0x00, 0x01, 0x00, 0x00, 0x00, 0x02, 0x00, 0x00, 0x00,
  0xce, 0xff, 0xff, 0xff, 0x14, 0x00, 0x00, 0x00, 0x14, 0x00, 0x00, 0x00,
  0x03, 0x00, 0x00, 0x00, 0x00, 0x00, 0x00, 0x02, 0x14, 0x00, 0x00, 0x00,
  0x78, 0xff, 0xff, 0xff, 0x07, 0x00, 0x00, 0x00, 0x73, 0x70, 0x6c, 0x69,
  0x74, 0x5f, 0x31, 0x00, 0x01, 0x00, 0x00, 0x00, 0x02, 0x00, 0x00, 0x00,
  0x00, 0x00, 0x0e, 0x00, 0x18, 0x00, 0x14, 0x00, 0x13, 0x00, 0x0c, 0x00,
  0x08, 0x00, 0x04, 0x00, 0x0e, 0x00, 0x00, 0x00, 0x14, 0x00, 0x00, 0x00,
  0x14, 0x00, 0x00, 0x00, 0x02, 0x00, 0x00, 0x00, 0x00, 0x00, 0x00, 0x02,
  0x20, 0x00, 0x00, 0x00, 0xb8, 0xff, 0xff, 0xff, 0x10, 0x00, 0x00, 0x00,
  0x74, 0x72, 0x61, 0x6e, 0x73, 0x70, 0x6f, 0x73, 0x65, 0x5f, 0x32, 0x2f,
  0x70, 0x65, 0x72, 0x6d, 0x00, 0x00, 0x00, 0x00, 0x01, 0x00, 0x00, 0x00,
  0x04, 0x00, 0x00, 0x00, 0x00, 0x00, 0x0e, 0x00, 0x14, 0x00, 0x10, 0x00,
  0x00, 0x00, 0x0c, 0x00, 0x08, 0x00, 0x04, 0x00, 0x0e, 0x00, 0x00, 0x00,
  0x14, 0x00, 0x00, 0x00, 0x14, 0x00, 0x00, 0x00, 0x01, 0x00, 0x00, 0x00,
  0x28, 0x00, 0x00, 0x00, 0x04, 0x00, 0x04, 0x00, 0x04, 0x00, 0x00, 0x00,
  0x17, 0x00, 0x00, 0x00, 0x73, 0x65, 0x72, 0x76, 0x69, 0x6e, 0x67, 0x5f,
  0x64, 0x65, 0x66, 0x61, 0x75, 0x6c, 0x74, 0x5f, 0x69, 0x6e, 0x70, 0x75,
  0x74, 0x3a, 0x30, 0x00, 0x04, 0x00, 0x00, 0x00, 0x01, 0x00, 0x00, 0x00,
  0x01, 0x00, 0x00, 0x00, 0x0a, 0x00, 0x00, 0x00, 0x16, 0x00, 0x00, 0x00,
  0x06, 0x00, 0x00, 0x00, 0x74, 0x00, 0x00, 0x00, 0x58, 0x00, 0x00, 0x00,
  0x44, 0x00, 0x00, 0x00, 0x28, 0x00, 0x00, 0x00, 0x18, 0x00, 0x00, 0x00,
  0x04, 0x00, 0x00, 0x00, 0xd8, 0xff, 0xff, 0xff, 0x09, 0x00, 0x00, 0x00,
  0x09, 0x00, 0x00, 0x00, 0x00, 0x00, 0x00, 0x09, 0xc0, 0xff, 0xff, 0xff,
  0x28, 0x00, 0x00, 0x00, 0x00, 0x00, 0x00, 0x28, 0xcc, 0xff, 0xff, 0xff,
  0x27, 0x00, 0x00, 0x00, 0x00, 0x00, 0x00, 0x27, 0x0c, 0x00, 0x10, 0x00,
  0x0f, 0x00, 0x00, 0x00, 0x08, 0x00, 0x04, 0x00, 0x0c, 0x00, 0x00, 0x00,
  0x03, 0x00, 0x00, 0x00, 0x05, 0x00, 0x00, 0x00, 0x00, 0x00, 0x00, 0x03,
  0xf4, 0xff, 0xff, 0xff, 0x16, 0x00, 0x00, 0x00, 0x00, 0x00, 0x00, 0x16,
  0x0c, 0x00, 0x0c, 0x00, 0x0b, 0x00, 0x00, 0x00, 0x00, 0x00, 0x04, 0x00,
  0x0c, 0x00, 0x00, 0x00, 0x22, 0x00, 0x00, 0x00, 0x00, 0x00, 0x00, 0x22
};
unsigned int results_seizure_binary_onelayer_checkpoint_poi_8_fold_5_mobilenet_s_onelayer_model_quant_dr_tflite_len = 5400;
