unsigned char results_seizure_binary_onelayer_checkpoint_poi_15_fold_7_mobilenet_s_onelayer_model_tflite[] = {
  0x1c, 0x00, 0x00, 0x00, 0x54, 0x46, 0x4c, 0x33, 0x14, 0x00, 0x20, 0x00,
  0x1c, 0x00, 0x18, 0x00, 0x14, 0x00, 0x10, 0x00, 0x0c, 0x00, 0x00, 0x00,
  0x08, 0x00, 0x04, 0x00, 0x14, 0x00, 0x00, 0x00, 0x1c, 0x00, 0x00, 0x00,
  0x80, 0x00, 0x00, 0x00, 0xb0, 0x00, 0x00, 0x00, 0x08, 0x0e, 0x00, 0x00,
  0x18, 0x0e, 0x00, 0x00, 0x60, 0x14, 0x00, 0x00, 0x03, 0x00, 0x00, 0x00,
  0x01, 0x00, 0x00, 0x00, 0x04, 0x00, 0x00, 0x00, 0x86, 0xf0, 0xff, 0xff,
  0x0c, 0x00, 0x00, 0x00, 0x1c, 0x00, 0x00, 0x00, 0x38, 0x00, 0x00, 0x00,
  0x0f, 0x00, 0x00, 0x00, 0x73, 0x65, 0x72, 0x76, 0x69, 0x6e, 0x67, 0x5f,
  0x64, 0x65, 0x66, 0x61, 0x75, 0x6c, 0x74, 0x00, 0x01, 0x00, 0x00, 0x00,
  0x04, 0x00, 0x00, 0x00, 0xc4, 0xff, 0xff, 0xff, 0x10, 0x00, 0x00, 0x00,
  0x04, 0x00, 0x00, 0x00, 0x06, 0x00, 0x00, 0x00, 0x6f, 0x75, 0x74, 0x70,
  0x75, 0x74, 0x00, 0x00, 0x01, 0x00, 0x00, 0x00, 0x04, 0x00, 0x00, 0x00,
  0x86, 0xf2, 0xff, 0xff, 0x04, 0x00, 0x00, 0x00, 0x05, 0x00, 0x00, 0x00,
  0x69, 0x6e, 0x70, 0x75, 0x74, 0x00, 0x00, 0x00, 0x01, 0x00, 0x00, 0x00,
  0x0c, 0x00, 0x00, 0x00, 0x08, 0x00, 0x0c, 0x00, 0x08, 0x00, 0x04, 0x00,
  0x08, 0x00, 0x00, 0x00, 0x12, 0x00, 0x00, 0x00, 0x04, 0x00, 0x00, 0x00,
  0x13, 0x00, 0x00, 0x00, 0x6d, 0x69, 0x6e, 0x5f, 0x72, 0x75, 0x6e, 0x74,
  0x69, 0x6d, 0x65, 0x5f, 0x76, 0x65, 0x72, 0x73, 0x69, 0x6f, 0x6e, 0x00,
  0x13, 0x00, 0x00, 0x00, 0x54, 0x0d, 0x00, 0x00, 0x4c, 0x0d, 0x00, 0x00,
  0x2c, 0x0d, 0x00, 0x00, 0x0c, 0x0d, 0x00, 0x00, 0xf4, 0x0c, 0x00, 0x00,
  0xc4, 0x0c, 0x00, 0x00, 0xb4, 0x0b, 0x00, 0x00, 0x9c, 0x0b, 0x00, 0x00,
  0x8c, 0x09, 0x00, 0x00, 0x7c, 0x00, 0x00, 0x00, 0x5c, 0x00, 0x00, 0x00,
  0x54, 0x00, 0x00, 0x00, 0x4c, 0x00, 0x00, 0x00, 0x44, 0x00, 0x00, 0x00,
  0x3c, 0x00, 0x00, 0x00, 0x34, 0x00, 0x00, 0x00, 0x2c, 0x00, 0x00, 0x00,
  0x24, 0x00, 0x00, 0x00, 0x04, 0x00, 0x00, 0x00, 0x1e, 0xf3, 0xff, 0xff,
  0x04, 0x00, 0x00, 0x00, 0x10, 0x00, 0x00, 0x00, 0x31, 0x2e, 0x36, 0x2e,
  0x30, 0x00, 0x00, 0x00, 0x00, 0x00, 0x00, 0x00, 0x00, 0x00, 0x00, 0x00,
  0xe8, 0xec, 0xff, 0xff, 0xec, 0xec, 0xff, 0xff, 0xf0, 0xec, 0xff, 0xff,
  0xf4, 0xec, 0xff, 0xff, 0xf8, 0xec, 0xff, 0xff, 0xfc, 0xec, 0xff, 0xff,
  0x00, 0xed, 0xff, 0xff, 0x56, 0xf3, 0xff, 0xff, 0x04, 0x00, 0x00, 0x00,
  0x10, 0x00, 0x00, 0x00, 0x01, 0x00, 0x00, 0x00, 0x0c, 0x00, 0x00, 0x00,
  0x18, 0x00, 0x00, 0x00, 0x01, 0x00, 0x00, 0x00, 0x72, 0xf3, 0xff, 0xff,
  0x04, 0x00, 0x00, 0x00, 0x00, 0x09, 0x00, 0x00, 0x7b, 0x6b, 0x0d, 0x3b,
  0xb2, 0xbf, 0x53, 0xbd, 0x3c, 0x8f, 0xf9, 0x3c, 0x71, 0x15, 0x54, 0xbc,
  0x7d, 0x5b, 0xbd, 0x3d, 0x36, 0x22, 0xb3, 0xbd, 0x59, 0xed, 0x7e, 0xbb,
  0x0d, 0x82, 0xb4, 0x3d, 0xaa, 0x2a, 0xaf, 0xbd, 0x87, 0x22, 0x8a, 0x3b,
  0x6e, 0x18, 0xa8, 0x3b, 0xea, 0x0c, 0x2b, 0x3c, 0x71, 0x73, 0xfe, 0xbb,
  0x57, 0x42, 0xad, 0x3b, 0xd3, 0x61, 0x4f, 0x3b, 0x7f, 0xda, 0xab, 0xbb,
  0x02, 0xb4, 0x85, 0x3c, 0xae, 0xb7, 0x0a, 0x3c, 0x4a, 0xa7, 0x71, 0x3b,
  0xa2, 0xfd, 0xa1, 0x3b, 0x29, 0x8f, 0x44, 0x3c, 0x48, 0x7c, 0xe6, 0xbb,
  0x95, 0xb9, 0x02, 0x3c, 0x34, 0x83, 0x39, 0xbb, 0x89, 0x15, 0xc0, 0x3b,
  0xdb, 0x23, 0xc2, 0x3b, 0x60, 0xc8, 0x1c, 0x3c, 0x11, 0x4e, 0x2a, 0xbd,
  0x1e, 0xb2, 0x59, 0x3c, 0xa8, 0x6b, 0xb6, 0x3c, 0xc8, 0x14, 0x65, 0x3d,
  0xec, 0xcb, 0x33, 0xbd, 0x37, 0x66, 0xd8, 0xbc, 0x98, 0x95, 0x47, 0x3d,
  0x65, 0x07, 0xd4, 0xbc, 0xce, 0x5e, 0x85, 0xbc, 0x9a, 0x16, 0x2a, 0x3b,
  0x71, 0x70, 0xbd, 0x3b, 0xa6, 0xa2, 0x4a, 0x3c, 0x9a, 0x8b, 0xcc, 0xbb,
  0x90, 0xa6, 0x26, 0x3b, 0x31, 0x2d, 0x0f, 0x3b, 0xb0, 0xac, 0xca, 0x3b,
  0x83, 0x7f, 0xbc, 0x3b, 0x3b, 0x9d, 0x0f, 0x3c, 0x0a, 0xe3, 0x3c, 0xbc,
  0x84, 0xf2, 0xad, 0xbc, 0x3c, 0x0c, 0x24, 0xb8, 0x39, 0x39, 0xc2, 0x3a,
  0x7c, 0x49, 0x3b, 0x3b, 0x09, 0x36, 0xf5, 0xbb, 0xdf, 0xff, 0xa8, 0x3a,
  0x59, 0x5d, 0x48, 0x3b, 0xaa, 0xa5, 0xa3, 0xbb, 0x88, 0x9a, 0x2c, 0x3b,
  0x61, 0xf1, 0x09, 0x3c, 0x32, 0xad, 0x1e, 0x3c, 0x81, 0x29, 0xe8, 0xbb,
  0xd5, 0xda, 0x2e, 0x3c, 0x5e, 0x94, 0xa3, 0xbb, 0xcd, 0x69, 0xbf, 0x3b,
  0x6e, 0x18, 0x23, 0x3c, 0x23, 0x0b, 0xa0, 0x3b, 0xf0, 0xe3, 0xc3, 0xba,
  0xff, 0x47, 0x95, 0x3b, 0x21, 0xc3, 0xfb, 0x3b, 0x07, 0xd1, 0x65, 0x3b,
  0xce, 0x66, 0x8a, 0x3b, 0xf4, 0x54, 0xdf, 0x3b, 0xd8, 0x54, 0xf6, 0x3b,
  0x44, 0xdb, 0x9d, 0x3b, 0xd8, 0xaa, 0xa6, 0x3b, 0x50, 0x3c, 0xb4, 0x3a,
  0x73, 0x7b, 0x66, 0x3c, 0x13, 0xb7, 0xb9, 0x3b, 0x64, 0x64, 0x80, 0xbb,
  0x64, 0x65, 0x6c, 0x3b, 0x8e, 0xe4, 0x80, 0x3a, 0x0a, 0xeb, 0x55, 0x3b,
  0xcb, 0x81, 0x45, 0x3c, 0xaf, 0x5c, 0x96, 0x3b, 0x94, 0x84, 0x14, 0xbd,
  0xf0, 0xff, 0x48, 0x3c, 0x22, 0xc0, 0x16, 0x3c, 0xe3, 0x93, 0x55, 0x3d,
  0x03, 0x99, 0x0a, 0xba, 0x7e, 0x4c, 0x7e, 0xbd, 0x4f, 0x3b, 0x81, 0x3d,
  0x90, 0x91, 0x0b, 0x3c, 0x27, 0x4e, 0x85, 0xbd, 0x3f, 0xa3, 0xa3, 0xba,
  0x8e, 0x37, 0x83, 0x3b, 0x76, 0xf0, 0xf0, 0x3b, 0x49, 0x09, 0x71, 0x3b,
  0x15, 0x31, 0x71, 0x3b, 0xd6, 0x87, 0xf6, 0x3b, 0xc0, 0x83, 0xef, 0x3b,
  0xf5, 0x4b, 0x7b, 0x3b, 0x9b, 0x32, 0xbe, 0x3b, 0x4e, 0x10, 0x4a, 0x3c,
  0xe0, 0xea, 0x13, 0x3c, 0xd5, 0xd1, 0x6d, 0x3c, 0x7f, 0xb0, 0x97, 0xb9,
  0xb2, 0x9e, 0x6a, 0x3c, 0x71, 0x46, 0x38, 0x3c, 0x3f, 0xf6, 0x43, 0xba,
  0x76, 0x34, 0xda, 0x3b, 0xf2, 0x1c, 0x14, 0x3c, 0xb9, 0x9c, 0x08, 0xbb,
  0x3d, 0xe9, 0xb8, 0xba, 0x18, 0x05, 0x3a, 0x3c, 0xbf, 0x47, 0x49, 0x3d,
  0x4c, 0xd9, 0x4d, 0xbd, 0xbd, 0x29, 0xcb, 0xbc, 0x07, 0x97, 0x84, 0x3d,
  0xa7, 0xcc, 0x0c, 0xbd, 0x37, 0xfe, 0xe4, 0xbc, 0xeb, 0x67, 0x3e, 0xbc,
  0xbc, 0x90, 0xa5, 0xbc, 0x0d, 0x4d, 0x6d, 0x37, 0x55, 0x96, 0xae, 0x3a,
  0xa3, 0xf5, 0x28, 0x3b, 0x43, 0x6f, 0xec, 0xbb, 0x06, 0xc5, 0x9a, 0x3a,
  0xc5, 0xd3, 0x69, 0x3b, 0xd8, 0x47, 0xaf, 0xbb, 0x27, 0x5a, 0x3d, 0xbc,
  0x94, 0xd1, 0xb1, 0xbc, 0x4a, 0xcc, 0x3d, 0x39, 0x03, 0x2b, 0xd7, 0x3a,
  0xb7, 0x8c, 0x38, 0x3b, 0x03, 0xe3, 0xf2, 0xbb, 0x7d, 0xb3, 0x8b, 0x3a,
  0x54, 0x65, 0x6d, 0x3b, 0x7b, 0xa6, 0xbf, 0xbb, 0x36, 0x43, 0xd8, 0xba,
  0x8b, 0x08, 0x91, 0x3b, 0x42, 0x68, 0xf5, 0x3b, 0x5e, 0x23, 0x65, 0x3b,
  0x1b, 0xb9, 0x89, 0x3b, 0x65, 0xff, 0xea, 0x3b, 0x14, 0x01, 0xf6, 0x3b,
  0x59, 0x93, 0xa2, 0x3b, 0xa4, 0xc7, 0xad, 0x3b, 0xd1, 0x02, 0x83, 0x3b,
  0x9e, 0x13, 0xca, 0x3b, 0xf0, 0xca, 0x45, 0xbc, 0xdc, 0x44, 0x8d, 0xbc,
  0x68, 0x32, 0x71, 0xbd, 0x46, 0x11, 0xaf, 0x3d, 0xb6, 0x72, 0xf5, 0x3a,
  0x81, 0x2c, 0x3c, 0xbd, 0xcb, 0x3e, 0x6f, 0x3c, 0x9e, 0x10, 0x8b, 0xb9,
  0x09, 0xb6, 0x5c, 0x3c, 0xcf, 0x38, 0x9d, 0x3b, 0x29, 0x92, 0x53, 0xba,
  0xce, 0x00, 0x35, 0x3c, 0x1b, 0x4d, 0xbf, 0xba, 0x0d, 0x79, 0x6c, 0xb9,
  0x29, 0x51, 0x8f, 0x3c, 0xa1, 0x84, 0xee, 0xba, 0x75, 0xee, 0x97, 0x3b,
  0xaa, 0x37, 0x93, 0x3c, 0xed, 0xac, 0xf8, 0xbc, 0x5c, 0x22, 0x66, 0x3d,
  0x4b, 0x61, 0x80, 0xbc, 0x37, 0x3b, 0x44, 0xbd, 0xa5, 0x9c, 0x78, 0x3d,
  0xa6, 0xb7, 0xf1, 0xbb, 0x01, 0xe3, 0x3e, 0xbd, 0xb7, 0xd4, 0x48, 0x3b,
  0x67, 0xee, 0xa7, 0x3b, 0x3b, 0xb2, 0x52, 0x3c, 0x63, 0x48, 0xb0, 0xbb,
  0xad, 0xdf, 0x6d, 0xba, 0xe0, 0xaa, 0xa0, 0x3b, 0xdd, 0x0b, 0xd1, 0xba,
  0x3e, 0xb9, 0x53, 0x3c, 0x34, 0xa8, 0x0d, 0x3c, 0xd8, 0x7a, 0x45, 0xbc,
  0x94, 0x2e, 0xa5, 0xbc, 0x58, 0x2c, 0x7f, 0xb9, 0xc6, 0x57, 0x85, 0x3a,
  0x94, 0xb7, 0x32, 0x3b, 0xb2, 0x31, 0xd6, 0xbb, 0x28, 0x8c, 0x65, 0x3a,
  0x1f, 0x08, 0x49, 0x3b, 0xe0, 0xb4, 0xac, 0xbb, 0x83, 0x6a, 0x16, 0x3b,
  0x31, 0xb3, 0x77, 0x3b, 0xbd, 0xba, 0x5a, 0x3c, 0xa3, 0x00, 0xcc, 0xbb,
  0x9b, 0x0b, 0x35, 0x3b, 0x2f, 0xec, 0x4a, 0x3b, 0x2f, 0xfe, 0xbf, 0x3b,
  0x60, 0x19, 0xe4, 0x3b, 0x47, 0x43, 0x11, 0x3c, 0x0c, 0x44, 0x43, 0x3b,
  0x59, 0x55, 0x2a, 0x3c, 0xdf, 0x01, 0xaf, 0x3b, 0xd1, 0xf9, 0x1a, 0xbc,
  0xab, 0x00, 0xa0, 0xbb, 0x67, 0x62, 0x7b, 0x3c, 0xa3, 0x44, 0xf4, 0xba,
  0xa4, 0x1e, 0x42, 0xba, 0x72, 0x32, 0xbd, 0x3c, 0x62, 0x6c, 0x30, 0xbd,
  0x8f, 0xbd, 0x83, 0x3b, 0xa1, 0x23, 0xee, 0x3c, 0x61, 0xab, 0xa4, 0x3d,
  0xc7, 0x41, 0x15, 0xbd, 0x2f, 0x1d, 0x0e, 0xbd, 0xea, 0x0c, 0xd3, 0x3c,
  0xea, 0x5a, 0x1e, 0xbd, 0x9a, 0xf7, 0x98, 0xbb, 0x90, 0x30, 0xe6, 0xbb,
  0xa4, 0x1d, 0xa4, 0x3c, 0x16, 0xb5, 0xca, 0xbb, 0x27, 0xe4, 0x8d, 0x3c,
  0x0e, 0xaa, 0x25, 0x3c, 0x5c, 0xf3, 0x02, 0xbd, 0x34, 0x92, 0xa5, 0x3c,
  0x05, 0xf0, 0x19, 0x3c, 0xd1, 0x4c, 0x15, 0xbd, 0x03, 0x13, 0xd8, 0x39,
  0xb9, 0x43, 0x85, 0x3b, 0x2f, 0x67, 0x8f, 0x3b, 0xf7, 0xe0, 0x5a, 0x39,
  0xf4, 0x10, 0x9b, 0xba, 0xc8, 0x21, 0x89, 0x3c, 0x77, 0x2a, 0xbc, 0x3b,
  0xc8, 0xf1, 0xfd, 0x3b, 0x03, 0x3e, 0x50, 0x3a, 0xff, 0xfb, 0x80, 0x3c,
  0x18, 0x66, 0xa6, 0x3b, 0xe0, 0x89, 0x9d, 0xbc, 0x13, 0xd7, 0x86, 0xbc,
  0xda, 0x9e, 0x9c, 0x3d, 0x96, 0x4b, 0x8c, 0xbd, 0xf8, 0x9b, 0x03, 0xbd,
  0x67, 0x82, 0xa2, 0x3d, 0x93, 0xec, 0xa0, 0xbd, 0x6f, 0xa7, 0x52, 0xba,
  0x3f, 0x8e, 0x82, 0x3b, 0x58, 0x91, 0x99, 0x3b, 0x3c, 0x32, 0x5a, 0x3a,
  0x46, 0x96, 0xc3, 0x3a, 0x28, 0x6c, 0x71, 0x3c, 0xba, 0x54, 0xc8, 0x3b,
  0x1b, 0xde, 0x0d, 0x3c, 0x4c, 0x71, 0xd2, 0xb9, 0x3b, 0x05, 0x13, 0xbb,
  0x9d, 0x49, 0xc6, 0x3b, 0x1d, 0x13, 0x14, 0x3c, 0x14, 0x43, 0x23, 0x3b,
  0x75, 0xd1, 0xb4, 0x3b, 0x9c, 0x40, 0xcb, 0x3b, 0xea, 0x97, 0x92, 0xba,
  0x17, 0x35, 0xf4, 0x3b, 0x24, 0xe1, 0xab, 0x3b, 0xc4, 0xae, 0xcb, 0xba,
  0xf3, 0x93, 0xae, 0x3b, 0x2c, 0xac, 0xe3, 0x3b, 0x37, 0x89, 0x57, 0x3b,
  0xb1, 0x7b, 0x84, 0x3b, 0x74, 0xc5, 0xd5, 0x3b, 0xb6, 0x10, 0xec, 0x3b,
  0x76, 0xa6, 0xaa, 0x3b, 0x31, 0xd6, 0x88, 0x3b, 0xfa, 0xf0, 0xdb, 0xbb,
  0x90, 0x37, 0xa0, 0x3c, 0xb6, 0x9c, 0xdf, 0xbb, 0x56, 0xd3, 0x7f, 0x3c,
  0xf8, 0xb3, 0x32, 0x3c, 0x52, 0x8b, 0xfc, 0xbc, 0x61, 0xbc, 0xaa, 0x3c,
  0xc5, 0x71, 0x9e, 0x3c, 0x15, 0x14, 0x4e, 0xbd, 0x1f, 0x1a, 0xf6, 0xbb,
  0x20, 0x8c, 0x2d, 0x3b, 0x57, 0x4f, 0xdc, 0x3a, 0xc5, 0xd7, 0x6f, 0xbb,
  0xea, 0x14, 0x1d, 0xbd, 0xd1, 0x18, 0x59, 0x3d, 0x36, 0x84, 0xd6, 0xbb,
  0xb2, 0xa8, 0x52, 0xbd, 0xe8, 0x1f, 0x91, 0x3d, 0x29, 0x79, 0xa7, 0xbc,
  0x5b, 0x46, 0xb5, 0xba, 0xd0, 0x91, 0xda, 0x3b, 0x55, 0x05, 0x63, 0x3d,
  0x2f, 0xfe, 0xa9, 0xbc, 0xf7, 0xef, 0x27, 0xbd, 0x4d, 0x6b, 0x76, 0x3d,
  0x31, 0x6a, 0x67, 0xbc, 0x1a, 0x68, 0x2c, 0xbd, 0x0a, 0xb4, 0xc5, 0xbb,
  0x90, 0x9a, 0x88, 0x3c, 0x46, 0x68, 0xbc, 0xbb, 0xb4, 0xab, 0xa8, 0x3c,
  0x6d, 0xcd, 0x02, 0x3b, 0xf3, 0xf6, 0xdd, 0xbc, 0xb5, 0x8c, 0xe9, 0x3c,
  0x57, 0x53, 0xdc, 0x3b, 0xca, 0x8f, 0x39, 0xbd, 0xbe, 0x6b, 0x11, 0xbd,
  0x4c, 0x49, 0x5d, 0x3c, 0x25, 0x51, 0x05, 0x3c, 0xa4, 0x2d, 0x3b, 0x3d,
  0x4e, 0x63, 0x35, 0x3c, 0x4c, 0x46, 0x8d, 0xbd, 0xdf, 0x27, 0x6c, 0x3d,
  0x74, 0x0c, 0xc5, 0x3c, 0x49, 0x8c, 0x94, 0xbd, 0x46, 0x03, 0x50, 0x3a,
  0x17, 0x67, 0x6e, 0x3c, 0xb8, 0x7e, 0x43, 0x3b, 0x06, 0xd2, 0x6f, 0xba,
  0x4a, 0xb8, 0x41, 0x3c, 0x62, 0x81, 0x7b, 0xbb, 0x07, 0x0f, 0x4a, 0x3a,
  0x1c, 0xf8, 0x9e, 0x3c, 0x05, 0x60, 0xa9, 0xbb, 0xae, 0xa4, 0x8c, 0x3b,
  0x51, 0xa4, 0xda, 0x3b, 0x9c, 0x12, 0x13, 0x3c, 0x75, 0xd9, 0x38, 0xbc,
  0x90, 0x60, 0xe2, 0xbb, 0xa9, 0x87, 0x0d, 0xbd, 0x3d, 0xef, 0x7f, 0x3c,
  0xe6, 0xc5, 0x1e, 0xbb, 0x08, 0xc1, 0x90, 0xbb, 0xef, 0x9f, 0x18, 0x3b,
  0xa9, 0xcc, 0x9b, 0x3b, 0x6e, 0x13, 0x52, 0x3c, 0x93, 0xb7, 0xb7, 0xbb,
  0x35, 0xba, 0xc8, 0x3a, 0x09, 0xee, 0x6a, 0x3b, 0x1d, 0x2b, 0xbc, 0x3b,
  0xce, 0xcb, 0xa5, 0x3b, 0xd6, 0x75, 0x1c, 0x3c, 0xdc, 0x3f, 0xe1, 0xba,
  0x8e, 0xb4, 0x92, 0x3b, 0x0b, 0xd0, 0x00, 0x3c, 0xab, 0xdf, 0x82, 0x3b,
  0x63, 0x77, 0x91, 0x3b, 0xca, 0xa0, 0xf0, 0x3b, 0x9b, 0x0a, 0x00, 0x3c,
  0x06, 0xd4, 0x99, 0x3b, 0x06, 0x18, 0xa8, 0x3b, 0xc4, 0xb2, 0x34, 0xbc,
  0x15, 0x4a, 0xa3, 0xbc, 0x7b, 0x76, 0x24, 0x38, 0x41, 0x7a, 0x4d, 0x3a,
  0x73, 0xaf, 0x27, 0x3b, 0xdf, 0x1f, 0xe5, 0xbb, 0x98, 0x4e, 0x9b, 0x3a,
  0xe8, 0x46, 0x68, 0x3b, 0x4b, 0x49, 0xac, 0xbb, 0xe8, 0xb2, 0x63, 0x3b,
  0xb7, 0xfb, 0x2a, 0xbb, 0x32, 0x9a, 0x33, 0x3c, 0x7d, 0x12, 0xaa, 0xbc,
  0x04, 0x8a, 0xa9, 0xbd, 0x5e, 0x36, 0x94, 0x3d, 0x8e, 0xc0, 0x51, 0xbc,
  0x3b, 0x60, 0x9e, 0xbd, 0xdb, 0x5a, 0x97, 0x3d, 0x8d, 0x74, 0xed, 0xba,
  0x9e, 0x6e, 0x4c, 0x3b, 0xb8, 0x12, 0xfb, 0x3b, 0x2b, 0x88, 0x83, 0x3b,
  0xdf, 0x2a, 0x74, 0x3b, 0xb8, 0x81, 0xcd, 0x3b, 0xc9, 0xde, 0xd9, 0x3b,
  0x7e, 0xca, 0x7e, 0x3b, 0x26, 0x8f, 0x86, 0x3b, 0x39, 0x46, 0x10, 0xbd,
  0x7e, 0xb9, 0x09, 0x3c, 0x27, 0x16, 0x56, 0x3c, 0xf9, 0xc7, 0x62, 0x3d,
  0xf2, 0x4a, 0x3c, 0xbc, 0x9b, 0xb8, 0x58, 0xbd, 0x26, 0x83, 0x77, 0x3d,
  0x41, 0x28, 0x00, 0xbb, 0x32, 0x40, 0x5b, 0xbd, 0xcf, 0x88, 0x2d, 0xba,
  0x42, 0x8e, 0x1e, 0x3c, 0xa6, 0x57, 0xa1, 0x3b, 0x17, 0xa0, 0x98, 0x3a,
  0x9d, 0x7c, 0xec, 0xb9, 0x6a, 0x9a, 0x7c, 0xbc, 0xe8, 0x2c, 0x74, 0x3b,
  0xf9, 0xf3, 0x2d, 0xbb, 0x20, 0x06, 0xcf, 0xbb, 0xee, 0x7c, 0x0d, 0xbb,
  0x8e, 0x98, 0x13, 0x3c, 0x5c, 0x2f, 0xed, 0x3b, 0x7c, 0xe9, 0xdb, 0x3a,
  0xa9, 0xd6, 0x0b, 0x3c, 0x64, 0xcb, 0x5e, 0x3b, 0x96, 0x6f, 0x8e, 0xba,
  0xca, 0xdd, 0x3b, 0x3c, 0x63, 0xd0, 0xcf, 0x3a, 0xdc, 0x22, 0x0b, 0x3b,
  0xb2, 0x19, 0xa5, 0x39, 0xef, 0xc6, 0xc8, 0x39, 0x19, 0x21, 0x65, 0xbc,
  0x64, 0xdd, 0x66, 0xbd, 0x53, 0x32, 0x80, 0x3d, 0x47, 0x68, 0x1e, 0xbc,
  0x6b, 0x70, 0x68, 0xbd, 0xa3, 0xa7, 0x35, 0x3d, 0xb2, 0x0e, 0xe3, 0xbb,
  0x93, 0x77, 0x12, 0x3c, 0x21, 0xec, 0x72, 0x3b, 0x12, 0x60, 0xca, 0x3c,
  0x81, 0xbf, 0x76, 0x3b, 0x2c, 0xf3, 0x0d, 0xbd, 0xd1, 0x80, 0xf3, 0x3c,
  0xe7, 0x86, 0x90, 0x37, 0x45, 0x60, 0x17, 0xbd, 0x53, 0xaa, 0x6f, 0x3b,
  0xd2, 0x8b, 0x39, 0x3c, 0xdd, 0x44, 0x9d, 0x3b, 0x0f, 0xaa, 0x38, 0xbc,
  0x20, 0xd6, 0x95, 0x3b, 0x3a, 0xf2, 0x39, 0xbd, 0x1b, 0xd5, 0x83, 0x3c,
  0x95, 0x29, 0x7c, 0x3c, 0xfa, 0x06, 0xc8, 0xbc, 0x4c, 0x31, 0x1f, 0x3b,
  0x5c, 0x02, 0x6f, 0x3c, 0x64, 0x47, 0x37, 0x3b, 0x3a, 0x97, 0xde, 0xbb,
  0x6f, 0x96, 0x4f, 0x3c, 0xe6, 0xab, 0xbc, 0xbb, 0x74, 0xdf, 0xb7, 0x3b,
  0x3b, 0x59, 0xab, 0x3c, 0x83, 0x03, 0xba, 0xbb, 0xe2, 0xc7, 0xf0, 0x3b,
  0xe9, 0x49, 0x1b, 0x3b, 0x99, 0x60, 0x5b, 0xbc, 0x28, 0x5c, 0xa2, 0xbc,
  0xf4, 0x13, 0xa2, 0xbc, 0x14, 0x99, 0x64, 0x3d, 0x7d, 0x66, 0x82, 0x3b,
  0x37, 0xbb, 0xd1, 0xbc, 0xf1, 0xe2, 0xe6, 0xbb, 0x9f, 0xd6, 0x0c, 0x3d,
  0x8f, 0xe3, 0x49, 0x3c, 0xa1, 0x1f, 0x2a, 0xbd, 0x17, 0xa2, 0x0c, 0x3d,
  0x00, 0x32, 0xb8, 0xbc, 0xbd, 0x66, 0x05, 0xbd, 0xa5, 0xd8, 0x3a, 0x3d,
  0xed, 0xec, 0x04, 0xbc, 0xa8, 0x2f, 0xd9, 0xbc, 0x4a, 0x1b, 0x08, 0x3b,
  0x43, 0x68, 0x42, 0x3c, 0x19, 0x1a, 0xa1, 0x3b, 0x18, 0xaf, 0x12, 0xbc,
  0xc1, 0xde, 0x9f, 0x39, 0x8c, 0x46, 0x0f, 0x3c, 0x1e, 0x3b, 0x62, 0xba,
  0x9a, 0x53, 0xbe, 0x3b, 0xc6, 0x54, 0x87, 0x3c, 0x3a, 0x25, 0x81, 0x3a,
  0xd1, 0xe1, 0x38, 0x3b, 0x53, 0x88, 0x13, 0x3a, 0x4b, 0x5a, 0xdf, 0x39,
  0xe5, 0x8e, 0xfd, 0xb9, 0x99, 0x91, 0xba, 0x3b, 0x3d, 0x05, 0x0a, 0xbc,
  0x71, 0xc5, 0xb9, 0xbc, 0x2c, 0x7d, 0x02, 0x3b, 0x19, 0x15, 0x2f, 0xbc,
  0x30, 0x24, 0x8b, 0x3c, 0x34, 0x9e, 0x5d, 0xbb, 0xf5, 0x7d, 0x93, 0x3c,
  0xf2, 0xd8, 0x17, 0x3c, 0xed, 0x68, 0xf9, 0xbc, 0x0f, 0x7e, 0xc4, 0x3c,
  0xea, 0x81, 0x7d, 0x3c, 0x1f, 0x4c, 0x4b, 0xbd, 0xe5, 0x47, 0x3e, 0x3b,
  0x34, 0x20, 0x2a, 0x3c, 0x87, 0x3c, 0x70, 0x3b, 0x09, 0x0a, 0x20, 0xbc,
  0xe4, 0x3b, 0x5e, 0xbc, 0x02, 0x9b, 0xe2, 0x3c, 0x85, 0x19, 0x83, 0xbb,
  0x5b, 0x3d, 0x61, 0xbc, 0xf9, 0x0b, 0x15, 0x3d, 0x2d, 0x81, 0x10, 0x3b,
  0x7b, 0x9c, 0x8a, 0x3b, 0x89, 0x97, 0x6c, 0x3c, 0xc1, 0xc4, 0xdc, 0xbb,
  0x8c, 0x3d, 0x28, 0x3b, 0x81, 0x68, 0x71, 0x3b, 0x63, 0x6a, 0xc0, 0x3b,
  0x96, 0x8b, 0xc1, 0x3b, 0xfe, 0xe5, 0x17, 0x3c, 0x00, 0xb4, 0x24, 0x3d,
  0x4c, 0x69, 0x83, 0x3c, 0xd3, 0x9f, 0x56, 0xbd, 0x4f, 0x95, 0x17, 0x3d,
  0xe2, 0xb7, 0xb6, 0xbc, 0x6c, 0xc2, 0x09, 0xbd, 0xdb, 0x54, 0x3e, 0x3d,
  0x9e, 0xfd, 0x11, 0xbc, 0x05, 0xe7, 0xd3, 0xbc, 0x43, 0xbf, 0x7e, 0xba,
  0x8d, 0x05, 0x63, 0x3c, 0x61, 0x4a, 0x5b, 0x3b, 0xdb, 0x03, 0xc9, 0x3a,
  0x99, 0x4f, 0x83, 0x3c, 0x3b, 0xef, 0xbf, 0xbb, 0x9f, 0x56, 0xb3, 0xb9,
  0xe0, 0x51, 0xbc, 0x3c, 0x8f, 0x3e, 0x0f, 0xbc, 0xf2, 0xa8, 0x0c, 0x3c,
  0x09, 0x8b, 0x03, 0x3b, 0x59, 0x44, 0x8a, 0xbc, 0x70, 0xd1, 0xc7, 0xbc,
  0xae, 0x14, 0x8e, 0x3d, 0x41, 0x28, 0xb8, 0xbc, 0xc4, 0xfb, 0x16, 0xbb,
  0x61, 0xce, 0x06, 0x3d, 0x31, 0x20, 0x93, 0xbd, 0xac, 0x27, 0x2f, 0xbd,
  0x25, 0x28, 0x8b, 0x3c, 0x55, 0x1f, 0xc7, 0x3c, 0x61, 0xd9, 0x7f, 0x3d,
  0xf1, 0xb0, 0x5c, 0xbd, 0x82, 0x74, 0xe7, 0xbc, 0x74, 0xb7, 0x5a, 0x3d,
  0x82, 0x8d, 0xb3, 0xbc, 0x62, 0xd5, 0xe4, 0xbc, 0x5f, 0x41, 0xf9, 0xbb,
  0x32, 0x3c, 0xd4, 0xbb, 0x33, 0xc9, 0x4c, 0x3c, 0xf7, 0x1a, 0x9e, 0x3d,
  0xa3, 0x3d, 0x1a, 0xbd, 0x91, 0xdf, 0x17, 0xbd, 0x79, 0xc8, 0xa0, 0x3c,
  0x34, 0x2b, 0x16, 0xbd, 0x46, 0xdb, 0xc9, 0xbb, 0x29, 0x8a, 0x10, 0x3c,
  0x61, 0xce, 0x02, 0x3c, 0x79, 0xc2, 0x13, 0xbb, 0x1c, 0xf0, 0xa3, 0xba,
  0xe3, 0xda, 0x1a, 0xbc, 0x96, 0x53, 0x4a, 0xbc, 0xea, 0x5d, 0xf9, 0x3b,
  0x05, 0x07, 0x0e, 0xbc, 0x45, 0xe7, 0x13, 0xbc, 0x85, 0x30, 0xf6, 0x3b,
  0x1a, 0xa9, 0x81, 0xbb, 0xf0, 0x58, 0x29, 0xbc, 0xf7, 0xeb, 0xa4, 0xbc,
  0x80, 0xff, 0x1e, 0x3c, 0x34, 0x3a, 0x22, 0x3d, 0x4d, 0x6f, 0xd0, 0x3b,
  0xf8, 0xb2, 0x06, 0xbd, 0x51, 0xe0, 0x59, 0xbc, 0x37, 0x9c, 0x52, 0xbb,
  0x99, 0x13, 0x40, 0xbd, 0x9f, 0x75, 0xdf, 0x3c, 0x00, 0xcf, 0x44, 0xbc,
  0x15, 0x28, 0x90, 0x3d, 0xfe, 0x7f, 0x9c, 0xbd, 0x5c, 0xee, 0x80, 0x39,
  0xf1, 0xf7, 0xa4, 0x3d, 0x8f, 0x9c, 0x9b, 0xbd, 0x7e, 0xfc, 0xff, 0xff,
  0x04, 0x00, 0x00, 0x00, 0x00, 0x02, 0x00, 0x00, 0x11, 0xb6, 0x5c, 0x3f,
  0xb9, 0x63, 0x47, 0xbf, 0x31, 0x04, 0x13, 0xbf, 0xc6, 0xaf, 0x66, 0x3f,
  0x5a, 0x01, 0x39, 0xbf, 0x3c, 0xed, 0x3d, 0x3f, 0x25, 0xe2, 0x16, 0xbf,
  0xf6, 0x01, 0x08, 0xbf, 0x9c, 0x4f, 0x79, 0xbf, 0xd9, 0xb4, 0x77, 0x3f,
  0x0b, 0x7b, 0xac, 0xbe, 0x34, 0xf4, 0x66, 0x41, 0xfe, 0x1a, 0xd8, 0x3f,
  0xb5, 0x02, 0x21, 0x3f, 0xc3, 0x0a, 0x3b, 0x3f, 0x37, 0x5d, 0xa5, 0xbe,
  0x71, 0x16, 0xb2, 0x3f, 0x75, 0x92, 0xa7, 0xbf, 0x44, 0x04, 0x6b, 0x3f,
  0x25, 0x37, 0x46, 0xbf, 0xa0, 0x88, 0x1e, 0x3f, 0x47, 0x4c, 0x60, 0xbf,
  0x2e, 0xf0, 0x73, 0xbf, 0x69, 0xf7, 0xb9, 0x3f, 0xa3, 0xac, 0xb6, 0xbe,
  0x54, 0x60, 0xeb, 0xbe, 0xe6, 0xc3, 0x07, 0x40, 0xd2, 0x98, 0xe2, 0xbe,
  0x03, 0x34, 0x59, 0xbf, 0x2e, 0x35, 0xce, 0xbe, 0x19, 0xdd, 0x72, 0xbe,
  0x6f, 0x9b, 0x57, 0xbf, 0xdc, 0x4b, 0x94, 0x3f, 0x18, 0x7b, 0x49, 0xbe,
  0x15, 0xdd, 0x6f, 0x3f, 0xdf, 0x28, 0x73, 0xbf, 0xbf, 0xe4, 0x83, 0x3f,
  0x33, 0xab, 0x6f, 0xbf, 0xe3, 0x51, 0xf9, 0xbe, 0x2b, 0xfc, 0x2e, 0x3f,
  0x31, 0x7b, 0x06, 0x40, 0x37, 0xbf, 0xf4, 0xbe, 0xad, 0xdc, 0x68, 0x3f,
  0x84, 0x63, 0x91, 0xbe, 0xa1, 0x38, 0x82, 0xbf, 0x45, 0x26, 0xf5, 0x3f,
  0x63, 0x5b, 0xbd, 0xbe, 0x2b, 0x99, 0x88, 0x3f, 0x21, 0xc2, 0x56, 0xbf,
  0xdd, 0xac, 0xcb, 0x3f, 0x83, 0x8d, 0x72, 0x3f, 0x15, 0xf1, 0x64, 0xbf,
  0x6a, 0xc8, 0xa1, 0x3f, 0xbe, 0xa5, 0x7e, 0xbe, 0xda, 0xd3, 0x68, 0xbf,
  0xc4, 0xcc, 0x66, 0xbf, 0xbf, 0x97, 0x7a, 0x3f, 0x1a, 0xcf, 0x9d, 0xbf,
  0x7c, 0xc1, 0x06, 0x40, 0x2e, 0xaa, 0x6e, 0x3f, 0x29, 0xd6, 0x00, 0x40,
  0xf5, 0xcb, 0x02, 0xbf, 0x2f, 0xd8, 0xb0, 0x3f, 0x41, 0x7a, 0x63, 0x3f,
  0x8e, 0xae, 0x5b, 0xbf, 0x5b, 0xb1, 0x74, 0x3f, 0x6d, 0xf9, 0x1c, 0x3f,
  0xe2, 0x57, 0x7c, 0xbf, 0x51, 0xbb, 0x5f, 0x3f, 0xb0, 0xb6, 0x1a, 0xbf,
  0xe6, 0xe7, 0x19, 0x3f, 0xd3, 0x1f, 0xa6, 0x3e, 0x5f, 0x99, 0x80, 0x3f,
  0xa9, 0x52, 0x7c, 0xbf, 0x80, 0xda, 0x08, 0x3f, 0xe1, 0x26, 0x66, 0xc1,
  0x6c, 0xe8, 0xd8, 0xbf, 0x70, 0x3b, 0x4c, 0xbf, 0xb1, 0xf6, 0x2b, 0xbf,
  0x0a, 0xfa, 0x06, 0x3f, 0x73, 0xa2, 0xae, 0xbf, 0x7f, 0x2d, 0xa8, 0x3f,
  0xf6, 0xc5, 0x89, 0xbf, 0x58, 0x72, 0x29, 0x3f, 0x1e, 0x6b, 0x45, 0xbf,
  0x13, 0x7c, 0x42, 0x3f, 0x04, 0x95, 0x68, 0x3f, 0x48, 0x10, 0xb2, 0xbf,
  0x97, 0x0c, 0x48, 0x3e, 0xeb, 0x5c, 0xf7, 0x3e, 0xb1, 0x69, 0x03, 0xc0,
  0x3a, 0xda, 0xe0, 0x3e, 0xad, 0x1f, 0x6b, 0x3f, 0x2a, 0xc9, 0xfe, 0x3e,
  0x1a, 0xb2, 0x9f, 0x3e, 0xde, 0xb4, 0x51, 0x3f, 0xda, 0x45, 0x8f, 0xbf,
  0x43, 0xa1, 0xb9, 0x3e, 0x46, 0xbf, 0x76, 0xbf, 0xfa, 0xc5, 0x8c, 0x3f,
  0x86, 0x8e, 0x57, 0xbf, 0x85, 0x15, 0x4e, 0x3f, 0xe5, 0xf4, 0xbd, 0x3e,
  0x7b, 0x7b, 0x40, 0xbf, 0xac, 0xa5, 0x04, 0xc0, 0x49, 0x46, 0xe0, 0x3e,
  0xbb, 0x2a, 0x6f, 0xbf, 0xc6, 0x1c, 0x8a, 0x3e, 0x87, 0xb6, 0x95, 0x3f,
  0x6e, 0xdf, 0xf7, 0xbf, 0xf4, 0x77, 0x8d, 0x3e, 0x59, 0xac, 0x94, 0xbf,
  0xe6, 0x3d, 0x78, 0x3f, 0x25, 0x22, 0xd5, 0xbf, 0x60, 0x8a, 0x71, 0xbf,
  0xc3, 0xea, 0x7e, 0x3f, 0x8b, 0x5b, 0xae, 0xbf, 0x0e, 0x19, 0x99, 0x3e,
  0x8d, 0x63, 0x85, 0x3f, 0x48, 0x0d, 0x47, 0x3f, 0xe9, 0x6e, 0x49, 0xbf,
  0xac, 0x06, 0xa1, 0x3f, 0xd1, 0xc2, 0xfc, 0xbf, 0x15, 0xe7, 0x84, 0xbf,
  0xc3, 0x37, 0xf0, 0xbf, 0x21, 0x05, 0x05, 0x3f, 0x81, 0x86, 0xbe, 0xbf,
  0xe5, 0x3d, 0x31, 0xbf, 0x8a, 0xfe, 0xff, 0xff, 0x04, 0x00, 0x00, 0x00,
  0x08, 0x00, 0x00, 0x00, 0xe0, 0xa3, 0x9c, 0xbf, 0xac, 0xa2, 0x97, 0x3f,
  0x9e, 0xfe, 0xff, 0xff, 0x04, 0x00, 0x00, 0x00, 0x00, 0x01, 0x00, 0x00,
  0x00, 0x0b, 0x03, 0xbd, 0xff, 0x87, 0x1b, 0xc0, 0x68, 0xa0, 0x04, 0xc0,
  0xa4, 0x82, 0xac, 0xbd, 0x5e, 0x8a, 0x10, 0xc0, 0x4f, 0x6f, 0x2d, 0x3f,
  0x9f, 0x3b, 0x04, 0xc0, 0xe1, 0x57, 0xcc, 0xbf, 0x02, 0xb1, 0x23, 0xc0,
  0xb8, 0xd7, 0x25, 0xbe, 0x7e, 0x33, 0xc5, 0xbf, 0xac, 0xc9, 0xfb, 0xc0,
  0x47, 0xc5, 0xd3, 0xbe, 0x67, 0x71, 0x2a, 0x3f, 0x18, 0x72, 0x36, 0x3f,
  0xaa, 0xf9, 0xcd, 0xbf, 0xb0, 0x3c, 0xb0, 0xbd, 0x2d, 0x98, 0x2a, 0xc0,
  0x14, 0xa3, 0x63, 0xbe, 0xd1, 0x81, 0x0f, 0xc0, 0xfc, 0xd8, 0x30, 0x3f,
  0x7a, 0x7a, 0x17, 0xc0, 0x9a, 0x13, 0x1d, 0xc0, 0x08, 0x7e, 0x02, 0xbe,
  0x32, 0x3d, 0x11, 0x3f, 0x90, 0x15, 0xc3, 0xbf, 0xd0, 0x53, 0xfa, 0xbe,
  0x3b, 0x28, 0xbb, 0xbf, 0x4c, 0xdc, 0x13, 0xc0, 0xd4, 0xd8, 0xc8, 0xbf,
  0xf1, 0x10, 0x21, 0x3f, 0xba, 0xb0, 0xe0, 0xbf, 0x90, 0x88, 0x6e, 0xbd,
  0xec, 0xb4, 0x2a, 0x3f, 0xd8, 0x23, 0x48, 0xbe, 0x9e, 0x20, 0x1e, 0xc0,
  0xca, 0x1b, 0x34, 0xbe, 0x80, 0xc7, 0x11, 0xc0, 0xd5, 0x9e, 0xcf, 0xbf,
  0x71, 0xda, 0x26, 0x3f, 0xa3, 0xaf, 0x3b, 0xbf, 0x0c, 0x28, 0xad, 0xbf,
  0xa0, 0xd2, 0x0d, 0xbd, 0xa6, 0x37, 0xa7, 0x3e, 0xba, 0x25, 0x1e, 0xc0,
  0xc0, 0x0e, 0x44, 0xbe, 0xee, 0x99, 0x0f, 0x3f, 0xaf, 0x13, 0x86, 0xbe,
  0x30, 0xcb, 0x15, 0xc0, 0x60, 0x2e, 0x34, 0x3d, 0x04, 0xcf, 0xe1, 0xbe,
  0x29, 0x0b, 0x1c, 0xc0, 0x00, 0x8e, 0xe4, 0xbc, 0xab, 0x11, 0x2a, 0x3f,
  0x9b, 0x5f, 0x1b, 0xc0, 0xa8, 0x70, 0x19, 0xc0, 0x96, 0xc2, 0xdd, 0xbe,
  0xed, 0xb6, 0x24, 0xc0, 0xf8, 0x25, 0x33, 0xbe, 0xaa, 0x9c, 0x38, 0xbe,
  0x90, 0xe2, 0x4f, 0xbe, 0x5b, 0xff, 0xc7, 0x3e, 0xc0, 0xce, 0x0e, 0x3c,
  0xc0, 0x17, 0x9b, 0x3c, 0xaa, 0xff, 0xff, 0xff, 0x04, 0x00, 0x00, 0x00,
  0x20, 0x00, 0x00, 0x00, 0x00, 0x00, 0x00, 0x00, 0x00, 0x00, 0x00, 0x00,
  0x00, 0x00, 0x00, 0x00, 0x00, 0x00, 0x00, 0x00, 0x01, 0x00, 0x00, 0x00,
  0x01, 0x00, 0x00, 0x00, 0x01, 0x00, 0x00, 0x00, 0x01, 0x00, 0x00, 0x00,
  0xd6, 0xff, 0xff, 0xff, 0x04, 0x00, 0x00, 0x00, 0x08, 0x00, 0x00, 0x00,
  0xff, 0xff, 0xff, 0xff, 0x40, 0x00, 0x00, 0x00, 0xea, 0xff, 0xff, 0xff,
  0x04, 0x00, 0x00, 0x00, 0x08, 0x00, 0x00, 0x00, 0x02, 0x00, 0x00, 0x00,
  0x03, 0x00, 0x00, 0x00, 0x00, 0x00, 0x06, 0x00, 0x08, 0x00, 0x04, 0x00,
  0x06, 0x00, 0x00, 0x00, 0x04, 0x00, 0x00, 0x00, 0x10, 0x00, 0x00, 0x00,
  0x00, 0x00, 0x00, 0x00, 0x03, 0x00, 0x00, 0x00, 0x01, 0x00, 0x00, 0x00,
  0x02, 0x00, 0x00, 0x00, 0xd0, 0xf9, 0xff, 0xff, 0xd4, 0xf9, 0xff, 0xff,
  0x0f, 0x00, 0x00, 0x00, 0x4d, 0x4c, 0x49, 0x52, 0x20, 0x43, 0x6f, 0x6e,
  0x76, 0x65, 0x72, 0x74, 0x65, 0x64, 0x2e, 0x00, 0x01, 0x00, 0x00, 0x00,
  0x14, 0x00, 0x00, 0x00, 0x00, 0x00, 0x0e, 0x00, 0x18, 0x00, 0x14, 0x00,
  0x10, 0x00, 0x0c, 0x00, 0x08, 0x00, 0x04, 0x00, 0x0e, 0x00, 0x00, 0x00,
  0x14, 0x00, 0x00, 0x00, 0x1c, 0x00, 0x00, 0x00, 0xbc, 0x01, 0x00, 0x00,
  0xc0, 0x01, 0x00, 0x00, 0xc4, 0x01, 0x00, 0x00, 0x04, 0x00, 0x00, 0x00,
  0x6d, 0x61, 0x69, 0x6e, 0x00, 0x00, 0x00, 0x00, 0x07, 0x00, 0x00, 0x00,
  0x74, 0x01, 0x00, 0x00, 0x3c, 0x01, 0x00, 0x00, 0xdc, 0x00, 0x00, 0x00,
  0xa4, 0x00, 0x00, 0x00, 0x64, 0x00, 0x00, 0x00, 0x3c, 0x00, 0x00, 0x00,
  0x04, 0x00, 0x00, 0x00, 0x46, 0xff, 0xff, 0xff, 0x14, 0x00, 0x00, 0x00,
  0x00, 0x00, 0x00, 0x08, 0x10, 0x00, 0x00, 0x00, 0x14, 0x00, 0x00, 0x00,
  0x05, 0x00, 0x00, 0x00, 0x60, 0xfa, 0xff, 0xff, 0x01, 0x00, 0x00, 0x00,
  0x10, 0x00, 0x00, 0x00, 0x03, 0x00, 0x00, 0x00, 0x0f, 0x00, 0x00, 0x00,
  0x07, 0x00, 0x00, 0x00, 0x06, 0x00, 0x00, 0x00, 0x1a, 0xff, 0xff, 0xff,
  0x0c, 0x00, 0x00, 0x00, 0x10, 0x00, 0x00, 0x00, 0x01, 0x00, 0x00, 0x00,
  0x01, 0x00, 0x00, 0x00, 0x0f, 0x00, 0x00, 0x00, 0x02, 0x00, 0x00, 0x00,
  0x0e, 0x00, 0x00, 0x00, 0x03, 0x00, 0x00, 0x00, 0x9e, 0xff, 0xff, 0xff,
  0x1c, 0x00, 0x00, 0x00, 0x00, 0x00, 0x00, 0x1b, 0x1c, 0x00, 0x00, 0x00,
  0x20, 0x00, 0x00, 0x00, 0x04, 0x00, 0x00, 0x00, 0x00, 0x00, 0x06, 0x00,
  0x08, 0x00, 0x07, 0x00, 0x06, 0x00, 0x00, 0x00, 0x00, 0x00, 0x00, 0x01,
  0x01, 0x00, 0x00, 0x00, 0x0e, 0x00, 0x00, 0x00, 0x02, 0x00, 0x00, 0x00,
  0x0d, 0x00, 0x00, 0x00, 0x02, 0x00, 0x00, 0x00, 0x7a, 0xff, 0xff, 0xff,
  0x0c, 0x00, 0x00, 0x00, 0x10, 0x00, 0x00, 0x00, 0x03, 0x00, 0x00, 0x00,
  0x01, 0x00, 0x00, 0x00, 0x0d, 0x00, 0x00, 0x00, 0x02, 0x00, 0x00, 0x00,
  0x0c, 0x00, 0x00, 0x00, 0x01, 0x00, 0x00, 0x00, 0x00, 0x00, 0x0e, 0x00,
  0x18, 0x00, 0x14, 0x00, 0x10, 0x00, 0x0c, 0x00, 0x0b, 0x00, 0x04, 0x00,
  0x0e, 0x00, 0x00, 0x00, 0x20, 0x00, 0x00, 0x00, 0x00, 0x00, 0x00, 0x01,
  0x2c, 0x00, 0x00, 0x00, 0x30, 0x00, 0x00, 0x00, 0x02, 0x00, 0x00, 0x00,
  0x0c, 0x00, 0x14, 0x00, 0x13, 0x00, 0x0c, 0x00, 0x08, 0x00, 0x07, 0x00,
  0x0c, 0x00, 0x00, 0x00, 0x00, 0x00, 0x00, 0x01, 0x02, 0x00, 0x00, 0x00,
  0x02, 0x00, 0x00, 0x00, 0x00, 0x00, 0x00, 0x01, 0x01, 0x00, 0x00, 0x00,
  0x0c, 0x00, 0x00, 0x00, 0x03, 0x00, 0x00, 0x00, 0x0b, 0x00, 0x00, 0x00,
  0x08, 0x00, 0x00, 0x00, 0x05, 0x00, 0x00, 0x00, 0x00, 0x00, 0x0a, 0x00,
  0x10, 0x00, 0x0c, 0x00, 0x08, 0x00, 0x04, 0x00, 0x0a, 0x00, 0x00, 0x00,
  0x0c, 0x00, 0x00, 0x00, 0x10, 0x00, 0x00, 0x00, 0x01, 0x00, 0x00, 0x00,
  0x01, 0x00, 0x00, 0x00, 0x0b, 0x00, 0x00, 0x00, 0x02, 0x00, 0x00, 0x00,
  0x0a, 0x00, 0x00, 0x00, 0x09, 0x00, 0x00, 0x00, 0x00, 0x00, 0x0e, 0x00,
  0x14, 0x00, 0x00, 0x00, 0x10, 0x00, 0x0c, 0x00, 0x0b, 0x00, 0x04, 0x00,
  0x0e, 0x00, 0x00, 0x00, 0x10, 0x00, 0x00, 0x00, 0x00, 0x00, 0x00, 0x16,
  0x0c, 0x00, 0x00, 0x00, 0x10, 0x00, 0x00, 0x00, 0xb4, 0xfb, 0xff, 0xff,
  0x01, 0x00, 0x00, 0x00, 0x0a, 0x00, 0x00, 0x00, 0x02, 0x00, 0x00, 0x00,
  0x00, 0x00, 0x00, 0x00, 0x04, 0x00, 0x00, 0x00, 0x01, 0x00, 0x00, 0x00,
  0x10, 0x00, 0x00, 0x00, 0x01, 0x00, 0x00, 0x00, 0x00, 0x00, 0x00, 0x00,
  0x11, 0x00, 0x00, 0x00, 0x0c, 0x04, 0x00, 0x00, 0xbc, 0x03, 0x00, 0x00,
  0x78, 0x03, 0x00, 0x00, 0x3c, 0x03, 0x00, 0x00, 0x04, 0x03, 0x00, 0x00,
  0xd4, 0x02, 0x00, 0x00, 0xa4, 0x02, 0x00, 0x00, 0x70, 0x02, 0x00, 0x00,
  0x30, 0x02, 0x00, 0x00, 0xf8, 0x01, 0x00, 0x00, 0xc0, 0x01, 0x00, 0x00,
  0x7c, 0x01, 0x00, 0x00, 0x18, 0x01, 0x00, 0x00, 0xd8, 0x00, 0x00, 0x00,
  0x9c, 0x00, 0x00, 0x00, 0x44, 0x00, 0x00, 0x00, 0x04, 0x00, 0x00, 0x00,
  0x46, 0xfc, 0xff, 0xff, 0x10, 0x00, 0x00, 0x00, 0x10, 0x00, 0x00, 0x00,
  0x11, 0x00, 0x00, 0x00, 0x20, 0x00, 0x00, 0x00, 0x38, 0xfc, 0xff, 0xff,
  0x11, 0x00, 0x00, 0x00, 0x50, 0x61, 0x72, 0x74, 0x69, 0x74, 0x69, 0x6f,
  0x6e, 0x65, 0x64, 0x43, 0x61, 0x6c, 0x6c, 0x3a, 0x30, 0x00, 0x00, 0x00,
  0x02, 0x00, 0x00, 0x00, 0x01, 0x00, 0x00, 0x00, 0x02, 0x00, 0x00, 0x00,
  0x82, 0xfc, 0xff, 0xff, 0x10, 0x00, 0x00, 0x00, 0x10, 0x00, 0x00, 0x00,
  0x10, 0x00, 0x00, 0x00, 0x38, 0x00, 0x00, 0x00, 0x74, 0xfc, 0xff, 0xff,
  0x28, 0x00, 0x00, 0x00, 0x66, 0x6c, 0x61, 0x74, 0x74, 0x65, 0x6e, 0x2f,
  0x52, 0x65, 0x73, 0x68, 0x61, 0x70, 0x65, 0x3b, 0x6f, 0x6e, 0x6e, 0x78,
  0x5f, 0x74, 0x66, 0x5f, 0x70, 0x72, 0x65, 0x66, 0x69, 0x78, 0x5f, 0x52,
  0x65, 0x73, 0x68, 0x61, 0x70, 0x65, 0x5f, 0x33, 0x00, 0x00, 0x00, 0x00,
  0x02, 0x00, 0x00, 0x00, 0x01, 0x00, 0x00, 0x00, 0x40, 0x00, 0x00, 0x00,
  0xd6, 0xfc, 0xff, 0xff, 0x10, 0x00, 0x00, 0x00, 0x10, 0x00, 0x00, 0x00,
  0x0f, 0x00, 0x00, 0x00, 0x14, 0x00, 0x00, 0x00, 0xc8, 0xfc, 0xff, 0xff,
  0x04, 0x00, 0x00, 0x00, 0x4d, 0x65, 0x61, 0x6e, 0x00, 0x00, 0x00, 0x00,
  0x04, 0x00, 0x00, 0x00, 0x01, 0x00, 0x00, 0x00, 0x40, 0x00, 0x00, 0x00,
  0x01, 0x00, 0x00, 0x00, 0x01, 0x00, 0x00, 0x00, 0x0e, 0xfd, 0xff, 0xff,
  0x10, 0x00, 0x00, 0x00, 0x10, 0x00, 0x00, 0x00, 0x0e, 0x00, 0x00, 0x00,
  0x18, 0x00, 0x00, 0x00, 0x00, 0xfd, 0xff, 0xff, 0x0b, 0x00, 0x00, 0x00,
  0x74, 0x72, 0x61, 0x6e, 0x73, 0x70, 0x6f, 0x73, 0x65, 0x5f, 0x32, 0x00,
  0x04, 0x00, 0x00, 0x00, 0x01, 0x00, 0x00, 0x00, 0x40, 0x00, 0x00, 0x00,
  0x05, 0x00, 0x00, 0x00, 0x0b, 0x00, 0x00, 0x00, 0x4a, 0xfd, 0xff, 0xff,
  0x10, 0x00, 0x00, 0x00, 0x10, 0x00, 0x00, 0x00, 0x0d, 0x00, 0x00, 0x00,
  0x3c, 0x00, 0x00, 0x00, 0x3c, 0xfd, 0xff, 0xff, 0x2d, 0x00, 0x00, 0x00,
  0x6f, 0x6e, 0x6e, 0x78, 0x5f, 0x74, 0x66, 0x5f, 0x70, 0x72, 0x65, 0x66,
  0x69, 0x78, 0x5f, 0x52, 0x65, 0x6c, 0x75, 0x5f, 0x31, 0x3b, 0x41, 0x64,
  0x64, 0x3b, 0x63, 0x6f, 0x6e, 0x76, 0x6f, 0x6c, 0x75, 0x74, 0x69, 0x6f,
  0x6e, 0x3b, 0x43, 0x6f, 0x6e, 0x73, 0x74, 0x5f, 0x31, 0x00, 0x00, 0x00,
  0x04, 0x00, 0x00, 0x00, 0x01, 0x00, 0x00, 0x00, 0x05, 0x00, 0x00, 0x00,
  0x0b, 0x00, 0x00, 0x00, 0x40, 0x00, 0x00, 0x00, 0xaa, 0xfd, 0xff, 0xff,
  0x10, 0x00, 0x00, 0x00, 0x10, 0x00, 0x00, 0x00, 0x0c, 0x00, 0x00, 0x00,
  0x1c, 0x00, 0x00, 0x00, 0x9c, 0xfd, 0xff, 0xff, 0x0c, 0x00, 0x00, 0x00,
  0x74, 0x72, 0x61, 0x6e, 0x73, 0x70, 0x6f, 0x73, 0x65, 0x5f, 0x31, 0x31,
  0x00, 0x00, 0x00, 0x00, 0x04, 0x00, 0x00, 0x00, 0x01, 0x00, 0x00, 0x00,
  0x0c, 0x00, 0x00, 0x00, 0x18, 0x00, 0x00, 0x00, 0x01, 0x00, 0x00, 0x00,
  0xea, 0xfd, 0xff, 0xff, 0x10, 0x00, 0x00, 0x00, 0x10, 0x00, 0x00, 0x00,
  0x0b, 0x00, 0x00, 0x00, 0x10, 0x00, 0x00, 0x00, 0xdc, 0xfd, 0xff, 0xff,
  0x03, 0x00, 0x00, 0x00, 0x50, 0x61, 0x64, 0x00, 0x04, 0x00, 0x00, 0x00,
  0x01, 0x00, 0x00, 0x00, 0x01, 0x00, 0x00, 0x00, 0x0c, 0x00, 0x00, 0x00,
  0x18, 0x00, 0x00, 0x00, 0x6a, 0xfe, 0xff, 0xff, 0x14, 0x00, 0x00, 0x00,
  0x14, 0x00, 0x00, 0x00, 0x0a, 0x00, 0x00, 0x00, 0x00, 0x00, 0x00, 0x02,
  0x18, 0x00, 0x00, 0x00, 0x14, 0xfe, 0xff, 0xff, 0x0b, 0x00, 0x00, 0x00,
  0x74, 0x72, 0x61, 0x6e, 0x73, 0x70, 0x6f, 0x73, 0x65, 0x5f, 0x31, 0x00,
  0x01, 0x00, 0x00, 0x00, 0x04, 0x00, 0x00, 0x00, 0x52, 0xfe, 0xff, 0xff,
  0x10, 0x00, 0x00, 0x00, 0x10, 0x00, 0x00, 0x00, 0x09, 0x00, 0x00, 0x00,
  0x18, 0x00, 0x00, 0x00, 0x44, 0xfe, 0xff, 0xff, 0x0b, 0x00, 0x00, 0x00,
  0x63, 0x6f, 0x6e, 0x76, 0x6f, 0x6c, 0x75, 0x74, 0x69, 0x6f, 0x6e, 0x00,
  0x04, 0x00, 0x00, 0x00, 0x40, 0x00, 0x00, 0x00, 0x03, 0x00, 0x00, 0x00,
  0x03, 0x00, 0x00, 0x00, 0x01, 0x00, 0x00, 0x00, 0x8e, 0xfe, 0xff, 0xff,
  0x10, 0x00, 0x00, 0x00, 0x10, 0x00, 0x00, 0x00, 0x08, 0x00, 0x00, 0x00,
  0x14, 0x00, 0x00, 0x00, 0x80, 0xfe, 0xff, 0xff, 0x06, 0x00, 0x00, 0x00,
  0x4d, 0x61, 0x74, 0x4d, 0x75, 0x6c, 0x00, 0x00, 0x02, 0x00, 0x00, 0x00,
  0x02, 0x00, 0x00, 0x00, 0x40, 0x00, 0x00, 0x00, 0xbe, 0xfe, 0xff, 0xff,
  0x10, 0x00, 0x00, 0x00, 0x10, 0x00, 0x00, 0x00, 0x07, 0x00, 0x00, 0x00,
  0x14, 0x00, 0x00, 0x00, 0xb0, 0xfe, 0xff, 0xff, 0x07, 0x00, 0x00, 0x00,
  0x43, 0x6f, 0x6e, 0x73, 0x74, 0x5f, 0x34, 0x00, 0x01, 0x00, 0x00, 0x00,
  0x02, 0x00, 0x00, 0x00, 0xea, 0xfe, 0xff, 0xff, 0x10, 0x00, 0x00, 0x00,
  0x10, 0x00, 0x00, 0x00, 0x06, 0x00, 0x00, 0x00, 0x14, 0x00, 0x00, 0x00,
  0xdc, 0xfe, 0xff, 0xff, 0x07, 0x00, 0x00, 0x00, 0x43, 0x6f, 0x6e, 0x73,
  0x74, 0x5f, 0x31, 0x00, 0x01, 0x00, 0x00, 0x00, 0x40, 0x00, 0x00, 0x00,
  0x62, 0xff, 0xff, 0xff, 0x14, 0x00, 0x00, 0x00, 0x14, 0x00, 0x00, 0x00,
  0x05, 0x00, 0x00, 0x00, 0x00, 0x00, 0x00, 0x02, 0x14, 0x00, 0x00, 0x00,
  0x0c, 0xff, 0xff, 0xff, 0x05, 0x00, 0x00, 0x00, 0x43, 0x6f, 0x6e, 0x73,
  0x74, 0x00, 0x00, 0x00, 0x02, 0x00, 0x00, 0x00, 0x04, 0x00, 0x00, 0x00,
  0x02, 0x00, 0x00, 0x00, 0x96, 0xff, 0xff, 0xff, 0x14, 0x00, 0x00, 0x00,
  0x14, 0x00, 0x00, 0x00, 0x04, 0x00, 0x00, 0x00, 0x00, 0x00, 0x00, 0x02,
  0x1c, 0x00, 0x00, 0x00, 0x40, 0xff, 0xff, 0xff, 0x0d, 0x00, 0x00, 0x00,
  0x66, 0x6c, 0x61, 0x74, 0x74, 0x65, 0x6e, 0x2f, 0x43, 0x6f, 0x6e, 0x73,
  0x74, 0x00, 0x00, 0x00, 0x01, 0x00, 0x00, 0x00, 0x02, 0x00, 0x00, 0x00,
  0xce, 0xff, 0xff, 0xff, 0x14, 0x00, 0x00, 0x00, 0x14, 0x00, 0x00, 0x00,
  0x03, 0x00, 0x00, 0x00, 0x00, 0x00, 0x00, 0x02, 0x14, 0x00, 0x00, 0x00,
  0x78, 0xff, 0xff, 0xff, 0x07, 0x00, 0x00, 0x00, 0x73, 0x70, 0x6c, 0x69,
  0x74, 0x5f, 0x31, 0x00, 0x01, 0x00, 0x00, 0x00, 0x02, 0x00, 0x00, 0x00,
  0x00, 0x00, 0x0e, 0x00, 0x18, 0x00, 0x14, 0x00, 0x13, 0x00, 0x0c, 0x00,
  0x08, 0x00, 0x04, 0x00, 0x0e, 0x00, 0x00, 0x00, 0x14, 0x00, 0x00, 0x00,
  0x14, 0x00, 0x00, 0x00, 0x02, 0x00, 0x00, 0x00, 0x00, 0x00, 0x00, 0x02,
  0x20, 0x00, 0x00, 0x00, 0xb8, 0xff, 0xff, 0xff, 0x10, 0x00, 0x00, 0x00,
  0x74, 0x72, 0x61, 0x6e, 0x73, 0x70, 0x6f, 0x73, 0x65, 0x5f, 0x32, 0x2f,
  0x70, 0x65, 0x72, 0x6d, 0x00, 0x00, 0x00, 0x00, 0x01, 0x00, 0x00, 0x00,
  0x04, 0x00, 0x00, 0x00, 0x00, 0x00, 0x0e, 0x00, 0x14, 0x00, 0x10, 0x00,
  0x00, 0x00, 0x0c, 0x00, 0x08, 0x00, 0x04, 0x00, 0x0e, 0x00, 0x00, 0x00,
  0x14, 0x00, 0x00, 0x00, 0x14, 0x00, 0x00, 0x00, 0x01, 0x00, 0x00, 0x00,
  0x28, 0x00, 0x00, 0x00, 0x04, 0x00, 0x04, 0x00, 0x04, 0x00, 0x00, 0x00,
  0x17, 0x00, 0x00, 0x00, 0x73, 0x65, 0x72, 0x76, 0x69, 0x6e, 0x67, 0x5f,
  0x64, 0x65, 0x66, 0x61, 0x75, 0x6c, 0x74, 0x5f, 0x69, 0x6e, 0x70, 0x75,
  0x74, 0x3a, 0x30, 0x00, 0x04, 0x00, 0x00, 0x00, 0x01, 0x00, 0x00, 0x00,
  0x01, 0x00, 0x00, 0x00, 0x0a, 0x00, 0x00, 0x00, 0x16, 0x00, 0x00, 0x00,
  0x06, 0x00, 0x00, 0x00, 0x60, 0x00, 0x00, 0x00, 0x44, 0x00, 0x00, 0x00,
  0x34, 0x00, 0x00, 0x00, 0x24, 0x00, 0x00, 0x00, 0x14, 0x00, 0x00, 0x00,
  0x04, 0x00, 0x00, 0x00, 0xc4, 0xff, 0xff, 0xff, 0x09, 0x00, 0x00, 0x00,
  0x00, 0x00, 0x00, 0x09, 0xd0, 0xff, 0xff, 0xff, 0x28, 0x00, 0x00, 0x00,
  0x00, 0x00, 0x00, 0x28, 0xdc, 0xff, 0xff, 0xff, 0x27, 0x00, 0x00, 0x00,
  0x00, 0x00, 0x00, 0x27, 0xe8, 0xff, 0xff, 0xff, 0x03, 0x00, 0x00, 0x00,
  0x00, 0x00, 0x00, 0x03, 0xf4, 0xff, 0xff, 0xff, 0x16, 0x00, 0x00, 0x00,
  0x00, 0x00, 0x00, 0x16, 0x0c, 0x00, 0x0c, 0x00, 0x0b, 0x00, 0x00, 0x00,
  0x00, 0x00, 0x04, 0x00, 0x0c, 0x00, 0x00, 0x00, 0x22, 0x00, 0x00, 0x00,
  0x00, 0x00, 0x00, 0x22
};
unsigned int results_seizure_binary_onelayer_checkpoint_poi_15_fold_7_mobilenet_s_onelayer_model_tflite_len = 5380;
