unsigned char __results_seizure_binary_onelayer_checkpoint_poi_15_fold_7_mobilenet_s_onelayer_model_quant_int_tflite[] = {
  0x1c, 0x00, 0x00, 0x00, 0x54, 0x46, 0x4c, 0x33, 0x14, 0x00, 0x20, 0x00,
  0x1c, 0x00, 0x18, 0x00, 0x14, 0x00, 0x10, 0x00, 0x0c, 0x00, 0x00, 0x00,
  0x08, 0x00, 0x04, 0x00, 0x14, 0x00, 0x00, 0x00, 0x1c, 0x00, 0x00, 0x00,
  0x80, 0x00, 0x00, 0x00, 0xb0, 0x00, 0x00, 0x00, 0xc8, 0x05, 0x00, 0x00,
  0xd8, 0x05, 0x00, 0x00, 0x9c, 0x13, 0x00, 0x00, 0x03, 0x00, 0x00, 0x00,
  0x01, 0x00, 0x00, 0x00, 0x04, 0x00, 0x00, 0x00, 0xc6, 0xf8, 0xff, 0xff,
  0x0c, 0x00, 0x00, 0x00, 0x1c, 0x00, 0x00, 0x00, 0x38, 0x00, 0x00, 0x00,
  0x0f, 0x00, 0x00, 0x00, 0x73, 0x65, 0x72, 0x76, 0x69, 0x6e, 0x67, 0x5f,
  0x64, 0x65, 0x66, 0x61, 0x75, 0x6c, 0x74, 0x00, 0x01, 0x00, 0x00, 0x00,
  0x04, 0x00, 0x00, 0x00, 0xc4, 0xff, 0xff, 0xff, 0x10, 0x00, 0x00, 0x00,
  0x04, 0x00, 0x00, 0x00, 0x06, 0x00, 0x00, 0x00, 0x6f, 0x75, 0x74, 0x70,
  0x75, 0x74, 0x00, 0x00, 0x01, 0x00, 0x00, 0x00, 0x04, 0x00, 0x00, 0x00,
  0xd6, 0xfa, 0xff, 0xff, 0x04, 0x00, 0x00, 0x00, 0x05, 0x00, 0x00, 0x00,
  0x69, 0x6e, 0x70, 0x75, 0x74, 0x00, 0x00, 0x00, 0x01, 0x00, 0x00, 0x00,
  0x0c, 0x00, 0x00, 0x00, 0x08, 0x00, 0x0c, 0x00, 0x08, 0x00, 0x04, 0x00,
  0x08, 0x00, 0x00, 0x00, 0x12, 0x00, 0x00, 0x00, 0x04, 0x00, 0x00, 0x00,
  0x13, 0x00, 0x00, 0x00, 0x6d, 0x69, 0x6e, 0x5f, 0x72, 0x75, 0x6e, 0x74,
  0x69, 0x6d, 0x65, 0x5f, 0x76, 0x65, 0x72, 0x73, 0x69, 0x6f, 0x6e, 0x00,
  0x13, 0x00, 0x00, 0x00, 0x14, 0x05, 0x00, 0x00, 0x0c, 0x05, 0x00, 0x00,
  0xdc, 0x04, 0x00, 0x00, 0xb4, 0x04, 0x00, 0x00, 0x94, 0x04, 0x00, 0x00,
  0x7c, 0x04, 0x00, 0x00, 0x64, 0x04, 0x00, 0x00, 0x14, 0x02, 0x00, 0x00,
  0x04, 0x01, 0x00, 0x00, 0x74, 0x00, 0x00, 0x00, 0x5c, 0x00, 0x00, 0x00,
  0x54, 0x00, 0x00, 0x00, 0x4c, 0x00, 0x00, 0x00, 0x44, 0x00, 0x00, 0x00,
  0x3c, 0x00, 0x00, 0x00, 0x34, 0x00, 0x00, 0x00, 0x2c, 0x00, 0x00, 0x00,
  0x24, 0x00, 0x00, 0x00, 0x04, 0x00, 0x00, 0x00, 0x6e, 0xfb, 0xff, 0xff,
  0x04, 0x00, 0x00, 0x00, 0x10, 0x00, 0x00, 0x00, 0x31, 0x2e, 0x31, 0x34,
  0x2e, 0x30, 0x00, 0x00, 0x00, 0x00, 0x00, 0x00, 0x00, 0x00, 0x00, 0x00,
  0x18, 0xee, 0xff, 0xff, 0x1c, 0xee, 0xff, 0xff, 0x20, 0xee, 0xff, 0xff,
  0x24, 0xee, 0xff, 0xff, 0x28, 0xee, 0xff, 0xff, 0x2c, 0xee, 0xff, 0xff,
  0x30, 0xee, 0xff, 0xff, 0xa6, 0xfb, 0xff, 0xff, 0x04, 0x00, 0x00, 0x00,
  0x08, 0x00, 0x00, 0x00, 0xd4, 0xfc, 0xff, 0xff, 0x12, 0x03, 0x00, 0x00,
  0xba, 0xfb, 0xff, 0xff, 0x04, 0x00, 0x00, 0x00, 0x80, 0x00, 0x00, 0x00,
  0x08, 0xf9, 0xfb, 0x08, 0xfa, 0x07, 0xfb, 0xfb, 0xf7, 0x09, 0xfd, 0x7f,
  0x0f, 0x06, 0x06, 0xfd, 0x0c, 0xf4, 0x08, 0xf9, 0x05, 0xf8, 0xf8, 0x0d,
  0xfd, 0xfc, 0x13, 0xfc, 0xf9, 0xfc, 0xfe, 0xf9, 0x0a, 0xfe, 0x08, 0xf8,
  0x09, 0xf8, 0xfc, 0x06, 0x12, 0xfc, 0x08, 0xfe, 0xf7, 0x11, 0xfd, 0x09,
  0xf9, 0x0e, 0x08, 0xf8, 0x0b, 0xfe, 0xf8, 0xf8, 0x09, 0xf5, 0x13, 0x08,
  0x12, 0xfc, 0x0c, 0x08, 0xf8, 0x08, 0x05, 0xf7, 0x08, 0xfb, 0x05, 0x03,
  0x09, 0xf7, 0x05, 0x81, 0xf1, 0xf9, 0xfa, 0x05, 0xf4, 0x0c, 0xf7, 0x06,
  0xf9, 0x07, 0x08, 0xf4, 0x02, 0x04, 0xee, 0x04, 0x08, 0x04, 0x03, 0x07,
  0xf6, 0x03, 0xf8, 0x0a, 0xf9, 0x07, 0x03, 0xf9, 0xee, 0x04, 0xf8, 0x02,
  0x0a, 0xef, 0x02, 0xf6, 0x09, 0xf1, 0xf8, 0x09, 0xf4, 0x03, 0x09, 0x07,
  0xf9, 0x0b, 0xef, 0xf7, 0xef, 0x05, 0xf3, 0xfa, 0x46, 0xfc, 0xff, 0xff,
  0x04, 0x00, 0x00, 0x00, 0x00, 0x01, 0x00, 0x00, 0xf3, 0xff, 0xff, 0xff,
  0xfa, 0xea, 0xff, 0xff, 0x9d, 0xe7, 0xff, 0xff, 0xca, 0xff, 0xff, 0xff,
  0x38, 0xe6, 0xff, 0xff, 0x81, 0x04, 0x00, 0x00, 0xab, 0xe4, 0xff, 0xff,
  0xaa, 0xe2, 0xff, 0xff, 0x55, 0xe6, 0xff, 0xff, 0xa6, 0xff, 0xff, 0xff,
  0x17, 0xe3, 0xff, 0xff, 0x77, 0xb3, 0xff, 0xff, 0x19, 0xff, 0xff, 0xff,
  0xa7, 0x04, 0x00, 0x00, 0xa3, 0x04, 0x00, 0x00, 0xbd, 0xe1, 0xff, 0xff,
  0xdc, 0xff, 0xff, 0xff, 0x7d, 0xea, 0xff, 0xff, 0x7c, 0xff, 0xff, 0xff,
  0x80, 0xe7, 0xff, 0xff, 0xd6, 0x04, 0x00, 0x00, 0xf8, 0xe6, 0xff, 0xff,
  0xff, 0xf0, 0xff, 0xff, 0xc7, 0xff, 0xff, 0xff, 0x33, 0x02, 0x00, 0x00,
  0x25, 0xf3, 0xff, 0xff, 0x21, 0xff, 0xff, 0xff, 0xfd, 0xf1, 0xff, 0xff,
  0xe9, 0xdb, 0xff, 0xff, 0x40, 0xe1, 0xff, 0xff, 0xc4, 0x01, 0x00, 0x00,
  0x81, 0xfc, 0xff, 0xff, 0xdd, 0xff, 0xff, 0xff, 0x14, 0x02, 0x00, 0x00,
  0x9f, 0xff, 0xff, 0xff, 0x06, 0xee, 0xff, 0xff, 0x48, 0xff, 0xff, 0xff,
  0xeb, 0xe6, 0xff, 0xff, 0xdf, 0xe2, 0xff, 0xff, 0x9e, 0x04, 0x00, 0x00,
  0xc0, 0xfe, 0xff, 0xff, 0x13, 0xe7, 0xff, 0xff, 0xeb, 0xff, 0xff, 0xff,
  0xfe, 0x02, 0x00, 0x00, 0x93, 0xe1, 0xff, 0xff, 0x91, 0xff, 0xff, 0xff,
  0x25, 0x02, 0x00, 0x00, 0x30, 0xff, 0xff, 0xff, 0x34, 0xf0, 0xff, 0xff,
  0x1c, 0x00, 0x00, 0x00, 0xa3, 0xfe, 0xff, 0xff, 0x29, 0xeb, 0xff, 0xff,
  0xd4, 0xff, 0xff, 0xff, 0xe4, 0x01, 0x00, 0x00, 0x95, 0xf6, 0xff, 0xff,
  0x8f, 0xe8, 0xff, 0xff, 0xd5, 0xfe, 0xff, 0xff, 0x31, 0xf0, 0xff, 0xff,
  0xa8, 0xff, 0xff, 0xff, 0x98, 0xff, 0xff, 0xff, 0xa1, 0xff, 0xff, 0xff,
  0x77, 0x04, 0x00, 0x00, 0x08, 0x00, 0x00, 0x00, 0x08, 0x00, 0x00, 0x00,
  0x52, 0xfd, 0xff, 0xff, 0x04, 0x00, 0x00, 0x00, 0x40, 0x02, 0x00, 0x00,
  0x03, 0xb9, 0x2a, 0xee, 0x7f, 0x88, 0xfb, 0x79, 0x8b, 0x21, 0x28, 0x51,
  0xc4, 0x29, 0x19, 0xd7, 0x7f, 0x42, 0x27, 0x34, 0x7f, 0xb6, 0x54, 0xe2,
  0x3e, 0x3f, 0x65, 0xa2, 0x1e, 0x33, 0x7f, 0x9c, 0xc4, 0x6f, 0xc5, 0xdb,
  0x1b, 0x3b, 0x7f, 0xc0, 0x1a, 0x16, 0x40, 0x3b, 0x5a, 0xbb, 0x81, 0x00,
  0x09, 0x11, 0xd3, 0x08, 0x12, 0xe2, 0x1f, 0x64, 0x73, 0xac, 0x7f, 0xc5,
  0x46, 0x76, 0x3a, 0xe7, 0x4b, 0x7f, 0x3a, 0x46, 0x71, 0x7c, 0x50, 0x54,
  0x0c, 0x7f, 0x33, 0xdd, 0x21, 0x09, 0x1d, 0x6d, 0x29, 0xb9, 0x18, 0x12,
  0x66, 0xff, 0x87, 0x7b, 0x11, 0x81, 0xeb, 0x44, 0x7c, 0x3e, 0x3e, 0x7f,
  0x7b, 0x41, 0x62, 0x6c, 0x4f, 0x7f, 0xfd, 0x7d, 0x62, 0xf9, 0x3a, 0x4f,
  0xfc, 0xfd, 0x16, 0x60, 0x9d, 0xcf, 0x7f, 0xbd, 0xc9, 0xb7, 0x81, 0x00,
  0x08, 0x10, 0xd3, 0x07, 0x16, 0xde, 0xbc, 0x81, 0x01, 0x0a, 0x10, 0xd5,
  0x06, 0x15, 0xde, 0xe4, 0x4b, 0x7f, 0x3b, 0x47, 0x79, 0x7f, 0x54, 0x5a,
  0x06, 0x09, 0xee, 0xe6, 0xa9, 0x7f, 0x03, 0xbc, 0x16, 0xfe, 0x62, 0x23,
  0xfa, 0x50, 0xf5, 0xfe, 0x7f, 0xf3, 0x0a, 0x26, 0xc0, 0x76, 0xdf, 0x9c,
  0x7f, 0xf1, 0x9e, 0x1e, 0x32, 0x7e, 0xcb, 0xf7, 0x30, 0xf0, 0x7f, 0x55,
  0xb4, 0x81, 0xfe, 0x06, 0x11, 0xd7, 0x06, 0x13, 0xdf, 0x16, 0x24, 0x7f,
  0xc5, 0x1a, 0x1d, 0x38, 0x42, 0x54, 0x10, 0x39, 0x1d, 0xcc, 0xe5, 0x54,
  0xf6, 0xfc, 0x7f, 0xbc, 0x06, 0x2e, 0x7f, 0xc6, 0xc9, 0x29, 0xc3, 0xf9,
  0xe8, 0x46, 0xea, 0x3c, 0x23, 0x91, 0x46, 0x21, 0x81, 0x03, 0x1f, 0x21,
  0x02, 0xf7, 0x7f, 0x2c, 0x3b, 0x06, 0x19, 0x08, 0xe1, 0xe6, 0x7a, 0x92,
  0xcd, 0x7f, 0x82, 0xf9, 0x22, 0x28, 0x07, 0x0d, 0x7f, 0x35, 0x4b, 0xfd,
  0xe0, 0x55, 0x7f, 0x23, 0x4e, 0x57, 0xf0, 0x69, 0x4a, 0xe5, 0x5e, 0x7a,
  0x3a, 0x47, 0x73, 0x7f, 0x5c, 0x4a, 0xef, 0x31, 0xef, 0x27, 0x1c, 0xb2,
  0x35, 0x31, 0x81, 0xf3, 0x05, 0x03, 0xf9, 0xbb, 0x5f, 0xf4, 0xa4, 0x7f,
  0xd5, 0xfd, 0x0e, 0x75, 0xd4, 0xa9, 0x7f, 0xe2, 0xa7, 0xef, 0x2f, 0xf0,
  0x3a, 0x06, 0xb4, 0x50, 0x13, 0x81, 0xc2, 0x18, 0x0e, 0x50, 0x13, 0x87,
  0x65, 0x2a, 0x81, 0x05, 0x5f, 0x14, 0xfa, 0x4d, 0xe7, 0x05, 0x7f, 0xde,
  0x10, 0x19, 0x21, 0xd7, 0xe7, 0x81, 0x39, 0xf7, 0xf0, 0x17, 0x2f, 0x7f,
  0xc8, 0x0f, 0x24, 0x39, 0x32, 0x5f, 0xe4, 0x48, 0x7f, 0x41, 0x48, 0x77,
  0x7e, 0x4c, 0x53, 0xba, 0x81, 0x00, 0x05, 0x10, 0xd3, 0x08, 0x17, 0xdf,
  0x05, 0xfc, 0x11, 0xe0, 0x81, 0x6f, 0xec, 0x89, 0x71, 0xe2, 0x34, 0x7f,
  0x43, 0x3e, 0x68, 0x6e, 0x40, 0x44, 0xb6, 0x12, 0x1b, 0x74, 0xe8, 0x91,
  0x7f, 0xfc, 0x90, 0xfb, 0x50, 0x29, 0x0a, 0xfc, 0x81, 0x1f, 0xea, 0xcc,
  0xe8, 0x64, 0x50, 0x13, 0x5f, 0x26, 0xf4, 0x7f, 0x12, 0x04, 0x01, 0x01,
  0xe4, 0x8e, 0x7f, 0xec, 0x8d, 0x5a, 0xe8, 0x1f, 0x0d, 0x55, 0x0d, 0x89,
  0x66, 0x00, 0x81, 0x0a, 0x20, 0x0d, 0xe0, 0x0d, 0x81, 0x2d, 0x2b, 0xbc,
  0x0f, 0x59, 0x11, 0xd7, 0x4d, 0xdd, 0x22, 0x7f, 0xde, 0x11, 0x05, 0xe2,
  0xd3, 0xd3, 0x7f, 0x09, 0xc6, 0xf0, 0x60, 0x22, 0x8c, 0x60, 0xc1, 0xa5,
  0x7f, 0xe9, 0xb6, 0x10, 0x5b, 0x26, 0xbb, 0x02, 0x43, 0xf9, 0x2d, 0x7f,
  0x06, 0x10, 0x03, 0x02, 0xfd, 0x20, 0xd1, 0x81, 0x0b, 0xe5, 0x2b, 0xf7,
  0x2e, 0x18, 0xb2, 0x3d, 0x28, 0x81, 0x0a, 0x24, 0x0d, 0xde, 0xd1, 0x61,
  0xf2, 0xd0, 0x7f, 0x13, 0x25, 0x7f, 0xc5, 0x17, 0x20, 0x34, 0x34, 0x52,
  0x61, 0x27, 0x81, 0x5a, 0xca, 0xae, 0x71, 0xea, 0xc1, 0xfb, 0x4d, 0x12,
  0x08, 0x59, 0xe0, 0xfe, 0x7f, 0xd0, 0x0f, 0x04, 0xe2, 0xd5, 0x7b, 0xd8,
  0xfc, 0x3a, 0x81, 0xa9, 0x23, 0x31, 0x7f, 0x92, 0xc7, 0x6d, 0xd3, 0xc7,
  0xf3, 0xf5, 0x15, 0x7f, 0xc2, 0xc3, 0x20, 0xc4, 0xf6, 0x5b, 0x52, 0xe9,
  0xf3, 0x9f, 0x81, 0x4e, 0xa7, 0xa3, 0x18, 0xf3, 0xdf, 0xbf, 0x1f, 0x7f,
  0x14, 0x97, 0xd5, 0xfb, 0xb6, 0x2b, 0xed, 0x6f, 0x88, 0x00, 0x7f, 0x88,
  0x9e, 0xff, 0xff, 0xff, 0x04, 0x00, 0x00, 0x00, 0x08, 0x00, 0x00, 0x00,
  0xff, 0xff, 0xff, 0xff, 0x40, 0x00, 0x00, 0x00, 0xb2, 0xff, 0xff, 0xff,
  0x04, 0x00, 0x00, 0x00, 0x08, 0x00, 0x00, 0x00, 0x02, 0x00, 0x00, 0x00,
  0x03, 0x00, 0x00, 0x00, 0xc6, 0xff, 0xff, 0xff, 0x04, 0x00, 0x00, 0x00,
  0x10, 0x00, 0x00, 0x00, 0x00, 0x00, 0x00, 0x00, 0x03, 0x00, 0x00, 0x00,
  0x01, 0x00, 0x00, 0x00, 0x02, 0x00, 0x00, 0x00, 0xe2, 0xff, 0xff, 0xff,
  0x04, 0x00, 0x00, 0x00, 0x10, 0x00, 0x00, 0x00, 0x01, 0x00, 0x00, 0x00,
  0x0c, 0x00, 0x00, 0x00, 0x18, 0x00, 0x00, 0x00, 0x01, 0x00, 0x00, 0x00,
  0x00, 0x00, 0x06, 0x00, 0x08, 0x00, 0x04, 0x00, 0x06, 0x00, 0x00, 0x00,
  0x04, 0x00, 0x00, 0x00, 0x20, 0x00, 0x00, 0x00, 0x00, 0x00, 0x00, 0x00,
  0x00, 0x00, 0x00, 0x00, 0x00, 0x00, 0x00, 0x00, 0x00, 0x00, 0x00, 0x00,
  0x01, 0x00, 0x00, 0x00, 0x01, 0x00, 0x00, 0x00, 0x01, 0x00, 0x00, 0x00,
  0x01, 0x00, 0x00, 0x00, 0xc0, 0xf2, 0xff, 0xff, 0xc4, 0xf2, 0xff, 0xff,
  0x0f, 0x00, 0x00, 0x00, 0x4d, 0x4c, 0x49, 0x52, 0x20, 0x43, 0x6f, 0x6e,
  0x76, 0x65, 0x72, 0x74, 0x65, 0x64, 0x2e, 0x00, 0x01, 0x00, 0x00, 0x00,
  0x14, 0x00, 0x00, 0x00, 0x00, 0x00, 0x0e, 0x00, 0x18, 0x00, 0x14, 0x00,
  0x10, 0x00, 0x0c, 0x00, 0x08, 0x00, 0x04, 0x00, 0x0e, 0x00, 0x00, 0x00,
  0x14, 0x00, 0x00, 0x00, 0x1c, 0x00, 0x00, 0x00, 0xbc, 0x01, 0x00, 0x00,
  0xc0, 0x01, 0x00, 0x00, 0xc4, 0x01, 0x00, 0x00, 0x04, 0x00, 0x00, 0x00,
  0x6d, 0x61, 0x69, 0x6e, 0x00, 0x00, 0x00, 0x00, 0x07, 0x00, 0x00, 0x00,
  0x74, 0x01, 0x00, 0x00, 0x3c, 0x01, 0x00, 0x00, 0xdc, 0x00, 0x00, 0x00,
  0xa4, 0x00, 0x00, 0x00, 0x64, 0x00, 0x00, 0x00, 0x3c, 0x00, 0x00, 0x00,
  0x04, 0x00, 0x00, 0x00, 0x46, 0xff, 0xff, 0xff, 0x14, 0x00, 0x00, 0x00,
  0x00, 0x00, 0x00, 0x08, 0x10, 0x00, 0x00, 0x00, 0x14, 0x00, 0x00, 0x00,
  0x05, 0x00, 0x00, 0x00, 0x50, 0xf3, 0xff, 0xff, 0x01, 0x00, 0x00, 0x00,
  0x10, 0x00, 0x00, 0x00, 0x03, 0x00, 0x00, 0x00, 0x0f, 0x00, 0x00, 0x00,
  0x08, 0x00, 0x00, 0x00, 0x09, 0x00, 0x00, 0x00, 0x1a, 0xff, 0xff, 0xff,
  0x0c, 0x00, 0x00, 0x00, 0x10, 0x00, 0x00, 0x00, 0x01, 0x00, 0x00, 0x00,
  0x01, 0x00, 0x00, 0x00, 0x0f, 0x00, 0x00, 0x00, 0x02, 0x00, 0x00, 0x00,
  0x0e, 0x00, 0x00, 0x00, 0x05, 0x00, 0x00, 0x00, 0x9e, 0xff, 0xff, 0xff,
  0x1c, 0x00, 0x00, 0x00, 0x00, 0x00, 0x00, 0x1b, 0x1c, 0x00, 0x00, 0x00,
  0x20, 0x00, 0x00, 0x00, 0x04, 0x00, 0x00, 0x00, 0x00, 0x00, 0x06, 0x00,
  0x08, 0x00, 0x07, 0x00, 0x06, 0x00, 0x00, 0x00, 0x00, 0x00, 0x00, 0x01,
  0x01, 0x00, 0x00, 0x00, 0x0e, 0x00, 0x00, 0x00, 0x02, 0x00, 0x00, 0x00,
  0x0d, 0x00, 0x00, 0x00, 0x04, 0x00, 0x00, 0x00, 0x7a, 0xff, 0xff, 0xff,
  0x0c, 0x00, 0x00, 0x00, 0x10, 0x00, 0x00, 0x00, 0x03, 0x00, 0x00, 0x00,
  0x01, 0x00, 0x00, 0x00, 0x0d, 0x00, 0x00, 0x00, 0x02, 0x00, 0x00, 0x00,
  0x0c, 0x00, 0x00, 0x00, 0x03, 0x00, 0x00, 0x00, 0x00, 0x00, 0x0e, 0x00,
  0x18, 0x00, 0x14, 0x00, 0x10, 0x00, 0x0c, 0x00, 0x0b, 0x00, 0x04, 0x00,
  0x0e, 0x00, 0x00, 0x00, 0x20, 0x00, 0x00, 0x00, 0x00, 0x00, 0x00, 0x01,
  0x2c, 0x00, 0x00, 0x00, 0x30, 0x00, 0x00, 0x00, 0x02, 0x00, 0x00, 0x00,
  0x0c, 0x00, 0x14, 0x00, 0x13, 0x00, 0x0c, 0x00, 0x08, 0x00, 0x07, 0x00,
  0x0c, 0x00, 0x00, 0x00, 0x00, 0x00, 0x00, 0x01, 0x02, 0x00, 0x00, 0x00,
  0x02, 0x00, 0x00, 0x00, 0x00, 0x00, 0x00, 0x01, 0x01, 0x00, 0x00, 0x00,
  0x0c, 0x00, 0x00, 0x00, 0x03, 0x00, 0x00, 0x00, 0x0b, 0x00, 0x00, 0x00,
  0x06, 0x00, 0x00, 0x00, 0x07, 0x00, 0x00, 0x00, 0x00, 0x00, 0x0a, 0x00,
  0x10, 0x00, 0x0c, 0x00, 0x08, 0x00, 0x04, 0x00, 0x0a, 0x00, 0x00, 0x00,
  0x0c, 0x00, 0x00, 0x00, 0x10, 0x00, 0x00, 0x00, 0x01, 0x00, 0x00, 0x00,
  0x01, 0x00, 0x00, 0x00, 0x0b, 0x00, 0x00, 0x00, 0x02, 0x00, 0x00, 0x00,
  0x0a, 0x00, 0x00, 0x00, 0x02, 0x00, 0x00, 0x00, 0x00, 0x00, 0x0e, 0x00,
  0x14, 0x00, 0x00, 0x00, 0x10, 0x00, 0x0c, 0x00, 0x0b, 0x00, 0x04, 0x00,
  0x0e, 0x00, 0x00, 0x00, 0x10, 0x00, 0x00, 0x00, 0x00, 0x00, 0x00, 0x16,
  0x0c, 0x00, 0x00, 0x00, 0x10, 0x00, 0x00, 0x00, 0xa4, 0xf4, 0xff, 0xff,
  0x01, 0x00, 0x00, 0x00, 0x0a, 0x00, 0x00, 0x00, 0x02, 0x00, 0x00, 0x00,
  0x00, 0x00, 0x00, 0x00, 0x01, 0x00, 0x00, 0x00, 0x01, 0x00, 0x00, 0x00,
  0x10, 0x00, 0x00, 0x00, 0x01, 0x00, 0x00, 0x00, 0x00, 0x00, 0x00, 0x00,
  0x11, 0x00, 0x00, 0x00, 0x60, 0x0b, 0x00, 0x00, 0x14, 0x0b, 0x00, 0x00,
  0xdc, 0x0a, 0x00, 0x00, 0x9c, 0x0a, 0x00, 0x00, 0x68, 0x0a, 0x00, 0x00,
  0x2c, 0x0a, 0x00, 0x00, 0xd4, 0x06, 0x00, 0x00, 0x90, 0x03, 0x00, 0x00,
  0x3c, 0x03, 0x00, 0x00, 0xe8, 0x02, 0x00, 0x00, 0x8c, 0x02, 0x00, 0x00,
  0x28, 0x02, 0x00, 0x00, 0xa4, 0x01, 0x00, 0x00, 0x40, 0x01, 0x00, 0x00,
  0xe4, 0x00, 0x00, 0x00, 0x68, 0x00, 0x00, 0x00, 0x04, 0x00, 0x00, 0x00,
  0xf2, 0xf4, 0xff, 0xff, 0x14, 0x00, 0x00, 0x00, 0x34, 0x00, 0x00, 0x00,
  0x11, 0x00, 0x00, 0x00, 0x00, 0x00, 0x00, 0x09, 0x40, 0x00, 0x00, 0x00,
  0xe4, 0xf4, 0xff, 0xff, 0x08, 0x00, 0x00, 0x00, 0x14, 0x00, 0x00, 0x00,
  0x01, 0x00, 0x00, 0x00, 0xfe, 0xff, 0xff, 0xff, 0xff, 0xff, 0xff, 0xff,
  0x00, 0x00, 0x00, 0x00, 0x01, 0x00, 0x00, 0x00, 0xc2, 0x13, 0x39, 0x3e,
  0x11, 0x00, 0x00, 0x00, 0x50, 0x61, 0x72, 0x74, 0x69, 0x74, 0x69, 0x6f,
  0x6e, 0x65, 0x64, 0x43, 0x61, 0x6c, 0x6c, 0x3a, 0x30, 0x00, 0x00, 0x00,
  0x02, 0x00, 0x00, 0x00, 0x01, 0x00, 0x00, 0x00, 0x02, 0x00, 0x00, 0x00,
  0x52, 0xf5, 0xff, 0xff, 0x14, 0x00, 0x00, 0x00, 0x34, 0x00, 0x00, 0x00,
  0x10, 0x00, 0x00, 0x00, 0x00, 0x00, 0x00, 0x09, 0x58, 0x00, 0x00, 0x00,
  0x44, 0xf5, 0xff, 0xff, 0x08, 0x00, 0x00, 0x00, 0x14, 0x00, 0x00, 0x00,
  0x01, 0x00, 0x00, 0x00, 0x80, 0xff, 0xff, 0xff, 0xff, 0xff, 0xff, 0xff,
  0x00, 0x00, 0x00, 0x00, 0x01, 0x00, 0x00, 0x00, 0x69, 0x26, 0x59, 0x3c,
  0x28, 0x00, 0x00, 0x00, 0x66, 0x6c, 0x61, 0x74, 0x74, 0x65, 0x6e, 0x2f,
  0x52, 0x65, 0x73, 0x68, 0x61, 0x70, 0x65, 0x3b, 0x6f, 0x6e, 0x6e, 0x78,
  0x5f, 0x74, 0x66, 0x5f, 0x70, 0x72, 0x65, 0x66, 0x69, 0x78, 0x5f, 0x52,
  0x65, 0x73, 0x68, 0x61, 0x70, 0x65, 0x5f, 0x33, 0x00, 0x00, 0x00, 0x00,
  0x02, 0x00, 0x00, 0x00, 0x01, 0x00, 0x00, 0x00, 0x40, 0x00, 0x00, 0x00,
  0xca, 0xf5, 0xff, 0xff, 0x14, 0x00, 0x00, 0x00, 0x30, 0x00, 0x00, 0x00,
  0x0f, 0x00, 0x00, 0x00, 0x00, 0x00, 0x00, 0x09, 0x30, 0x00, 0x00, 0x00,
  0xbc, 0xf5, 0xff, 0xff, 0x08, 0x00, 0x00, 0x00, 0x10, 0x00, 0x00, 0x00,
  0x01, 0x00, 0x00, 0x00, 0x80, 0xff, 0xff, 0xff, 0xff, 0xff, 0xff, 0xff,
  0x01, 0x00, 0x00, 0x00, 0x69, 0x26, 0x59, 0x3c, 0x04, 0x00, 0x00, 0x00,
  0x4d, 0x65, 0x61, 0x6e, 0x00, 0x00, 0x00, 0x00, 0x04, 0x00, 0x00, 0x00,
  0x01, 0x00, 0x00, 0x00, 0x40, 0x00, 0x00, 0x00, 0x01, 0x00, 0x00, 0x00,
  0x01, 0x00, 0x00, 0x00, 0x22, 0xf6, 0xff, 0xff, 0x14, 0x00, 0x00, 0x00,
  0x34, 0x00, 0x00, 0x00, 0x0e, 0x00, 0x00, 0x00, 0x00, 0x00, 0x00, 0x09,
  0x38, 0x00, 0x00, 0x00, 0x14, 0xf6, 0xff, 0xff, 0x08, 0x00, 0x00, 0x00,
  0x14, 0x00, 0x00, 0x00, 0x01, 0x00, 0x00, 0x00, 0x80, 0xff, 0xff, 0xff,
  0xff, 0xff, 0xff, 0xff, 0x00, 0x00, 0x00, 0x00, 0x01, 0x00, 0x00, 0x00,
  0xc4, 0x92, 0x11, 0x3e, 0x0b, 0x00, 0x00, 0x00, 0x74, 0x72, 0x61, 0x6e,
  0x73, 0x70, 0x6f, 0x73, 0x65, 0x5f, 0x32, 0x00, 0x04, 0x00, 0x00, 0x00,
  0x01, 0x00, 0x00, 0x00, 0x40, 0x00, 0x00, 0x00, 0x05, 0x00, 0x00, 0x00,
  0x0b, 0x00, 0x00, 0x00, 0x82, 0xf6, 0xff, 0xff, 0x14, 0x00, 0x00, 0x00,
  0x30, 0x00, 0x00, 0x00, 0x0d, 0x00, 0x00, 0x00, 0x00, 0x00, 0x00, 0x09,
  0x58, 0x00, 0x00, 0x00, 0x74, 0xf6, 0xff, 0xff, 0x08, 0x00, 0x00, 0x00,
  0x10, 0x00, 0x00, 0x00, 0x01, 0x00, 0x00, 0x00, 0x80, 0xff, 0xff, 0xff,
  0xff, 0xff, 0xff, 0xff, 0x01, 0x00, 0x00, 0x00, 0xc4, 0x92, 0x11, 0x3e,
  0x2d, 0x00, 0x00, 0x00, 0x6f, 0x6e, 0x6e, 0x78, 0x5f, 0x74, 0x66, 0x5f,
  0x70, 0x72, 0x65, 0x66, 0x69, 0x78, 0x5f, 0x52, 0x65, 0x6c, 0x75, 0x5f,
  0x31, 0x3b, 0x41, 0x64, 0x64, 0x3b, 0x63, 0x6f, 0x6e, 0x76, 0x6f, 0x6c,
  0x75, 0x74, 0x69, 0x6f, 0x6e, 0x3b, 0x43, 0x6f, 0x6e, 0x73, 0x74, 0x5f,
  0x31, 0x00, 0x00, 0x00, 0x04, 0x00, 0x00, 0x00, 0x01, 0x00, 0x00, 0x00,
  0x05, 0x00, 0x00, 0x00, 0x0b, 0x00, 0x00, 0x00, 0x40, 0x00, 0x00, 0x00,
  0x02, 0xf7, 0xff, 0xff, 0x14, 0x00, 0x00, 0x00, 0x30, 0x00, 0x00, 0x00,
  0x0c, 0x00, 0x00, 0x00, 0x00, 0x00, 0x00, 0x09, 0x38, 0x00, 0x00, 0x00,
  0xf4, 0xf6, 0xff, 0xff, 0x08, 0x00, 0x00, 0x00, 0x10, 0x00, 0x00, 0x00,
  0x01, 0x00, 0x00, 0x00, 0xef, 0xff, 0xff, 0xff, 0xff, 0xff, 0xff, 0xff,
  0x01, 0x00, 0x00, 0x00, 0xe1, 0xe0, 0x60, 0x40, 0x0c, 0x00, 0x00, 0x00,
  0x74, 0x72, 0x61, 0x6e, 0x73, 0x70, 0x6f, 0x73, 0x65, 0x5f, 0x31, 0x31,
  0x00, 0x00, 0x00, 0x00, 0x04, 0x00, 0x00, 0x00, 0x01, 0x00, 0x00, 0x00,
  0x0c, 0x00, 0x00, 0x00, 0x18, 0x00, 0x00, 0x00, 0x01, 0x00, 0x00, 0x00,
  0x62, 0xf7, 0xff, 0xff, 0x14, 0x00, 0x00, 0x00, 0x34, 0x00, 0x00, 0x00,
  0x0b, 0x00, 0x00, 0x00, 0x00, 0x00, 0x00, 0x09, 0x30, 0x00, 0x00, 0x00,
  0x54, 0xf7, 0xff, 0xff, 0x08, 0x00, 0x00, 0x00, 0x14, 0x00, 0x00, 0x00,
  0x01, 0x00, 0x00, 0x00, 0xef, 0xff, 0xff, 0xff, 0xff, 0xff, 0xff, 0xff,
  0x00, 0x00, 0x00, 0x00, 0x01, 0x00, 0x00, 0x00, 0xe1, 0xe0, 0x60, 0x40,
  0x03, 0x00, 0x00, 0x00, 0x50, 0x61, 0x64, 0x00, 0x04, 0x00, 0x00, 0x00,
  0x01, 0x00, 0x00, 0x00, 0x01, 0x00, 0x00, 0x00, 0x0c, 0x00, 0x00, 0x00,
  0x18, 0x00, 0x00, 0x00, 0xba, 0xf7, 0xff, 0xff, 0x14, 0x00, 0x00, 0x00,
  0x34, 0x00, 0x00, 0x00, 0x0a, 0x00, 0x00, 0x00, 0x00, 0x00, 0x00, 0x02,
  0x34, 0x00, 0x00, 0x00, 0xac, 0xf7, 0xff, 0xff, 0x08, 0x00, 0x00, 0x00,
  0x14, 0x00, 0x00, 0x00, 0x01, 0x00, 0x00, 0x00, 0x00, 0x00, 0x00, 0x00,
  0x00, 0x00, 0x00, 0x00, 0x00, 0x00, 0x00, 0x00, 0x01, 0x00, 0x00, 0x00,
  0x8c, 0x72, 0xc5, 0x3a, 0x07, 0x00, 0x00, 0x00, 0x43, 0x6f, 0x6e, 0x73,
  0x74, 0x5f, 0x34, 0x00, 0x01, 0x00, 0x00, 0x00, 0x02, 0x00, 0x00, 0x00,
  0x0a, 0xf8, 0xff, 0xff, 0x14, 0x00, 0x00, 0x00, 0x30, 0x00, 0x00, 0x00,
  0x09, 0x00, 0x00, 0x00, 0x00, 0x00, 0x00, 0x09, 0x30, 0x00, 0x00, 0x00,
  0xfc, 0xf7, 0xff, 0xff, 0x08, 0x00, 0x00, 0x00, 0x10, 0x00, 0x00, 0x00,
  0x01, 0x00, 0x00, 0x00, 0x00, 0x00, 0x00, 0x00, 0x00, 0x00, 0x00, 0x00,
  0x01, 0x00, 0x00, 0x00, 0xbf, 0xc5, 0xe8, 0x3d, 0x06, 0x00, 0x00, 0x00,
  0x4d, 0x61, 0x74, 0x4d, 0x75, 0x6c, 0x00, 0x00, 0x02, 0x00, 0x00, 0x00,
  0x02, 0x00, 0x00, 0x00, 0x40, 0x00, 0x00, 0x00, 0x5a, 0xf8, 0xff, 0xff,
  0x14, 0x00, 0x00, 0x00, 0x24, 0x03, 0x00, 0x00, 0x08, 0x00, 0x00, 0x00,
  0x00, 0x00, 0x00, 0x02, 0x24, 0x03, 0x00, 0x00, 0x4c, 0xf8, 0xff, 0xff,
  0x08, 0x00, 0x00, 0x00, 0x08, 0x02, 0x00, 0x00, 0x40, 0x00, 0x00, 0x00,
  0x00, 0x00, 0x00, 0x00, 0x00, 0x00, 0x00, 0x00, 0x00, 0x00, 0x00, 0x00,
  0x00, 0x00, 0x00, 0x00, 0x00, 0x00, 0x00, 0x00, 0x00, 0x00, 0x00, 0x00,
  0x00, 0x00, 0x00, 0x00, 0x00, 0x00, 0x00, 0x00, 0x00, 0x00, 0x00, 0x00,
  0x00, 0x00, 0x00, 0x00, 0x00, 0x00, 0x00, 0x00, 0x00, 0x00, 0x00, 0x00,
  0x00, 0x00, 0x00, 0x00, 0x00, 0x00, 0x00, 0x00, 0x00, 0x00, 0x00, 0x00,
  0x00, 0x00, 0x00, 0x00, 0x00, 0x00, 0x00, 0x00, 0x00, 0x00, 0x00, 0x00,
  0x00, 0x00, 0x00, 0x00, 0x00, 0x00, 0x00, 0x00, 0x00, 0x00, 0x00, 0x00,
  0x00, 0x00, 0x00, 0x00, 0x00, 0x00, 0x00, 0x00, 0x00, 0x00, 0x00, 0x00,
  0x00, 0x00, 0x00, 0x00, 0x00, 0x00, 0x00, 0x00, 0x00, 0x00, 0x00, 0x00,
  0x00, 0x00, 0x00, 0x00, 0x00, 0x00, 0x00, 0x00, 0x00, 0x00, 0x00, 0x00,
  0x00, 0x00, 0x00, 0x00, 0x00, 0x00, 0x00, 0x00, 0x00, 0x00, 0x00, 0x00,
  0x00, 0x00, 0x00, 0x00, 0x00, 0x00, 0x00, 0x00, 0x00, 0x00, 0x00, 0x00,
  0x00, 0x00, 0x00, 0x00, 0x00, 0x00, 0x00, 0x00, 0x00, 0x00, 0x00, 0x00,
  0x00, 0x00, 0x00, 0x00, 0x00, 0x00, 0x00, 0x00, 0x00, 0x00, 0x00, 0x00,
  0x00, 0x00, 0x00, 0x00, 0x00, 0x00, 0x00, 0x00, 0x00, 0x00, 0x00, 0x00,
  0x00, 0x00, 0x00, 0x00, 0x00, 0x00, 0x00, 0x00, 0x00, 0x00, 0x00, 0x00,
  0x00, 0x00, 0x00, 0x00, 0x00, 0x00, 0x00, 0x00, 0x00, 0x00, 0x00, 0x00,
  0x00, 0x00, 0x00, 0x00, 0x00, 0x00, 0x00, 0x00, 0x00, 0x00, 0x00, 0x00,
  0x00, 0x00, 0x00, 0x00, 0x00, 0x00, 0x00, 0x00, 0x00, 0x00, 0x00, 0x00,
  0x00, 0x00, 0x00, 0x00, 0x00, 0x00, 0x00, 0x00, 0x00, 0x00, 0x00, 0x00,
  0x00, 0x00, 0x00, 0x00, 0x00, 0x00, 0x00, 0x00, 0x00, 0x00, 0x00, 0x00,
  0x00, 0x00, 0x00, 0x00, 0x00, 0x00, 0x00, 0x00, 0x00, 0x00, 0x00, 0x00,
  0x00, 0x00, 0x00, 0x00, 0x00, 0x00, 0x00, 0x00, 0x00, 0x00, 0x00, 0x00,
  0x00, 0x00, 0x00, 0x00, 0x00, 0x00, 0x00, 0x00, 0x00, 0x00, 0x00, 0x00,
  0x00, 0x00, 0x00, 0x00, 0x00, 0x00, 0x00, 0x00, 0x00, 0x00, 0x00, 0x00,
  0x00, 0x00, 0x00, 0x00, 0x00, 0x00, 0x00, 0x00, 0x00, 0x00, 0x00, 0x00,
  0x00, 0x00, 0x00, 0x00, 0x00, 0x00, 0x00, 0x00, 0x00, 0x00, 0x00, 0x00,
  0x00, 0x00, 0x00, 0x00, 0x00, 0x00, 0x00, 0x00, 0x00, 0x00, 0x00, 0x00,
  0x00, 0x00, 0x00, 0x00, 0x00, 0x00, 0x00, 0x00, 0x00, 0x00, 0x00, 0x00,
  0x00, 0x00, 0x00, 0x00, 0x00, 0x00, 0x00, 0x00, 0x00, 0x00, 0x00, 0x00,
  0x00, 0x00, 0x00, 0x00, 0x00, 0x00, 0x00, 0x00, 0x00, 0x00, 0x00, 0x00,
  0x00, 0x00, 0x00, 0x00, 0x00, 0x00, 0x00, 0x00, 0x00, 0x00, 0x00, 0x00,
  0x00, 0x00, 0x00, 0x00, 0x00, 0x00, 0x00, 0x00, 0x00, 0x00, 0x00, 0x00,
  0x00, 0x00, 0x00, 0x00, 0x00, 0x00, 0x00, 0x00, 0x00, 0x00, 0x00, 0x00,
  0x00, 0x00, 0x00, 0x00, 0x00, 0x00, 0x00, 0x00, 0x00, 0x00, 0x00, 0x00,
  0x00, 0x00, 0x00, 0x00, 0x00, 0x00, 0x00, 0x00, 0x00, 0x00, 0x00, 0x00,
  0x00, 0x00, 0x00, 0x00, 0x00, 0x00, 0x00, 0x00, 0x00, 0x00, 0x00, 0x00,
  0x00, 0x00, 0x00, 0x00, 0x00, 0x00, 0x00, 0x00, 0x00, 0x00, 0x00, 0x00,
  0x00, 0x00, 0x00, 0x00, 0x00, 0x00, 0x00, 0x00, 0x00, 0x00, 0x00, 0x00,
  0x00, 0x00, 0x00, 0x00, 0x00, 0x00, 0x00, 0x00, 0x00, 0x00, 0x00, 0x00,
  0x00, 0x00, 0x00, 0x00, 0x00, 0x00, 0x00, 0x00, 0x00, 0x00, 0x00, 0x00,
  0x00, 0x00, 0x00, 0x00, 0x00, 0x00, 0x00, 0x00, 0x00, 0x00, 0x00, 0x00,
  0x00, 0x00, 0x00, 0x00, 0x00, 0x00, 0x00, 0x00, 0x40, 0x00, 0x00, 0x00,
  0xaf, 0xa5, 0x27, 0x3b, 0x68, 0xbf, 0xec, 0x39, 0xfa, 0x05, 0xae, 0x39,
  0x0d, 0xd1, 0xca, 0x3a, 0x20, 0x67, 0xb3, 0x39, 0x02, 0x01, 0x1a, 0x3a,
  0xb1, 0xce, 0x9a, 0x39, 0xb0, 0xe5, 0x5e, 0x39, 0x98, 0x0e, 0xcc, 0x39,
  0x0e, 0x0b, 0xec, 0x3a, 0xf3, 0x43, 0x5a, 0x39, 0x9e, 0x8d, 0xd2, 0x39,
  0xcc, 0xc6, 0xea, 0x3a, 0x3f, 0x95, 0x12, 0x3a, 0x72, 0x6e, 0x1d, 0x3a,
  0xa4, 0xcc, 0x59, 0x39, 0xe4, 0xfe, 0x1a, 0x3b, 0x5c, 0xc5, 0xfd, 0x39,
  0xac, 0x1b, 0xdc, 0x3a, 0xf8, 0x72, 0xbb, 0x39, 0x58, 0x3e, 0x12, 0x3a,
  0xd6, 0xa6, 0xc1, 0x39, 0x59, 0x81, 0x27, 0x3a, 0x30, 0xca, 0x11, 0x3b,
  0xbb, 0x2e, 0x84, 0x3a, 0xad, 0xd1, 0xf2, 0x39, 0x9c, 0xe0, 0x0f, 0x3b,
  0x33, 0xbe, 0xd5, 0x39, 0xfe, 0x18, 0x83, 0x39, 0xfd, 0xff, 0x50, 0x39,
  0x80, 0x73, 0xb6, 0x3a, 0x5f, 0x7c, 0x00, 0x3b, 0xaf, 0x2a, 0xda, 0x3a,
  0x65, 0x49, 0xa4, 0x3a, 0x45, 0x84, 0x03, 0x3b, 0x3a, 0xbe, 0x0c, 0x3a,
  0x45, 0x9b, 0x7a, 0x3a, 0x85, 0xfd, 0xb9, 0x39, 0x8e, 0x16, 0x64, 0x39,
  0x65, 0x91, 0x10, 0x3a, 0xe5, 0x19, 0x16, 0x3b, 0x81, 0x49, 0x5e, 0x39,
  0x72, 0x22, 0xdb, 0x3a, 0x4a, 0xa4, 0xdf, 0x39, 0xbf, 0x53, 0xa6, 0x39,
  0x48, 0xff, 0xe2, 0x3a, 0x40, 0x05, 0x86, 0x3a, 0x8b, 0xa0, 0xa4, 0x3a,
  0x00, 0xb4, 0x17, 0x3a, 0x88, 0x63, 0xca, 0x3a, 0x8c, 0x6c, 0xa5, 0x3a,
  0x5f, 0xa1, 0xef, 0x39, 0xe5, 0x78, 0x24, 0x3a, 0x2b, 0xfd, 0xb3, 0x3a,
  0x52, 0xf5, 0x83, 0x3a, 0x5b, 0x77, 0xd1, 0x39, 0x6a, 0x04, 0xbe, 0x3a,
  0x86, 0xba, 0x26, 0x3a, 0xed, 0x41, 0x02, 0x3b, 0xfd, 0x83, 0xe2, 0x3a,
  0x6f, 0xfa, 0x0b, 0x3b, 0x21, 0x21, 0xb3, 0x39, 0xb0, 0xa0, 0x8f, 0x3a,
  0xf9, 0x0d, 0x12, 0x3b, 0x07, 0x00, 0x00, 0x00, 0x43, 0x6f, 0x6e, 0x73,
  0x74, 0x5f, 0x31, 0x00, 0x01, 0x00, 0x00, 0x00, 0x40, 0x00, 0x00, 0x00,
  0x9a, 0xfb, 0xff, 0xff, 0x14, 0x00, 0x00, 0x00, 0x28, 0x03, 0x00, 0x00,
  0x07, 0x00, 0x00, 0x00, 0x00, 0x00, 0x00, 0x09, 0x2c, 0x03, 0x00, 0x00,
  0x8c, 0xfb, 0xff, 0xff, 0x08, 0x00, 0x00, 0x00, 0x0c, 0x02, 0x00, 0x00,
  0x40, 0x00, 0x00, 0x00, 0x00, 0x00, 0x00, 0x00, 0x00, 0x00, 0x00, 0x00,
  0x00, 0x00, 0x00, 0x00, 0x00, 0x00, 0x00, 0x00, 0x00, 0x00, 0x00, 0x00,
  0x00, 0x00, 0x00, 0x00, 0x00, 0x00, 0x00, 0x00, 0x00, 0x00, 0x00, 0x00,
  0x00, 0x00, 0x00, 0x00, 0x00, 0x00, 0x00, 0x00, 0x00, 0x00, 0x00, 0x00,
  0x00, 0x00, 0x00, 0x00, 0x00, 0x00, 0x00, 0x00, 0x00, 0x00, 0x00, 0x00,
  0x00, 0x00, 0x00, 0x00, 0x00, 0x00, 0x00, 0x00, 0x00, 0x00, 0x00, 0x00,
  0x00, 0x00, 0x00, 0x00, 0x00, 0x00, 0x00, 0x00, 0x00, 0x00, 0x00, 0x00,
  0x00, 0x00, 0x00, 0x00, 0x00, 0x00, 0x00, 0x00, 0x00, 0x00, 0x00, 0x00,
  0x00, 0x00, 0x00, 0x00, 0x00, 0x00, 0x00, 0x00, 0x00, 0x00, 0x00, 0x00,
  0x00, 0x00, 0x00, 0x00, 0x00, 0x00, 0x00, 0x00, 0x00, 0x00, 0x00, 0x00,
  0x00, 0x00, 0x00, 0x00, 0x00, 0x00, 0x00, 0x00, 0x00, 0x00, 0x00, 0x00,
  0x00, 0x00, 0x00, 0x00, 0x00, 0x00, 0x00, 0x00, 0x00, 0x00, 0x00, 0x00,
  0x00, 0x00, 0x00, 0x00, 0x00, 0x00, 0x00, 0x00, 0x00, 0x00, 0x00, 0x00,
  0x00, 0x00, 0x00, 0x00, 0x00, 0x00, 0x00, 0x00, 0x00, 0x00, 0x00, 0x00,
  0x00, 0x00, 0x00, 0x00, 0x00, 0x00, 0x00, 0x00, 0x00, 0x00, 0x00, 0x00,
  0x00, 0x00, 0x00, 0x00, 0x00, 0x00, 0x00, 0x00, 0x00, 0x00, 0x00, 0x00,
  0x00, 0x00, 0x00, 0x00, 0x00, 0x00, 0x00, 0x00, 0x00, 0x00, 0x00, 0x00,
  0x00, 0x00, 0x00, 0x00, 0x00, 0x00, 0x00, 0x00, 0x00, 0x00, 0x00, 0x00,
  0x00, 0x00, 0x00, 0x00, 0x00, 0x00, 0x00, 0x00, 0x00, 0x00, 0x00, 0x00,
  0x00, 0x00, 0x00, 0x00, 0x00, 0x00, 0x00, 0x00, 0x00, 0x00, 0x00, 0x00,
  0x00, 0x00, 0x00, 0x00, 0x00, 0x00, 0x00, 0x00, 0x00, 0x00, 0x00, 0x00,
  0x00, 0x00, 0x00, 0x00, 0x00, 0x00, 0x00, 0x00, 0x00, 0x00, 0x00, 0x00,
  0x00, 0x00, 0x00, 0x00, 0x00, 0x00, 0x00, 0x00, 0x00, 0x00, 0x00, 0x00,
  0x00, 0x00, 0x00, 0x00, 0x00, 0x00, 0x00, 0x00, 0x00, 0x00, 0x00, 0x00,
  0x00, 0x00, 0x00, 0x00, 0x00, 0x00, 0x00, 0x00, 0x00, 0x00, 0x00, 0x00,
  0x00, 0x00, 0x00, 0x00, 0x00, 0x00, 0x00, 0x00, 0x00, 0x00, 0x00, 0x00,
  0x00, 0x00, 0x00, 0x00, 0x00, 0x00, 0x00, 0x00, 0x00, 0x00, 0x00, 0x00,
  0x00, 0x00, 0x00, 0x00, 0x00, 0x00, 0x00, 0x00, 0x00, 0x00, 0x00, 0x00,
  0x00, 0x00, 0x00, 0x00, 0x00, 0x00, 0x00, 0x00, 0x00, 0x00, 0x00, 0x00,
  0x00, 0x00, 0x00, 0x00, 0x00, 0x00, 0x00, 0x00, 0x00, 0x00, 0x00, 0x00,
  0x00, 0x00, 0x00, 0x00, 0x00, 0x00, 0x00, 0x00, 0x00, 0x00, 0x00, 0x00,
  0x00, 0x00, 0x00, 0x00, 0x00, 0x00, 0x00, 0x00, 0x00, 0x00, 0x00, 0x00,
  0x00, 0x00, 0x00, 0x00, 0x00, 0x00, 0x00, 0x00, 0x00, 0x00, 0x00, 0x00,
  0x00, 0x00, 0x00, 0x00, 0x00, 0x00, 0x00, 0x00, 0x00, 0x00, 0x00, 0x00,
  0x00, 0x00, 0x00, 0x00, 0x00, 0x00, 0x00, 0x00, 0x00, 0x00, 0x00, 0x00,
  0x00, 0x00, 0x00, 0x00, 0x00, 0x00, 0x00, 0x00, 0x00, 0x00, 0x00, 0x00,
  0x00, 0x00, 0x00, 0x00, 0x00, 0x00, 0x00, 0x00, 0x00, 0x00, 0x00, 0x00,
  0x00, 0x00, 0x00, 0x00, 0x00, 0x00, 0x00, 0x00, 0x00, 0x00, 0x00, 0x00,
  0x00, 0x00, 0x00, 0x00, 0x00, 0x00, 0x00, 0x00, 0x00, 0x00, 0x00, 0x00,
  0x00, 0x00, 0x00, 0x00, 0x00, 0x00, 0x00, 0x00, 0x00, 0x00, 0x00, 0x00,
  0x00, 0x00, 0x00, 0x00, 0x00, 0x00, 0x00, 0x00, 0x00, 0x00, 0x00, 0x00,
  0x00, 0x00, 0x00, 0x00, 0x00, 0x00, 0x00, 0x00, 0x00, 0x00, 0x00, 0x00,
  0x00, 0x00, 0x00, 0x00, 0x00, 0x00, 0x00, 0x00, 0x00, 0x00, 0x00, 0x00,
  0x00, 0x00, 0x00, 0x00, 0x40, 0x00, 0x00, 0x00, 0x2f, 0xd9, 0x3e, 0x3a,
  0x85, 0xc1, 0x06, 0x39, 0x60, 0x1b, 0xc6, 0x38, 0x8d, 0xe2, 0xe6, 0x39,
  0x1c, 0x3b, 0xcc, 0x38, 0x26, 0x51, 0x2f, 0x39, 0x4c, 0x3b, 0xb0, 0x38,
  0x9e, 0xbe, 0x7d, 0x38, 0x0b, 0x4c, 0xe8, 0x38, 0xdd, 0x5a, 0x06, 0x3a,
  0xc8, 0x78, 0x78, 0x38, 0x37, 0xb1, 0xef, 0x38, 0x4c, 0xa2, 0x05, 0x3a,
  0x79, 0xde, 0x26, 0x39, 0x04, 0x38, 0x33, 0x39, 0xf6, 0xf0, 0x77, 0x38,
  0x2a, 0x72, 0x30, 0x3a, 0x0d, 0x72, 0x10, 0x39, 0xc9, 0x91, 0xfa, 0x39,
  0x06, 0x64, 0xd5, 0x38, 0x8b, 0x7b, 0x26, 0x39, 0xa4, 0x73, 0xdc, 0x38,
  0xd2, 0xaf, 0x3e, 0x39, 0x50, 0xf7, 0x25, 0x3a, 0xc5, 0x79, 0x96, 0x39,
  0x34, 0x36, 0x0a, 0x39, 0xfb, 0xc9, 0x23, 0x3a, 0xce, 0x52, 0xf3, 0x38,
  0x98, 0x3d, 0x95, 0x38, 0x8f, 0xec, 0x6d, 0x38, 0x7c, 0xb3, 0xcf, 0x39,
  0x71, 0x44, 0x12, 0x3a, 0x05, 0x5c, 0xf8, 0x39, 0xd6, 0x05, 0xbb, 0x39,
  0xb8, 0xb7, 0x15, 0x3a, 0x8d, 0x38, 0x20, 0x39, 0xf3, 0xa4, 0x8e, 0x39,
  0xe4, 0xba, 0xd3, 0x38, 0xb2, 0xd3, 0x81, 0x38, 0x3b, 0x93, 0x24, 0x39,
  0xc4, 0xdf, 0x2a, 0x3a, 0xd2, 0x0c, 0x7d, 0x38, 0x12, 0x76, 0xf9, 0x39,
  0x99, 0x97, 0xfe, 0x38, 0x7b, 0x58, 0xbd, 0x38, 0xbc, 0x34, 0x01, 0x3a,
  0x68, 0x91, 0x98, 0x39, 0x0c, 0x69, 0xbb, 0x39, 0xa0, 0xb2, 0x2c, 0x39,
  0xe0, 0x65, 0xe6, 0x39, 0x48, 0x51, 0xbc, 0x39, 0x91, 0x65, 0x08, 0x39,
  0xe9, 0x3b, 0x3b, 0x39, 0xeb, 0xe5, 0xcc, 0x39, 0x6a, 0x38, 0x96, 0x39,
  0x72, 0x74, 0xee, 0x38, 0x74, 0x50, 0xd8, 0x39, 0x7b, 0xcd, 0x3d, 0x39,
  0xc3, 0x48, 0x14, 0x3a, 0x8e, 0xee, 0x00, 0x3a, 0xaa, 0x59, 0x1f, 0x3a,
  0x6d, 0xeb, 0xcb, 0x38, 0x36, 0x81, 0xa3, 0x39, 0x7a, 0x44, 0x26, 0x3a,
  0x0b, 0x00, 0x00, 0x00, 0x63, 0x6f, 0x6e, 0x76, 0x6f, 0x6c, 0x75, 0x74,
  0x69, 0x6f, 0x6e, 0x00, 0x04, 0x00, 0x00, 0x00, 0x40, 0x00, 0x00, 0x00,
  0x03, 0x00, 0x00, 0x00, 0x03, 0x00, 0x00, 0x00, 0x01, 0x00, 0x00, 0x00,
  0xee, 0xfe, 0xff, 0xff, 0x14, 0x00, 0x00, 0x00, 0x14, 0x00, 0x00, 0x00,
  0x06, 0x00, 0x00, 0x00, 0x00, 0x00, 0x00, 0x02, 0x1c, 0x00, 0x00, 0x00,
  0x28, 0xff, 0xff, 0xff, 0x0d, 0x00, 0x00, 0x00, 0x66, 0x6c, 0x61, 0x74,
  0x74, 0x65, 0x6e, 0x2f, 0x43, 0x6f, 0x6e, 0x73, 0x74, 0x00, 0x00, 0x00,
  0x01, 0x00, 0x00, 0x00, 0x02, 0x00, 0x00, 0x00, 0x26, 0xff, 0xff, 0xff,
  0x14, 0x00, 0x00, 0x00, 0x14, 0x00, 0x00, 0x00, 0x05, 0x00, 0x00, 0x00,
  0x00, 0x00, 0x00, 0x02, 0x14, 0x00, 0x00, 0x00, 0x60, 0xff, 0xff, 0xff,
  0x07, 0x00, 0x00, 0x00, 0x73, 0x70, 0x6c, 0x69, 0x74, 0x5f, 0x31, 0x00,
  0x01, 0x00, 0x00, 0x00, 0x02, 0x00, 0x00, 0x00, 0x56, 0xff, 0xff, 0xff,
  0x14, 0x00, 0x00, 0x00, 0x14, 0x00, 0x00, 0x00, 0x04, 0x00, 0x00, 0x00,
  0x00, 0x00, 0x00, 0x02, 0x20, 0x00, 0x00, 0x00, 0x90, 0xff, 0xff, 0xff,
  0x10, 0x00, 0x00, 0x00, 0x74, 0x72, 0x61, 0x6e, 0x73, 0x70, 0x6f, 0x73,
  0x65, 0x5f, 0x32, 0x2f, 0x70, 0x65, 0x72, 0x6d, 0x00, 0x00, 0x00, 0x00,
  0x01, 0x00, 0x00, 0x00, 0x04, 0x00, 0x00, 0x00, 0x92, 0xff, 0xff, 0xff,
  0x14, 0x00, 0x00, 0x00, 0x14, 0x00, 0x00, 0x00, 0x03, 0x00, 0x00, 0x00,
  0x00, 0x00, 0x00, 0x02, 0x18, 0x00, 0x00, 0x00, 0xcc, 0xff, 0xff, 0xff,
  0x0b, 0x00, 0x00, 0x00, 0x74, 0x72, 0x61, 0x6e, 0x73, 0x70, 0x6f, 0x73,
  0x65, 0x5f, 0x31, 0x00, 0x01, 0x00, 0x00, 0x00, 0x04, 0x00, 0x00, 0x00,
  0xc6, 0xff, 0xff, 0xff, 0x18, 0x00, 0x00, 0x00, 0x18, 0x00, 0x00, 0x00,
  0x02, 0x00, 0x00, 0x00, 0x00, 0x00, 0x00, 0x02, 0x18, 0x00, 0x00, 0x00,
  0x04, 0x00, 0x04, 0x00, 0x04, 0x00, 0x00, 0x00, 0x05, 0x00, 0x00, 0x00,
  0x43, 0x6f, 0x6e, 0x73, 0x74, 0x00, 0x00, 0x00, 0x02, 0x00, 0x00, 0x00,
  0x04, 0x00, 0x00, 0x00, 0x02, 0x00, 0x00, 0x00, 0x00, 0x00, 0x0e, 0x00,
  0x18, 0x00, 0x14, 0x00, 0x13, 0x00, 0x0c, 0x00, 0x08, 0x00, 0x04, 0x00,
  0x0e, 0x00, 0x00, 0x00, 0x20, 0x00, 0x00, 0x00, 0x3c, 0x00, 0x00, 0x00,
  0x01, 0x00, 0x00, 0x00, 0x00, 0x00, 0x00, 0x09, 0x4c, 0x00, 0x00, 0x00,
  0x0c, 0x00, 0x0c, 0x00, 0x00, 0x00, 0x00, 0x00, 0x08, 0x00, 0x04, 0x00,
  0x0c, 0x00, 0x00, 0x00, 0x08, 0x00, 0x00, 0x00, 0x10, 0x00, 0x00, 0x00,
  0x01, 0x00, 0x00, 0x00, 0xef, 0xff, 0xff, 0xff, 0xff, 0xff, 0xff, 0xff,
  0x01, 0x00, 0x00, 0x00, 0xe1, 0xe0, 0x60, 0x40, 0x17, 0x00, 0x00, 0x00,
  0x73, 0x65, 0x72, 0x76, 0x69, 0x6e, 0x67, 0x5f, 0x64, 0x65, 0x66, 0x61,
  0x75, 0x6c, 0x74, 0x5f, 0x69, 0x6e, 0x70, 0x75, 0x74, 0x3a, 0x30, 0x00,
  0x04, 0x00, 0x00, 0x00, 0x01, 0x00, 0x00, 0x00, 0x01, 0x00, 0x00, 0x00,
  0x0a, 0x00, 0x00, 0x00, 0x16, 0x00, 0x00, 0x00, 0x06, 0x00, 0x00, 0x00,
  0x7c, 0x00, 0x00, 0x00, 0x60, 0x00, 0x00, 0x00, 0x40, 0x00, 0x00, 0x00,
  0x2c, 0x00, 0x00, 0x00, 0x18, 0x00, 0x00, 0x00, 0x04, 0x00, 0x00, 0x00,
  0xa8, 0xff, 0xff, 0xff, 0x09, 0x00, 0x00, 0x00, 0x04, 0x00, 0x00, 0x00,
  0x00, 0x00, 0x00, 0x09, 0xb8, 0xff, 0xff, 0xff, 0x28, 0x00, 0x00, 0x00,
  0x02, 0x00, 0x00, 0x00, 0x00, 0x00, 0x00, 0x28, 0xc8, 0xff, 0xff, 0xff,
  0x27, 0x00, 0x00, 0x00, 0x02, 0x00, 0x00, 0x00, 0x00, 0x00, 0x00, 0x27,
  0xd8, 0xff, 0xff, 0xff, 0x03, 0x00, 0x00, 0x00, 0x03, 0x00, 0x00, 0x00,
  0x00, 0x00, 0x00, 0x03, 0x0c, 0x00, 0x0c, 0x00, 0x0b, 0x00, 0x00, 0x00,
  0x00, 0x00, 0x04, 0x00, 0x0c, 0x00, 0x00, 0x00, 0x16, 0x00, 0x00, 0x00,
  0x00, 0x00, 0x00, 0x16, 0x0c, 0x00, 0x10, 0x00, 0x0f, 0x00, 0x00, 0x00,
  0x08, 0x00, 0x04, 0x00, 0x0c, 0x00, 0x00, 0x00, 0x22, 0x00, 0x00, 0x00,
  0x02, 0x00, 0x00, 0x00, 0x00, 0x00, 0x00, 0x22
};
unsigned int __results_seizure_binary_onelayer_checkpoint_poi_15_fold_7_mobilenet_s_onelayer_model_quant_int_tflite_len = 5216;
